#map = affine_map<(d0, d1) -> (d0, d1)>
#map1 = affine_map<()[s0] -> (s0 * 151936)>
#map2 = affine_map<(d0, d1, d2) -> (d0, d1)>
#map3 = affine_map<(d0, d1, d2) -> (d0, d1, d2)>
#map4 = affine_map<(d0, d1) -> (d0, 0)>
#map5 = affine_map<()[s0] -> (s0 * 64)>
#map6 = affine_map<(d0, d1, d2) -> (d0, 0, d2)>
#map7 = affine_map<(d0, d1, d2, d3) -> (d0, d1, 0, d3)>
#map8 = affine_map<(d0, d1, d2, d3) -> (d0, d1, d2, d3)>
#map9 = affine_map<(d0, d1, d2) -> (d0, d1, 0)>
#map10 = affine_map<()[s0] -> (s0 * 1536)>
#map11 = affine_map<()[s0] -> (s0 * 256)>
#map12 = affine_map<(d0, d1, d2, d3) -> (d0, 0, d2, d3)>
#map13 = affine_map<(d0, d1, d2, d3) -> (d0, 0, d2, 0)>
module {
  memref.global "private" constant @__constant_1x1x2x64xf32 : memref<1x1x2x64xf32> = dense<0.000000e+00> {alignment = 64 : i64}
  memref.global "private" constant @__constant_1x1x1xf32_1 : memref<1x1x1xf32> = dense<9.99999997E-7> {alignment = 64 : i64}
  memref.global "private" constant @__constant_1x1536xf32 : memref<1x1536xf32> = dense<0.000000e+00> {alignment = 64 : i64}
  memref.global "private" constant @__constant_1x256xf32 : memref<1x256xf32> = dense<0.000000e+00> {alignment = 64 : i64}
  memref.global "private" constant @__constant_1x2x1x128xi64 : memref<1x2x1x128xi64> = dense<0> {alignment = 64 : i64}
  memref.global "private" constant @__constant_1x8960xf32 : memref<1x8960xf32> = dense<0.000000e+00> {alignment = 64 : i64}
  memref.global "private" constant @__constant_1x151936xf32 : memref<1x151936xf32> = dense<0.000000e+00> {alignment = 64 : i64}
  memref.global "private" constant @__constant_1x1024xi64 : memref<1x1024xi64> = dense<"0x00000000000000000100000000000000020000000000000003000000000000000400000000000000050000000000000006000000000000000700000000000000080000000000000009000000000000000A000000000000000B000000000000000C000000000000000D000000000000000E000000000000000F0000000000000010000000000000001100000000000000120000000000000013000000000000001400000000000000150000000000000016000000000000001700000000000000180000000000000019000000000000001A000000000000001B000000000000001C000000000000001D000000000000001E000000000000001F0000000000000020000000000000002100000000000000220000000000000023000000000000002400000000000000250000000000000026000000000000002700000000000000280000000000000029000000000000002A000000000000002B000000000000002C000000000000002D000000000000002E000000000000002F0000000000000030000000000000003100000000000000320000000000000033000000000000003400000000000000350000000000000036000000000000003700000000000000380000000000000039000000000000003A000000000000003B000000000000003C000000000000003D000000000000003E000000000000003F0000000000000040000000000000004100000000000000420000000000000043000000000000004400000000000000450000000000000046000000000000004700000000000000480000000000000049000000000000004A000000000000004B000000000000004C000000000000004D000000000000004E000000000000004F0000000000000050000000000000005100000000000000520000000000000053000000000000005400000000000000550000000000000056000000000000005700000000000000580000000000000059000000000000005A000000000000005B000000000000005C000000000000005D000000000000005E000000000000005F0000000000000060000000000000006100000000000000620000000000000063000000000000006400000000000000650000000000000066000000000000006700000000000000680000000000000069000000000000006A000000000000006B000000000000006C000000000000006D000000000000006E000000000000006F0000000000000070000000000000007100000000000000720000000000000073000000000000007400000000000000750000000000000076000000000000007700000000000000780000000000000079000000000000007A000000000000007B000000000000007C000000000000007D000000000000007E000000000000007F0000000000000080000000000000008100000000000000820000000000000083000000000000008400000000000000850000000000000086000000000000008700000000000000880000000000000089000000000000008A000000000000008B000000000000008C000000000000008D000000000000008E000000000000008F0000000000000090000000000000009100000000000000920000000000000093000000000000009400000000000000950000000000000096000000000000009700000000000000980000000000000099000000000000009A000000000000009B000000000000009C000000000000009D000000000000009E000000000000009F00000000000000A000000000000000A100000000000000A200000000000000A300000000000000A400000000000000A500000000000000A600000000000000A700000000000000A800000000000000A900000000000000AA00000000000000AB00000000000000AC00000000000000AD00000000000000AE00000000000000AF00000000000000B000000000000000B100000000000000B200000000000000B300000000000000B400000000000000B500000000000000B600000000000000B700000000000000B800000000000000B900000000000000BA00000000000000BB00000000000000BC00000000000000BD00000000000000BE00000000000000BF00000000000000C000000000000000C100000000000000C200000000000000C300000000000000C400000000000000C500000000000000C600000000000000C700000000000000C800000000000000C900000000000000CA00000000000000CB00000000000000CC00000000000000CD00000000000000CE00000000000000CF00000000000000D000000000000000D100000000000000D200000000000000D300000000000000D400000000000000D500000000000000D600000000000000D700000000000000D800000000000000D900000000000000DA00000000000000DB00000000000000DC00000000000000DD00000000000000DE00000000000000DF00000000000000E000000000000000E100000000000000E200000000000000E300000000000000E400000000000000E500000000000000E600000000000000E700000000000000E800000000000000E900000000000000EA00000000000000EB00000000000000EC00000000000000ED00000000000000EE00000000000000EF00000000000000F000000000000000F100000000000000F200000000000000F300000000000000F400000000000000F500000000000000F600000000000000F700000000000000F800000000000000F900000000000000FA00000000000000FB00000000000000FC00000000000000FD00000000000000FE00000000000000FF0000000000000000010000000000000101000000000000020100000000000003010000000000000401000000000000050100000000000006010000000000000701000000000000080100000000000009010000000000000A010000000000000B010000000000000C010000000000000D010000000000000E010000000000000F0100000000000010010000000000001101000000000000120100000000000013010000000000001401000000000000150100000000000016010000000000001701000000000000180100000000000019010000000000001A010000000000001B010000000000001C010000000000001D010000000000001E010000000000001F0100000000000020010000000000002101000000000000220100000000000023010000000000002401000000000000250100000000000026010000000000002701000000000000280100000000000029010000000000002A010000000000002B010000000000002C010000000000002D010000000000002E010000000000002F0100000000000030010000000000003101000000000000320100000000000033010000000000003401000000000000350100000000000036010000000000003701000000000000380100000000000039010000000000003A010000000000003B010000000000003C010000000000003D010000000000003E010000000000003F0100000000000040010000000000004101000000000000420100000000000043010000000000004401000000000000450100000000000046010000000000004701000000000000480100000000000049010000000000004A010000000000004B010000000000004C010000000000004D010000000000004E010000000000004F0100000000000050010000000000005101000000000000520100000000000053010000000000005401000000000000550100000000000056010000000000005701000000000000580100000000000059010000000000005A010000000000005B010000000000005C010000000000005D010000000000005E010000000000005F0100000000000060010000000000006101000000000000620100000000000063010000000000006401000000000000650100000000000066010000000000006701000000000000680100000000000069010000000000006A010000000000006B010000000000006C010000000000006D010000000000006E010000000000006F0100000000000070010000000000007101000000000000720100000000000073010000000000007401000000000000750100000000000076010000000000007701000000000000780100000000000079010000000000007A010000000000007B010000000000007C010000000000007D010000000000007E010000000000007F0100000000000080010000000000008101000000000000820100000000000083010000000000008401000000000000850100000000000086010000000000008701000000000000880100000000000089010000000000008A010000000000008B010000000000008C010000000000008D010000000000008E010000000000008F0100000000000090010000000000009101000000000000920100000000000093010000000000009401000000000000950100000000000096010000000000009701000000000000980100000000000099010000000000009A010000000000009B010000000000009C010000000000009D010000000000009E010000000000009F01000000000000A001000000000000A101000000000000A201000000000000A301000000000000A401000000000000A501000000000000A601000000000000A701000000000000A801000000000000A901000000000000AA01000000000000AB01000000000000AC01000000000000AD01000000000000AE01000000000000AF01000000000000B001000000000000B101000000000000B201000000000000B301000000000000B401000000000000B501000000000000B601000000000000B701000000000000B801000000000000B901000000000000BA01000000000000BB01000000000000BC01000000000000BD01000000000000BE01000000000000BF01000000000000C001000000000000C101000000000000C201000000000000C301000000000000C401000000000000C501000000000000C601000000000000C701000000000000C801000000000000C901000000000000CA01000000000000CB01000000000000CC01000000000000CD01000000000000CE01000000000000CF01000000000000D001000000000000D101000000000000D201000000000000D301000000000000D401000000000000D501000000000000D601000000000000D701000000000000D801000000000000D901000000000000DA01000000000000DB01000000000000DC01000000000000DD01000000000000DE01000000000000DF01000000000000E001000000000000E101000000000000E201000000000000E301000000000000E401000000000000E501000000000000E601000000000000E701000000000000E801000000000000E901000000000000EA01000000000000EB01000000000000EC01000000000000ED01000000000000EE01000000000000EF01000000000000F001000000000000F101000000000000F201000000000000F301000000000000F401000000000000F501000000000000F601000000000000F701000000000000F801000000000000F901000000000000FA01000000000000FB01000000000000FC01000000000000FD01000000000000FE01000000000000FF0100000000000000020000000000000102000000000000020200000000000003020000000000000402000000000000050200000000000006020000000000000702000000000000080200000000000009020000000000000A020000000000000B020000000000000C020000000000000D020000000000000E020000000000000F0200000000000010020000000000001102000000000000120200000000000013020000000000001402000000000000150200000000000016020000000000001702000000000000180200000000000019020000000000001A020000000000001B020000000000001C020000000000001D020000000000001E020000000000001F0200000000000020020000000000002102000000000000220200000000000023020000000000002402000000000000250200000000000026020000000000002702000000000000280200000000000029020000000000002A020000000000002B020000000000002C020000000000002D020000000000002E020000000000002F0200000000000030020000000000003102000000000000320200000000000033020000000000003402000000000000350200000000000036020000000000003702000000000000380200000000000039020000000000003A020000000000003B020000000000003C020000000000003D020000000000003E020000000000003F0200000000000040020000000000004102000000000000420200000000000043020000000000004402000000000000450200000000000046020000000000004702000000000000480200000000000049020000000000004A020000000000004B020000000000004C020000000000004D020000000000004E020000000000004F0200000000000050020000000000005102000000000000520200000000000053020000000000005402000000000000550200000000000056020000000000005702000000000000580200000000000059020000000000005A020000000000005B020000000000005C020000000000005D020000000000005E020000000000005F0200000000000060020000000000006102000000000000620200000000000063020000000000006402000000000000650200000000000066020000000000006702000000000000680200000000000069020000000000006A020000000000006B020000000000006C020000000000006D020000000000006E020000000000006F0200000000000070020000000000007102000000000000720200000000000073020000000000007402000000000000750200000000000076020000000000007702000000000000780200000000000079020000000000007A020000000000007B020000000000007C020000000000007D020000000000007E020000000000007F0200000000000080020000000000008102000000000000820200000000000083020000000000008402000000000000850200000000000086020000000000008702000000000000880200000000000089020000000000008A020000000000008B020000000000008C020000000000008D020000000000008E020000000000008F0200000000000090020000000000009102000000000000920200000000000093020000000000009402000000000000950200000000000096020000000000009702000000000000980200000000000099020000000000009A020000000000009B020000000000009C020000000000009D020000000000009E020000000000009F02000000000000A002000000000000A102000000000000A202000000000000A302000000000000A402000000000000A502000000000000A602000000000000A702000000000000A802000000000000A902000000000000AA02000000000000AB02000000000000AC02000000000000AD02000000000000AE02000000000000AF02000000000000B002000000000000B102000000000000B202000000000000B302000000000000B402000000000000B502000000000000B602000000000000B702000000000000B802000000000000B902000000000000BA02000000000000BB02000000000000BC02000000000000BD02000000000000BE02000000000000BF02000000000000C002000000000000C102000000000000C202000000000000C302000000000000C402000000000000C502000000000000C602000000000000C702000000000000C802000000000000C902000000000000CA02000000000000CB02000000000000CC02000000000000CD02000000000000CE02000000000000CF02000000000000D002000000000000D102000000000000D202000000000000D302000000000000D402000000000000D502000000000000D602000000000000D702000000000000D802000000000000D902000000000000DA02000000000000DB02000000000000DC02000000000000DD02000000000000DE02000000000000DF02000000000000E002000000000000E102000000000000E202000000000000E302000000000000E402000000000000E502000000000000E602000000000000E702000000000000E802000000000000E902000000000000EA02000000000000EB02000000000000EC02000000000000ED02000000000000EE02000000000000EF02000000000000F002000000000000F102000000000000F202000000000000F302000000000000F402000000000000F502000000000000F602000000000000F702000000000000F802000000000000F902000000000000FA02000000000000FB02000000000000FC02000000000000FD02000000000000FE02000000000000FF0200000000000000030000000000000103000000000000020300000000000003030000000000000403000000000000050300000000000006030000000000000703000000000000080300000000000009030000000000000A030000000000000B030000000000000C030000000000000D030000000000000E030000000000000F0300000000000010030000000000001103000000000000120300000000000013030000000000001403000000000000150300000000000016030000000000001703000000000000180300000000000019030000000000001A030000000000001B030000000000001C030000000000001D030000000000001E030000000000001F0300000000000020030000000000002103000000000000220300000000000023030000000000002403000000000000250300000000000026030000000000002703000000000000280300000000000029030000000000002A030000000000002B030000000000002C030000000000002D030000000000002E030000000000002F0300000000000030030000000000003103000000000000320300000000000033030000000000003403000000000000350300000000000036030000000000003703000000000000380300000000000039030000000000003A030000000000003B030000000000003C030000000000003D030000000000003E030000000000003F0300000000000040030000000000004103000000000000420300000000000043030000000000004403000000000000450300000000000046030000000000004703000000000000480300000000000049030000000000004A030000000000004B030000000000004C030000000000004D030000000000004E030000000000004F0300000000000050030000000000005103000000000000520300000000000053030000000000005403000000000000550300000000000056030000000000005703000000000000580300000000000059030000000000005A030000000000005B030000000000005C030000000000005D030000000000005E030000000000005F0300000000000060030000000000006103000000000000620300000000000063030000000000006403000000000000650300000000000066030000000000006703000000000000680300000000000069030000000000006A030000000000006B030000000000006C030000000000006D030000000000006E030000000000006F0300000000000070030000000000007103000000000000720300000000000073030000000000007403000000000000750300000000000076030000000000007703000000000000780300000000000079030000000000007A030000000000007B030000000000007C030000000000007D030000000000007E030000000000007F0300000000000080030000000000008103000000000000820300000000000083030000000000008403000000000000850300000000000086030000000000008703000000000000880300000000000089030000000000008A030000000000008B030000000000008C030000000000008D030000000000008E030000000000008F0300000000000090030000000000009103000000000000920300000000000093030000000000009403000000000000950300000000000096030000000000009703000000000000980300000000000099030000000000009A030000000000009B030000000000009C030000000000009D030000000000009E030000000000009F03000000000000A003000000000000A103000000000000A203000000000000A303000000000000A403000000000000A503000000000000A603000000000000A703000000000000A803000000000000A903000000000000AA03000000000000AB03000000000000AC03000000000000AD03000000000000AE03000000000000AF03000000000000B003000000000000B103000000000000B203000000000000B303000000000000B403000000000000B503000000000000B603000000000000B703000000000000B803000000000000B903000000000000BA03000000000000BB03000000000000BC03000000000000BD03000000000000BE03000000000000BF03000000000000C003000000000000C103000000000000C203000000000000C303000000000000C403000000000000C503000000000000C603000000000000C703000000000000C803000000000000C903000000000000CA03000000000000CB03000000000000CC03000000000000CD03000000000000CE03000000000000CF03000000000000D003000000000000D103000000000000D203000000000000D303000000000000D403000000000000D503000000000000D603000000000000D703000000000000D803000000000000D903000000000000DA03000000000000DB03000000000000DC03000000000000DD03000000000000DE03000000000000DF03000000000000E003000000000000E103000000000000E203000000000000E303000000000000E403000000000000E503000000000000E603000000000000E703000000000000E803000000000000E903000000000000EA03000000000000EB03000000000000EC03000000000000ED03000000000000EE03000000000000EF03000000000000F003000000000000F103000000000000F203000000000000F303000000000000F403000000000000F503000000000000F603000000000000F703000000000000F803000000000000F903000000000000FA03000000000000FB03000000000000FC03000000000000FD03000000000000FE03000000000000FF03000000000000"> {alignment = 64 : i64}
  memref.global "private" constant @__constant_1x1x1xf32 : memref<1x1x1xf32> = dense<6.51041686E-4> {alignment = 64 : i64}
  memref.global "private" constant @__constant_1x1x1x1024xf32_0 : memref<1x1x1x1024xf32> = dense<0.000000e+00> {alignment = 64 : i64}
  memref.global "private" constant @__constant_1x1x1x1024xf32 : memref<1x1x1x1024xf32> = dense<0xFF800000> {alignment = 64 : i64}
  func.func @subgraph0_decode(%arg0: memref<151936x1536xf32, strided<[?, ?], offset: ?>>, %arg1: memref<1x1xi64, strided<[?, ?], offset: ?>>, %arg2: memref<1xi64, strided<[?], offset: ?>>, %arg3: memref<1xi64, strided<[?], offset: ?>>, %arg4: memref<64xf32, strided<[?], offset: ?>>, %arg5: memref<1536xf32, strided<[?], offset: ?>>, %arg6: memref<1536xf32, strided<[?], offset: ?>>, %arg7: memref<1536x1536xf32, strided<[?, ?], offset: ?>>, %arg8: memref<256xf32, strided<[?], offset: ?>>, %arg9: memref<1536x256xf32, strided<[?, ?], offset: ?>>, %arg10: memref<256xf32, strided<[?], offset: ?>>, %arg11: memref<1536x256xf32, strided<[?, ?], offset: ?>>, %arg12: memref<1x2x1024x128xf32, strided<[?, ?, ?, ?], offset: ?>>, %arg13: memref<1x2x1024x128xf32, strided<[?, ?, ?, ?], offset: ?>>, %arg14: memref<1536x1536xf32, strided<[?, ?], offset: ?>>, %arg15: memref<1536xf32, strided<[?], offset: ?>>, %arg16: memref<1536x8960xf32, strided<[?, ?], offset: ?>>, %arg17: memref<1536x8960xf32, strided<[?, ?], offset: ?>>, %arg18: memref<8960x1536xf32, strided<[?, ?], offset: ?>>, %arg19: memref<1536xf32, strided<[?], offset: ?>>, %arg20: memref<1536xf32, strided<[?], offset: ?>>, %arg21: memref<1536x1536xf32, strided<[?, ?], offset: ?>>, %arg22: memref<256xf32, strided<[?], offset: ?>>, %arg23: memref<1536x256xf32, strided<[?, ?], offset: ?>>, %arg24: memref<256xf32, strided<[?], offset: ?>>, %arg25: memref<1536x256xf32, strided<[?, ?], offset: ?>>, %arg26: memref<1x2x1024x128xf32, strided<[?, ?, ?, ?], offset: ?>>, %arg27: memref<1x2x1024x128xf32, strided<[?, ?, ?, ?], offset: ?>>, %arg28: memref<1536x1536xf32, strided<[?, ?], offset: ?>>, %arg29: memref<1536xf32, strided<[?], offset: ?>>, %arg30: memref<1536x8960xf32, strided<[?, ?], offset: ?>>, %arg31: memref<1536x8960xf32, strided<[?, ?], offset: ?>>, %arg32: memref<8960x1536xf32, strided<[?, ?], offset: ?>>, %arg33: memref<1536xf32, strided<[?], offset: ?>>, %arg34: memref<1536xf32, strided<[?], offset: ?>>, %arg35: memref<1536x1536xf32, strided<[?, ?], offset: ?>>, %arg36: memref<256xf32, strided<[?], offset: ?>>, %arg37: memref<1536x256xf32, strided<[?, ?], offset: ?>>, %arg38: memref<256xf32, strided<[?], offset: ?>>, %arg39: memref<1536x256xf32, strided<[?, ?], offset: ?>>, %arg40: memref<1x2x1024x128xf32, strided<[?, ?, ?, ?], offset: ?>>, %arg41: memref<1x2x1024x128xf32, strided<[?, ?, ?, ?], offset: ?>>, %arg42: memref<1536x1536xf32, strided<[?, ?], offset: ?>>, %arg43: memref<1536xf32, strided<[?], offset: ?>>, %arg44: memref<1536x8960xf32, strided<[?, ?], offset: ?>>, %arg45: memref<1536x8960xf32, strided<[?, ?], offset: ?>>, %arg46: memref<8960x1536xf32, strided<[?, ?], offset: ?>>, %arg47: memref<1536xf32, strided<[?], offset: ?>>, %arg48: memref<1536xf32, strided<[?], offset: ?>>, %arg49: memref<1536x1536xf32, strided<[?, ?], offset: ?>>, %arg50: memref<256xf32, strided<[?], offset: ?>>, %arg51: memref<1536x256xf32, strided<[?, ?], offset: ?>>, %arg52: memref<256xf32, strided<[?], offset: ?>>, %arg53: memref<1536x256xf32, strided<[?, ?], offset: ?>>, %arg54: memref<1x2x1024x128xf32, strided<[?, ?, ?, ?], offset: ?>>, %arg55: memref<1x2x1024x128xf32, strided<[?, ?, ?, ?], offset: ?>>, %arg56: memref<1536x1536xf32, strided<[?, ?], offset: ?>>, %arg57: memref<1536xf32, strided<[?], offset: ?>>, %arg58: memref<1536x8960xf32, strided<[?, ?], offset: ?>>, %arg59: memref<1536x8960xf32, strided<[?, ?], offset: ?>>, %arg60: memref<8960x1536xf32, strided<[?, ?], offset: ?>>, %arg61: memref<1536xf32, strided<[?], offset: ?>>, %arg62: memref<1536xf32, strided<[?], offset: ?>>, %arg63: memref<1536x1536xf32, strided<[?, ?], offset: ?>>, %arg64: memref<256xf32, strided<[?], offset: ?>>, %arg65: memref<1536x256xf32, strided<[?, ?], offset: ?>>, %arg66: memref<256xf32, strided<[?], offset: ?>>, %arg67: memref<1536x256xf32, strided<[?, ?], offset: ?>>, %arg68: memref<1x2x1024x128xf32, strided<[?, ?, ?, ?], offset: ?>>, %arg69: memref<1x2x1024x128xf32, strided<[?, ?, ?, ?], offset: ?>>, %arg70: memref<1536x1536xf32, strided<[?, ?], offset: ?>>, %arg71: memref<1536xf32, strided<[?], offset: ?>>, %arg72: memref<1536x8960xf32, strided<[?, ?], offset: ?>>, %arg73: memref<1536x8960xf32, strided<[?, ?], offset: ?>>, %arg74: memref<8960x1536xf32, strided<[?, ?], offset: ?>>, %arg75: memref<1536xf32, strided<[?], offset: ?>>, %arg76: memref<1536xf32, strided<[?], offset: ?>>, %arg77: memref<1536x1536xf32, strided<[?, ?], offset: ?>>, %arg78: memref<256xf32, strided<[?], offset: ?>>, %arg79: memref<1536x256xf32, strided<[?, ?], offset: ?>>, %arg80: memref<256xf32, strided<[?], offset: ?>>, %arg81: memref<1536x256xf32, strided<[?, ?], offset: ?>>, %arg82: memref<1x2x1024x128xf32, strided<[?, ?, ?, ?], offset: ?>>, %arg83: memref<1x2x1024x128xf32, strided<[?, ?, ?, ?], offset: ?>>, %arg84: memref<1536x1536xf32, strided<[?, ?], offset: ?>>, %arg85: memref<1536xf32, strided<[?], offset: ?>>, %arg86: memref<1536x8960xf32, strided<[?, ?], offset: ?>>, %arg87: memref<1536x8960xf32, strided<[?, ?], offset: ?>>, %arg88: memref<8960x1536xf32, strided<[?, ?], offset: ?>>, %arg89: memref<1536xf32, strided<[?], offset: ?>>, %arg90: memref<1536xf32, strided<[?], offset: ?>>, %arg91: memref<1536x1536xf32, strided<[?, ?], offset: ?>>, %arg92: memref<256xf32, strided<[?], offset: ?>>, %arg93: memref<1536x256xf32, strided<[?, ?], offset: ?>>, %arg94: memref<256xf32, strided<[?], offset: ?>>, %arg95: memref<1536x256xf32, strided<[?, ?], offset: ?>>, %arg96: memref<1x2x1024x128xf32, strided<[?, ?, ?, ?], offset: ?>>, %arg97: memref<1x2x1024x128xf32, strided<[?, ?, ?, ?], offset: ?>>, %arg98: memref<1536x1536xf32, strided<[?, ?], offset: ?>>, %arg99: memref<1536xf32, strided<[?], offset: ?>>, %arg100: memref<1536x8960xf32, strided<[?, ?], offset: ?>>, %arg101: memref<1536x8960xf32, strided<[?, ?], offset: ?>>, %arg102: memref<8960x1536xf32, strided<[?, ?], offset: ?>>, %arg103: memref<1536xf32, strided<[?], offset: ?>>, %arg104: memref<1536xf32, strided<[?], offset: ?>>, %arg105: memref<1536x1536xf32, strided<[?, ?], offset: ?>>, %arg106: memref<256xf32, strided<[?], offset: ?>>, %arg107: memref<1536x256xf32, strided<[?, ?], offset: ?>>, %arg108: memref<256xf32, strided<[?], offset: ?>>, %arg109: memref<1536x256xf32, strided<[?, ?], offset: ?>>, %arg110: memref<1x2x1024x128xf32, strided<[?, ?, ?, ?], offset: ?>>, %arg111: memref<1x2x1024x128xf32, strided<[?, ?, ?, ?], offset: ?>>, %arg112: memref<1536x1536xf32, strided<[?, ?], offset: ?>>, %arg113: memref<1536xf32, strided<[?], offset: ?>>, %arg114: memref<1536x8960xf32, strided<[?, ?], offset: ?>>, %arg115: memref<1536x8960xf32, strided<[?, ?], offset: ?>>, %arg116: memref<8960x1536xf32, strided<[?, ?], offset: ?>>, %arg117: memref<1536xf32, strided<[?], offset: ?>>, %arg118: memref<1536xf32, strided<[?], offset: ?>>, %arg119: memref<1536x1536xf32, strided<[?, ?], offset: ?>>, %arg120: memref<256xf32, strided<[?], offset: ?>>, %arg121: memref<1536x256xf32, strided<[?, ?], offset: ?>>, %arg122: memref<256xf32, strided<[?], offset: ?>>, %arg123: memref<1536x256xf32, strided<[?, ?], offset: ?>>, %arg124: memref<1x2x1024x128xf32, strided<[?, ?, ?, ?], offset: ?>>, %arg125: memref<1x2x1024x128xf32, strided<[?, ?, ?, ?], offset: ?>>, %arg126: memref<1536x1536xf32, strided<[?, ?], offset: ?>>, %arg127: memref<1536xf32, strided<[?], offset: ?>>, %arg128: memref<1536x8960xf32, strided<[?, ?], offset: ?>>, %arg129: memref<1536x8960xf32, strided<[?, ?], offset: ?>>, %arg130: memref<8960x1536xf32, strided<[?, ?], offset: ?>>, %arg131: memref<1536xf32, strided<[?], offset: ?>>, %arg132: memref<1536xf32, strided<[?], offset: ?>>, %arg133: memref<1536x1536xf32, strided<[?, ?], offset: ?>>, %arg134: memref<256xf32, strided<[?], offset: ?>>, %arg135: memref<1536x256xf32, strided<[?, ?], offset: ?>>, %arg136: memref<256xf32, strided<[?], offset: ?>>, %arg137: memref<1536x256xf32, strided<[?, ?], offset: ?>>, %arg138: memref<1x2x1024x128xf32, strided<[?, ?, ?, ?], offset: ?>>, %arg139: memref<1x2x1024x128xf32, strided<[?, ?, ?, ?], offset: ?>>, %arg140: memref<1536x1536xf32, strided<[?, ?], offset: ?>>, %arg141: memref<1536xf32, strided<[?], offset: ?>>, %arg142: memref<1536x8960xf32, strided<[?, ?], offset: ?>>, %arg143: memref<1536x8960xf32, strided<[?, ?], offset: ?>>, %arg144: memref<8960x1536xf32, strided<[?, ?], offset: ?>>, %arg145: memref<1536xf32, strided<[?], offset: ?>>, %arg146: memref<1536xf32, strided<[?], offset: ?>>, %arg147: memref<1536x1536xf32, strided<[?, ?], offset: ?>>, %arg148: memref<256xf32, strided<[?], offset: ?>>, %arg149: memref<1536x256xf32, strided<[?, ?], offset: ?>>, %arg150: memref<256xf32, strided<[?], offset: ?>>, %arg151: memref<1536x256xf32, strided<[?, ?], offset: ?>>, %arg152: memref<1x2x1024x128xf32, strided<[?, ?, ?, ?], offset: ?>>, %arg153: memref<1x2x1024x128xf32, strided<[?, ?, ?, ?], offset: ?>>, %arg154: memref<1536x1536xf32, strided<[?, ?], offset: ?>>, %arg155: memref<1536xf32, strided<[?], offset: ?>>, %arg156: memref<1536x8960xf32, strided<[?, ?], offset: ?>>, %arg157: memref<1536x8960xf32, strided<[?, ?], offset: ?>>, %arg158: memref<8960x1536xf32, strided<[?, ?], offset: ?>>, %arg159: memref<1536xf32, strided<[?], offset: ?>>, %arg160: memref<1536xf32, strided<[?], offset: ?>>, %arg161: memref<1536x1536xf32, strided<[?, ?], offset: ?>>, %arg162: memref<256xf32, strided<[?], offset: ?>>, %arg163: memref<1536x256xf32, strided<[?, ?], offset: ?>>, %arg164: memref<256xf32, strided<[?], offset: ?>>, %arg165: memref<1536x256xf32, strided<[?, ?], offset: ?>>, %arg166: memref<1x2x1024x128xf32, strided<[?, ?, ?, ?], offset: ?>>, %arg167: memref<1x2x1024x128xf32, strided<[?, ?, ?, ?], offset: ?>>, %arg168: memref<1536x1536xf32, strided<[?, ?], offset: ?>>, %arg169: memref<1536xf32, strided<[?], offset: ?>>, %arg170: memref<1536x8960xf32, strided<[?, ?], offset: ?>>, %arg171: memref<1536x8960xf32, strided<[?, ?], offset: ?>>, %arg172: memref<8960x1536xf32, strided<[?, ?], offset: ?>>, %arg173: memref<1536xf32, strided<[?], offset: ?>>, %arg174: memref<1536xf32, strided<[?], offset: ?>>, %arg175: memref<1536x1536xf32, strided<[?, ?], offset: ?>>, %arg176: memref<256xf32, strided<[?], offset: ?>>, %arg177: memref<1536x256xf32, strided<[?, ?], offset: ?>>, %arg178: memref<256xf32, strided<[?], offset: ?>>, %arg179: memref<1536x256xf32, strided<[?, ?], offset: ?>>, %arg180: memref<1x2x1024x128xf32, strided<[?, ?, ?, ?], offset: ?>>, %arg181: memref<1x2x1024x128xf32, strided<[?, ?, ?, ?], offset: ?>>, %arg182: memref<1536x1536xf32, strided<[?, ?], offset: ?>>, %arg183: memref<1536xf32, strided<[?], offset: ?>>, %arg184: memref<1536x8960xf32, strided<[?, ?], offset: ?>>, %arg185: memref<1536x8960xf32, strided<[?, ?], offset: ?>>, %arg186: memref<8960x1536xf32, strided<[?, ?], offset: ?>>, %arg187: memref<1536xf32, strided<[?], offset: ?>>, %arg188: memref<1536xf32, strided<[?], offset: ?>>, %arg189: memref<1536x1536xf32, strided<[?, ?], offset: ?>>, %arg190: memref<256xf32, strided<[?], offset: ?>>, %arg191: memref<1536x256xf32, strided<[?, ?], offset: ?>>, %arg192: memref<256xf32, strided<[?], offset: ?>>, %arg193: memref<1536x256xf32, strided<[?, ?], offset: ?>>, %arg194: memref<1x2x1024x128xf32, strided<[?, ?, ?, ?], offset: ?>>, %arg195: memref<1x2x1024x128xf32, strided<[?, ?, ?, ?], offset: ?>>, %arg196: memref<1536x1536xf32, strided<[?, ?], offset: ?>>, %arg197: memref<1536xf32, strided<[?], offset: ?>>, %arg198: memref<1536x8960xf32, strided<[?, ?], offset: ?>>, %arg199: memref<1536x8960xf32, strided<[?, ?], offset: ?>>, %arg200: memref<8960x1536xf32, strided<[?, ?], offset: ?>>, %arg201: memref<1536xf32, strided<[?], offset: ?>>, %arg202: memref<1536xf32, strided<[?], offset: ?>>, %arg203: memref<1536x1536xf32, strided<[?, ?], offset: ?>>, %arg204: memref<256xf32, strided<[?], offset: ?>>, %arg205: memref<1536x256xf32, strided<[?, ?], offset: ?>>, %arg206: memref<256xf32, strided<[?], offset: ?>>, %arg207: memref<1536x256xf32, strided<[?, ?], offset: ?>>, %arg208: memref<1x2x1024x128xf32, strided<[?, ?, ?, ?], offset: ?>>, %arg209: memref<1x2x1024x128xf32, strided<[?, ?, ?, ?], offset: ?>>, %arg210: memref<1536x1536xf32, strided<[?, ?], offset: ?>>, %arg211: memref<1536xf32, strided<[?], offset: ?>>, %arg212: memref<1536x8960xf32, strided<[?, ?], offset: ?>>, %arg213: memref<1536x8960xf32, strided<[?, ?], offset: ?>>, %arg214: memref<8960x1536xf32, strided<[?, ?], offset: ?>>, %arg215: memref<1536xf32, strided<[?], offset: ?>>, %arg216: memref<1536xf32, strided<[?], offset: ?>>, %arg217: memref<1536x1536xf32, strided<[?, ?], offset: ?>>, %arg218: memref<256xf32, strided<[?], offset: ?>>, %arg219: memref<1536x256xf32, strided<[?, ?], offset: ?>>, %arg220: memref<256xf32, strided<[?], offset: ?>>, %arg221: memref<1536x256xf32, strided<[?, ?], offset: ?>>, %arg222: memref<1x2x1024x128xf32, strided<[?, ?, ?, ?], offset: ?>>, %arg223: memref<1x2x1024x128xf32, strided<[?, ?, ?, ?], offset: ?>>, %arg224: memref<1536x1536xf32, strided<[?, ?], offset: ?>>, %arg225: memref<1536xf32, strided<[?], offset: ?>>, %arg226: memref<1536x8960xf32, strided<[?, ?], offset: ?>>, %arg227: memref<1536x8960xf32, strided<[?, ?], offset: ?>>, %arg228: memref<8960x1536xf32, strided<[?, ?], offset: ?>>, %arg229: memref<1536xf32, strided<[?], offset: ?>>, %arg230: memref<1536xf32, strided<[?], offset: ?>>, %arg231: memref<1536x1536xf32, strided<[?, ?], offset: ?>>, %arg232: memref<256xf32, strided<[?], offset: ?>>, %arg233: memref<1536x256xf32, strided<[?, ?], offset: ?>>, %arg234: memref<256xf32, strided<[?], offset: ?>>, %arg235: memref<1536x256xf32, strided<[?, ?], offset: ?>>, %arg236: memref<1x2x1024x128xf32, strided<[?, ?, ?, ?], offset: ?>>, %arg237: memref<1x2x1024x128xf32, strided<[?, ?, ?, ?], offset: ?>>, %arg238: memref<1536x1536xf32, strided<[?, ?], offset: ?>>, %arg239: memref<1536xf32, strided<[?], offset: ?>>, %arg240: memref<1536x8960xf32, strided<[?, ?], offset: ?>>, %arg241: memref<1536x8960xf32, strided<[?, ?], offset: ?>>, %arg242: memref<8960x1536xf32, strided<[?, ?], offset: ?>>, %arg243: memref<1536xf32, strided<[?], offset: ?>>, %arg244: memref<1536xf32, strided<[?], offset: ?>>, %arg245: memref<1536x1536xf32, strided<[?, ?], offset: ?>>, %arg246: memref<256xf32, strided<[?], offset: ?>>, %arg247: memref<1536x256xf32, strided<[?, ?], offset: ?>>, %arg248: memref<256xf32, strided<[?], offset: ?>>, %arg249: memref<1536x256xf32, strided<[?, ?], offset: ?>>, %arg250: memref<1x2x1024x128xf32, strided<[?, ?, ?, ?], offset: ?>>, %arg251: memref<1x2x1024x128xf32, strided<[?, ?, ?, ?], offset: ?>>, %arg252: memref<1536x1536xf32, strided<[?, ?], offset: ?>>, %arg253: memref<1536xf32, strided<[?], offset: ?>>, %arg254: memref<1536x8960xf32, strided<[?, ?], offset: ?>>, %arg255: memref<1536x8960xf32, strided<[?, ?], offset: ?>>, %arg256: memref<8960x1536xf32, strided<[?, ?], offset: ?>>, %arg257: memref<1536xf32, strided<[?], offset: ?>>, %arg258: memref<1536xf32, strided<[?], offset: ?>>, %arg259: memref<1536x1536xf32, strided<[?, ?], offset: ?>>, %arg260: memref<256xf32, strided<[?], offset: ?>>, %arg261: memref<1536x256xf32, strided<[?, ?], offset: ?>>, %arg262: memref<256xf32, strided<[?], offset: ?>>, %arg263: memref<1536x256xf32, strided<[?, ?], offset: ?>>, %arg264: memref<1x2x1024x128xf32, strided<[?, ?, ?, ?], offset: ?>>, %arg265: memref<1x2x1024x128xf32, strided<[?, ?, ?, ?], offset: ?>>, %arg266: memref<1536x1536xf32, strided<[?, ?], offset: ?>>, %arg267: memref<1536xf32, strided<[?], offset: ?>>, %arg268: memref<1536x8960xf32, strided<[?, ?], offset: ?>>, %arg269: memref<1536x8960xf32, strided<[?, ?], offset: ?>>, %arg270: memref<8960x1536xf32, strided<[?, ?], offset: ?>>, %arg271: memref<1536xf32, strided<[?], offset: ?>>, %arg272: memref<1536xf32, strided<[?], offset: ?>>, %arg273: memref<1536x1536xf32, strided<[?, ?], offset: ?>>, %arg274: memref<256xf32, strided<[?], offset: ?>>, %arg275: memref<1536x256xf32, strided<[?, ?], offset: ?>>, %arg276: memref<256xf32, strided<[?], offset: ?>>, %arg277: memref<1536x256xf32, strided<[?, ?], offset: ?>>, %arg278: memref<1x2x1024x128xf32, strided<[?, ?, ?, ?], offset: ?>>, %arg279: memref<1x2x1024x128xf32, strided<[?, ?, ?, ?], offset: ?>>, %arg280: memref<1536x1536xf32, strided<[?, ?], offset: ?>>, %arg281: memref<1536xf32, strided<[?], offset: ?>>, %arg282: memref<1536x8960xf32, strided<[?, ?], offset: ?>>, %arg283: memref<1536x8960xf32, strided<[?, ?], offset: ?>>, %arg284: memref<8960x1536xf32, strided<[?, ?], offset: ?>>, %arg285: memref<1536xf32, strided<[?], offset: ?>>, %arg286: memref<1536xf32, strided<[?], offset: ?>>, %arg287: memref<1536x1536xf32, strided<[?, ?], offset: ?>>, %arg288: memref<256xf32, strided<[?], offset: ?>>, %arg289: memref<1536x256xf32, strided<[?, ?], offset: ?>>, %arg290: memref<256xf32, strided<[?], offset: ?>>, %arg291: memref<1536x256xf32, strided<[?, ?], offset: ?>>, %arg292: memref<1x2x1024x128xf32, strided<[?, ?, ?, ?], offset: ?>>, %arg293: memref<1x2x1024x128xf32, strided<[?, ?, ?, ?], offset: ?>>, %arg294: memref<1536x1536xf32, strided<[?, ?], offset: ?>>, %arg295: memref<1536xf32, strided<[?], offset: ?>>, %arg296: memref<1536x8960xf32, strided<[?, ?], offset: ?>>, %arg297: memref<1536x8960xf32, strided<[?, ?], offset: ?>>, %arg298: memref<8960x1536xf32, strided<[?, ?], offset: ?>>, %arg299: memref<1536xf32, strided<[?], offset: ?>>, %arg300: memref<1536xf32, strided<[?], offset: ?>>, %arg301: memref<1536x1536xf32, strided<[?, ?], offset: ?>>, %arg302: memref<256xf32, strided<[?], offset: ?>>, %arg303: memref<1536x256xf32, strided<[?, ?], offset: ?>>, %arg304: memref<256xf32, strided<[?], offset: ?>>, %arg305: memref<1536x256xf32, strided<[?, ?], offset: ?>>, %arg306: memref<1x2x1024x128xf32, strided<[?, ?, ?, ?], offset: ?>>, %arg307: memref<1x2x1024x128xf32, strided<[?, ?, ?, ?], offset: ?>>, %arg308: memref<1536x1536xf32, strided<[?, ?], offset: ?>>, %arg309: memref<1536xf32, strided<[?], offset: ?>>, %arg310: memref<1536x8960xf32, strided<[?, ?], offset: ?>>, %arg311: memref<1536x8960xf32, strided<[?, ?], offset: ?>>, %arg312: memref<8960x1536xf32, strided<[?, ?], offset: ?>>, %arg313: memref<1536xf32, strided<[?], offset: ?>>, %arg314: memref<1536xf32, strided<[?], offset: ?>>, %arg315: memref<1536x1536xf32, strided<[?, ?], offset: ?>>, %arg316: memref<256xf32, strided<[?], offset: ?>>, %arg317: memref<1536x256xf32, strided<[?, ?], offset: ?>>, %arg318: memref<256xf32, strided<[?], offset: ?>>, %arg319: memref<1536x256xf32, strided<[?, ?], offset: ?>>, %arg320: memref<1x2x1024x128xf32, strided<[?, ?, ?, ?], offset: ?>>, %arg321: memref<1x2x1024x128xf32, strided<[?, ?, ?, ?], offset: ?>>, %arg322: memref<1536x1536xf32, strided<[?, ?], offset: ?>>, %arg323: memref<1536xf32, strided<[?], offset: ?>>, %arg324: memref<1536x8960xf32, strided<[?, ?], offset: ?>>, %arg325: memref<1536x8960xf32, strided<[?, ?], offset: ?>>, %arg326: memref<8960x1536xf32, strided<[?, ?], offset: ?>>, %arg327: memref<1536xf32, strided<[?], offset: ?>>, %arg328: memref<1536xf32, strided<[?], offset: ?>>, %arg329: memref<1536x1536xf32, strided<[?, ?], offset: ?>>, %arg330: memref<256xf32, strided<[?], offset: ?>>, %arg331: memref<1536x256xf32, strided<[?, ?], offset: ?>>, %arg332: memref<256xf32, strided<[?], offset: ?>>, %arg333: memref<1536x256xf32, strided<[?, ?], offset: ?>>, %arg334: memref<1x2x1024x128xf32, strided<[?, ?, ?, ?], offset: ?>>, %arg335: memref<1x2x1024x128xf32, strided<[?, ?, ?, ?], offset: ?>>, %arg336: memref<1536x1536xf32, strided<[?, ?], offset: ?>>, %arg337: memref<1536xf32, strided<[?], offset: ?>>, %arg338: memref<1536x8960xf32, strided<[?, ?], offset: ?>>, %arg339: memref<1536x8960xf32, strided<[?, ?], offset: ?>>, %arg340: memref<8960x1536xf32, strided<[?, ?], offset: ?>>, %arg341: memref<1536xf32, strided<[?], offset: ?>>, %arg342: memref<1536xf32, strided<[?], offset: ?>>, %arg343: memref<1536x1536xf32, strided<[?, ?], offset: ?>>, %arg344: memref<256xf32, strided<[?], offset: ?>>, %arg345: memref<1536x256xf32, strided<[?, ?], offset: ?>>, %arg346: memref<256xf32, strided<[?], offset: ?>>, %arg347: memref<1536x256xf32, strided<[?, ?], offset: ?>>, %arg348: memref<1x2x1024x128xf32, strided<[?, ?, ?, ?], offset: ?>>, %arg349: memref<1x2x1024x128xf32, strided<[?, ?, ?, ?], offset: ?>>, %arg350: memref<1536x1536xf32, strided<[?, ?], offset: ?>>, %arg351: memref<1536xf32, strided<[?], offset: ?>>, %arg352: memref<1536x8960xf32, strided<[?, ?], offset: ?>>, %arg353: memref<1536x8960xf32, strided<[?, ?], offset: ?>>, %arg354: memref<8960x1536xf32, strided<[?, ?], offset: ?>>, %arg355: memref<1536xf32, strided<[?], offset: ?>>, %arg356: memref<1536xf32, strided<[?], offset: ?>>, %arg357: memref<1536x1536xf32, strided<[?, ?], offset: ?>>, %arg358: memref<256xf32, strided<[?], offset: ?>>, %arg359: memref<1536x256xf32, strided<[?, ?], offset: ?>>, %arg360: memref<256xf32, strided<[?], offset: ?>>, %arg361: memref<1536x256xf32, strided<[?, ?], offset: ?>>, %arg362: memref<1x2x1024x128xf32, strided<[?, ?, ?, ?], offset: ?>>, %arg363: memref<1x2x1024x128xf32, strided<[?, ?, ?, ?], offset: ?>>, %arg364: memref<1536x1536xf32, strided<[?, ?], offset: ?>>, %arg365: memref<1536xf32, strided<[?], offset: ?>>, %arg366: memref<1536x8960xf32, strided<[?, ?], offset: ?>>, %arg367: memref<1536x8960xf32, strided<[?, ?], offset: ?>>, %arg368: memref<8960x1536xf32, strided<[?, ?], offset: ?>>, %arg369: memref<1536xf32, strided<[?], offset: ?>>, %arg370: memref<1536xf32, strided<[?], offset: ?>>, %arg371: memref<1536x1536xf32, strided<[?, ?], offset: ?>>, %arg372: memref<256xf32, strided<[?], offset: ?>>, %arg373: memref<1536x256xf32, strided<[?, ?], offset: ?>>, %arg374: memref<256xf32, strided<[?], offset: ?>>, %arg375: memref<1536x256xf32, strided<[?, ?], offset: ?>>, %arg376: memref<1x2x1024x128xf32, strided<[?, ?, ?, ?], offset: ?>>, %arg377: memref<1x2x1024x128xf32, strided<[?, ?, ?, ?], offset: ?>>, %arg378: memref<1536x1536xf32, strided<[?, ?], offset: ?>>, %arg379: memref<1536xf32, strided<[?], offset: ?>>, %arg380: memref<1536x8960xf32, strided<[?, ?], offset: ?>>, %arg381: memref<1536x8960xf32, strided<[?, ?], offset: ?>>, %arg382: memref<8960x1536xf32, strided<[?, ?], offset: ?>>, %arg383: memref<1536xf32, strided<[?], offset: ?>>, %arg384: memref<1536xf32, strided<[?], offset: ?>>, %arg385: memref<1536x1536xf32, strided<[?, ?], offset: ?>>, %arg386: memref<256xf32, strided<[?], offset: ?>>, %arg387: memref<1536x256xf32, strided<[?, ?], offset: ?>>, %arg388: memref<256xf32, strided<[?], offset: ?>>, %arg389: memref<1536x256xf32, strided<[?, ?], offset: ?>>, %arg390: memref<1x2x1024x128xf32, strided<[?, ?, ?, ?], offset: ?>>, %arg391: memref<1x2x1024x128xf32, strided<[?, ?, ?, ?], offset: ?>>, %arg392: memref<1536x1536xf32, strided<[?, ?], offset: ?>>, %arg393: memref<1536xf32, strided<[?], offset: ?>>, %arg394: memref<1536x8960xf32, strided<[?, ?], offset: ?>>, %arg395: memref<1536x8960xf32, strided<[?, ?], offset: ?>>, %arg396: memref<8960x1536xf32, strided<[?, ?], offset: ?>>, %arg397: memref<1536xf32, strided<[?], offset: ?>>, %arg398: memref<1536x151936xf32, strided<[?, ?], offset: ?>>) -> (memref<1x2x1024x128xf32>, memref<1x2x1024x128xf32>, memref<1x2x1024x128xf32>, memref<1x2x1024x128xf32>, memref<1x2x1024x128xf32>, memref<1x2x1024x128xf32>, memref<1x2x1024x128xf32>, memref<1x2x1024x128xf32>, memref<1x2x1024x128xf32>, memref<1x2x1024x128xf32>, memref<1x2x1024x128xf32>, memref<1x2x1024x128xf32>, memref<1x2x1024x128xf32>, memref<1x2x1024x128xf32>, memref<1x2x1024x128xf32>, memref<1x2x1024x128xf32>, memref<1x2x1024x128xf32>, memref<1x2x1024x128xf32>, memref<1x2x1024x128xf32>, memref<1x2x1024x128xf32>, memref<1x2x1024x128xf32>, memref<1x2x1024x128xf32>, memref<1x2x1024x128xf32>, memref<1x2x1024x128xf32>, memref<1x2x1024x128xf32>, memref<1x2x1024x128xf32>, memref<1x2x1024x128xf32>, memref<1x2x1024x128xf32>, memref<1x2x1024x128xf32>, memref<1x2x1024x128xf32>, memref<1x2x1024x128xf32>, memref<1x2x1024x128xf32>, memref<1x2x1024x128xf32>, memref<1x2x1024x128xf32>, memref<1x2x1024x128xf32>, memref<1x2x1024x128xf32>, memref<1x2x1024x128xf32>, memref<1x2x1024x128xf32>, memref<1x2x1024x128xf32>, memref<1x2x1024x128xf32>, memref<1x2x1024x128xf32>, memref<1x2x1024x128xf32>, memref<1x2x1024x128xf32>, memref<1x2x1024x128xf32>, memref<1x2x1024x128xf32>, memref<1x2x1024x128xf32>, memref<1x2x1024x128xf32>, memref<1x2x1024x128xf32>, memref<1x2x1024x128xf32>, memref<1x2x1024x128xf32>, memref<1x2x1024x128xf32>, memref<1x2x1024x128xf32>, memref<1x2x1024x128xf32>, memref<1x2x1024x128xf32>, memref<1x2x1024x128xf32>, memref<1x2x1024x128xf32>, memref<1x1x151936xf32>) {
    %true = arith.constant true
    %c2_i32 = arith.constant 2 : i32
    %c0 = arith.constant 0 : index
    %c1 = arith.constant 1 : index
    %c2 = arith.constant 2 : index
    %c128 = arith.constant 128 : index
    %cst = arith.constant 0.000000e+00 : f32
    %cst_0 = arith.constant 1.000000e+00 : f32
    %cst_1 = arith.constant 0.0883883461 : f32
    %cst_2 = arith.constant -1.000000e+30 : f32
    %c6 = arith.constant 6 : index
    %cst_3 = arith.constant dense<0.000000e+00> : vector<16xf32>
    %0 = memref.get_global @__constant_1x1x1x1024xf32 : memref<1x1x1x1024xf32>
    %1 = memref.get_global @__constant_1x1x1x1024xf32_0 : memref<1x1x1x1024xf32>
    %2 = memref.get_global @__constant_1x1x1xf32 : memref<1x1x1xf32>
    %3 = memref.get_global @__constant_1x1024xi64 : memref<1x1024xi64>
    %4 = memref.get_global @__constant_1x151936xf32 : memref<1x151936xf32>
    %5 = memref.get_global @__constant_1x8960xf32 : memref<1x8960xf32>
    %6 = memref.get_global @__constant_1x2x1x128xi64 : memref<1x2x1x128xi64>
    %7 = memref.get_global @__constant_1x256xf32 : memref<1x256xf32>
    %8 = memref.get_global @__constant_1x1536xf32 : memref<1x1536xf32>
    %9 = memref.get_global @__constant_1x1x1xf32_1 : memref<1x1x1xf32>
    %10 = memref.get_global @__constant_1x1x2x64xf32 : memref<1x1x2x64xf32>
    %alloc = memref.alloc() {alignment = 64 : i64} : memref<1x1xi32>
    linalg.generic {indexing_maps = [#map, #map], iterator_types = ["parallel", "parallel"]} ins(%arg1 : memref<1x1xi64, strided<[?, ?], offset: ?>>) outs(%alloc : memref<1x1xi32>) {
    ^bb0(%in: i64, %out: i32):
      %211 = arith.trunci %in : i64 to i32
      linalg.yield %211 : i32
    }
    %base_buffer, %offset, %sizes:2, %strides:2 = memref.extract_strided_metadata %arg0 : memref<151936x1536xf32, strided<[?, ?], offset: ?>> -> memref<f32>, index, index, index, index, index
    %11 = affine.apply #map1()[%strides#0]
    %reinterpret_cast = memref.reinterpret_cast %base_buffer to offset: [%offset], sizes: [1, 151936, 1536], strides: [%11, %strides#0, %strides#1] : memref<f32> to memref<1x151936x1536xf32, strided<[?, ?, ?], offset: ?>>
    %alloc_4 = memref.alloc() {alignment = 64 : i64} : memref<1x1x1536xf32>
    linalg.generic {indexing_maps = [#map2, #map3], iterator_types = ["parallel", "parallel", "parallel"]} ins(%alloc : memref<1x1xi32>) outs(%alloc_4 : memref<1x1x1536xf32>) {
    ^bb0(%in: i32, %out: f32):
      %211 = arith.index_cast %in : i32 to index
      %212 = linalg.index 2 : index
      %213 = memref.load %reinterpret_cast[%c0, %211, %212] : memref<1x151936x1536xf32, strided<[?, ?, ?], offset: ?>>
      linalg.yield %213 : f32
    }
    %base_buffer_5, %offset_6, %sizes_7, %strides_8 = memref.extract_strided_metadata %arg3 : memref<1xi64, strided<[?], offset: ?>> -> memref<i64>, index, index, index
    %reinterpret_cast_9 = memref.reinterpret_cast %base_buffer_5 to offset: [%offset_6], sizes: [1, 1], strides: [%strides_8, %strides_8] : memref<i64> to memref<1x1xi64, strided<[?, ?], offset: ?>>
    %alloc_10 = memref.alloc() {alignment = 64 : i64} : memref<1x1024xi1>
    linalg.generic {indexing_maps = [#map4, #map, #map], iterator_types = ["parallel", "parallel"]} ins(%reinterpret_cast_9, %3 : memref<1x1xi64, strided<[?, ?], offset: ?>>, memref<1x1024xi64>) outs(%alloc_10 : memref<1x1024xi1>) {
    ^bb0(%in: i64, %in_3095: i64, %out: i1):
      %211 = arith.cmpi sge, %in, %in_3095 : i64
      linalg.yield %211 : i1
    }
    %base_buffer_11, %offset_12, %sizes_13, %strides_14 = memref.extract_strided_metadata %arg4 : memref<64xf32, strided<[?], offset: ?>> -> memref<f32>, index, index, index
    %12 = affine.apply #map5()[%strides_14]
    %reinterpret_cast_15 = memref.reinterpret_cast %base_buffer_11 to offset: [%offset_12], sizes: [1, 64, 1], strides: [%12, %strides_14, %strides_14] : memref<f32> to memref<1x64x1xf32, strided<[?, ?, ?], offset: ?>>
    %base_buffer_16, %offset_17, %sizes_18, %strides_19 = memref.extract_strided_metadata %arg3 : memref<1xi64, strided<[?], offset: ?>> -> memref<i64>, index, index, index
    %reinterpret_cast_20 = memref.reinterpret_cast %base_buffer_16 to offset: [%offset_17], sizes: [1, 1, 1], strides: [%strides_19, %strides_19, %strides_19] : memref<i64> to memref<1x1x1xi64, strided<[?, ?, ?], offset: ?>>
    %alloc_21 = memref.alloc() {alignment = 64 : i64} : memref<1x1x1xf32>
    linalg.generic {indexing_maps = [#map3, #map3], iterator_types = ["parallel", "parallel", "parallel"]} ins(%reinterpret_cast_20 : memref<1x1x1xi64, strided<[?, ?, ?], offset: ?>>) outs(%alloc_21 : memref<1x1x1xf32>) {
    ^bb0(%in: i64, %out: f32):
      %211 = arith.sitofp %in : i64 to f32
      linalg.yield %211 : f32
    }
    %alloc_22 = memref.alloc() {alignment = 64 : i64} : memref<1x64x1xf32>
    linalg.generic {indexing_maps = [#map3, #map6, #map3], iterator_types = ["parallel", "parallel", "parallel"]} ins(%reinterpret_cast_15, %alloc_21 : memref<1x64x1xf32, strided<[?, ?, ?], offset: ?>>, memref<1x1x1xf32>) outs(%alloc_22 : memref<1x64x1xf32>) {
    ^bb0(%in: f32, %in_3095: f32, %out: f32):
      %211 = arith.mulf %in, %in_3095 : f32
      linalg.yield %211 : f32
    }
    %reinterpret_cast_23 = memref.reinterpret_cast %alloc_22 to offset: [0], sizes: [1, 1, 1, 64], strides: [64, 64, 64, 1] : memref<1x64x1xf32> to memref<1x1x1x64xf32>
    %alloc_24 = memref.alloc() {alignment = 64 : i64} : memref<1x1x2x64xf32>
    linalg.generic {indexing_maps = [#map7, #map8, #map8], iterator_types = ["parallel", "parallel", "parallel", "parallel"]} ins(%reinterpret_cast_23, %10 : memref<1x1x1x64xf32>, memref<1x1x2x64xf32>) outs(%alloc_24 : memref<1x1x2x64xf32>) {
    ^bb0(%in: f32, %in_3095: f32, %out: f32):
      %211 = arith.addf %in, %in_3095 : f32
      linalg.yield %211 : f32
    }
    %reinterpret_cast_25 = memref.reinterpret_cast %alloc_24 to offset: [0], sizes: [1, 1, 128], strides: [128, 128, 1] : memref<1x1x2x64xf32> to memref<1x1x128xf32>
    %alloc_26 = memref.alloc() {alignment = 64 : i64} : memref<1x1x128xf32>
    linalg.generic {indexing_maps = [#map3, #map3], iterator_types = ["parallel", "parallel", "parallel"]} ins(%reinterpret_cast_25 : memref<1x1x128xf32>) outs(%alloc_26 : memref<1x1x128xf32>) {
    ^bb0(%in: f32, %out: f32):
      %211 = math.cos %in : f32
      linalg.yield %211 : f32
    }
    linalg.generic {indexing_maps = [#map3, #map3], iterator_types = ["parallel", "parallel", "parallel"]} ins(%reinterpret_cast_25 : memref<1x1x128xf32>) outs(%reinterpret_cast_25 : memref<1x1x128xf32>) {
    ^bb0(%in: f32, %out: f32):
      %211 = math.sin %in : f32
      linalg.yield %211 : f32
    }
    %alloc_27 = memref.alloc() {alignment = 64 : i64} : memref<1x1x1536xf32>
    linalg.generic {indexing_maps = [#map3, #map3], iterator_types = ["parallel", "parallel", "parallel"]} ins(%alloc_4 : memref<1x1x1536xf32>) outs(%alloc_27 : memref<1x1x1536xf32>) {
    ^bb0(%in: f32, %out: f32):
      %211 = math.fpowi %in, %c2_i32 : f32, i32
      linalg.yield %211 : f32
    }
    %alloc_28 = memref.alloc() {alignment = 64 : i64} : memref<1x1xf32>
    linalg.fill ins(%cst : f32) outs(%alloc_28 : memref<1x1xf32>)
    linalg.reduce ins(%alloc_27 : memref<1x1x1536xf32>) outs(%alloc_28 : memref<1x1xf32>) dimensions = [2]
      (%in: f32, %init: f32) {
        %211 = arith.addf %in, %init : f32
        linalg.yield %211 : f32
      }
    %reinterpret_cast_29 = memref.reinterpret_cast %alloc_28 to offset: [0], sizes: [1, 1, 1], strides: [1, 1, 1] : memref<1x1xf32> to memref<1x1x1xf32>
    %alloc_30 = memref.alloc() {alignment = 64 : i64} : memref<1x1x1xf32>
    linalg.generic {indexing_maps = [#map3, #map3, #map3], iterator_types = ["parallel", "parallel", "parallel"]} ins(%reinterpret_cast_29, %2 : memref<1x1x1xf32>, memref<1x1x1xf32>) outs(%alloc_30 : memref<1x1x1xf32>) {
    ^bb0(%in: f32, %in_3095: f32, %out: f32):
      %211 = arith.mulf %in, %in_3095 : f32
      linalg.yield %211 : f32
    }
    %alloc_31 = memref.alloc() {alignment = 64 : i64} : memref<1x1x1xf32>
    linalg.generic {indexing_maps = [#map3, #map3, #map3], iterator_types = ["parallel", "parallel", "parallel"]} ins(%alloc_30, %9 : memref<1x1x1xf32>, memref<1x1x1xf32>) outs(%alloc_31 : memref<1x1x1xf32>) {
    ^bb0(%in: f32, %in_3095: f32, %out: f32):
      %211 = arith.addf %in, %in_3095 : f32
      linalg.yield %211 : f32
    }
    %alloc_32 = memref.alloc() {alignment = 64 : i64} : memref<1x1x1xf32>
    linalg.generic {indexing_maps = [#map3, #map3], iterator_types = ["parallel", "parallel", "parallel"]} ins(%alloc_31 : memref<1x1x1xf32>) outs(%alloc_32 : memref<1x1x1xf32>) {
    ^bb0(%in: f32, %out: f32):
      %211 = math.rsqrt %in : f32
      linalg.yield %211 : f32
    }
    %alloc_33 = memref.alloc() {alignment = 64 : i64} : memref<1x1x1536xf32>
    linalg.generic {indexing_maps = [#map3, #map9, #map3], iterator_types = ["parallel", "parallel", "parallel"]} ins(%alloc_4, %alloc_32 : memref<1x1x1536xf32>, memref<1x1x1xf32>) outs(%alloc_33 : memref<1x1x1536xf32>) {
    ^bb0(%in: f32, %in_3095: f32, %out: f32):
      %211 = arith.mulf %in, %in_3095 : f32
      linalg.yield %211 : f32
    }
    %base_buffer_34, %offset_35, %sizes_36, %strides_37 = memref.extract_strided_metadata %arg5 : memref<1536xf32, strided<[?], offset: ?>> -> memref<f32>, index, index, index
    %13 = affine.apply #map10()[%strides_37]
    %14 = affine.apply #map10()[%strides_37]
    %reinterpret_cast_38 = memref.reinterpret_cast %base_buffer_34 to offset: [%offset_35], sizes: [1, 1, 1536], strides: [%13, %14, %strides_37] : memref<f32> to memref<1x1x1536xf32, strided<[?, ?, ?], offset: ?>>
    %alloc_39 = memref.alloc() {alignment = 64 : i64} : memref<1x1x1536xf32>
    linalg.generic {indexing_maps = [#map3, #map3, #map3], iterator_types = ["parallel", "parallel", "parallel"]} ins(%reinterpret_cast_38, %alloc_33 : memref<1x1x1536xf32, strided<[?, ?, ?], offset: ?>>, memref<1x1x1536xf32>) outs(%alloc_39 : memref<1x1x1536xf32>) {
    ^bb0(%in: f32, %in_3095: f32, %out: f32):
      %211 = arith.mulf %in, %in_3095 : f32
      linalg.yield %211 : f32
    }
    %reinterpret_cast_40 = memref.reinterpret_cast %alloc_39 to offset: [0], sizes: [1, 1536], strides: [1536, 1] : memref<1x1x1536xf32> to memref<1x1536xf32>
    %alloc_41 = memref.alloc() {alignment = 64 : i64} : memref<1x1536xf32>
    memref.copy %8, %alloc_41 : memref<1x1536xf32> to memref<1x1536xf32>
    linalg.matmul {cast = #linalg.type_fn<cast_signed>} ins(%reinterpret_cast_40, %arg7 : memref<1x1536xf32>, memref<1536x1536xf32, strided<[?, ?], offset: ?>>) outs(%alloc_41 : memref<1x1536xf32>)
    %base_buffer_42, %offset_43, %sizes_44, %strides_45 = memref.extract_strided_metadata %arg6 : memref<1536xf32, strided<[?], offset: ?>> -> memref<f32>, index, index, index
    %15 = affine.apply #map10()[%strides_45]
    %reinterpret_cast_46 = memref.reinterpret_cast %base_buffer_42 to offset: [%offset_43], sizes: [1, 1536], strides: [%15, %strides_45] : memref<f32> to memref<1x1536xf32, strided<[?, ?], offset: ?>>
    %alloc_47 = memref.alloc() {alignment = 64 : i64} : memref<1x1536xf32>
    linalg.generic {indexing_maps = [#map, #map, #map], iterator_types = ["parallel", "parallel"]} ins(%reinterpret_cast_46, %alloc_41 : memref<1x1536xf32, strided<[?, ?], offset: ?>>, memref<1x1536xf32>) outs(%alloc_47 : memref<1x1536xf32>) {
    ^bb0(%in: f32, %in_3095: f32, %out: f32):
      %211 = arith.addf %in, %in_3095 : f32
      linalg.yield %211 : f32
    }
    %reinterpret_cast_48 = memref.reinterpret_cast %alloc_47 to offset: [0], sizes: [1, 12, 1, 128], strides: [1536, 128, 128, 1] : memref<1x1536xf32> to memref<1x12x1x128xf32>
    %reinterpret_cast_49 = memref.reinterpret_cast %alloc_39 to offset: [0], sizes: [1, 1536], strides: [1536, 1] : memref<1x1x1536xf32> to memref<1x1536xf32>
    %alloc_50 = memref.alloc() {alignment = 64 : i64} : memref<1x256xf32>
    memref.copy %7, %alloc_50 : memref<1x256xf32> to memref<1x256xf32>
    linalg.matmul {cast = #linalg.type_fn<cast_signed>} ins(%reinterpret_cast_49, %arg9 : memref<1x1536xf32>, memref<1536x256xf32, strided<[?, ?], offset: ?>>) outs(%alloc_50 : memref<1x256xf32>)
    %base_buffer_51, %offset_52, %sizes_53, %strides_54 = memref.extract_strided_metadata %arg8 : memref<256xf32, strided<[?], offset: ?>> -> memref<f32>, index, index, index
    %16 = affine.apply #map11()[%strides_54]
    %reinterpret_cast_55 = memref.reinterpret_cast %base_buffer_51 to offset: [%offset_52], sizes: [1, 256], strides: [%16, %strides_54] : memref<f32> to memref<1x256xf32, strided<[?, ?], offset: ?>>
    %alloc_56 = memref.alloc() {alignment = 64 : i64} : memref<1x256xf32>
    linalg.generic {indexing_maps = [#map, #map, #map], iterator_types = ["parallel", "parallel"]} ins(%reinterpret_cast_55, %alloc_50 : memref<1x256xf32, strided<[?, ?], offset: ?>>, memref<1x256xf32>) outs(%alloc_56 : memref<1x256xf32>) {
    ^bb0(%in: f32, %in_3095: f32, %out: f32):
      %211 = arith.addf %in, %in_3095 : f32
      linalg.yield %211 : f32
    }
    %reinterpret_cast_57 = memref.reinterpret_cast %alloc_56 to offset: [0], sizes: [1, 2, 1, 128], strides: [256, 128, 128, 1] : memref<1x256xf32> to memref<1x2x1x128xf32>
    %reinterpret_cast_58 = memref.reinterpret_cast %alloc_39 to offset: [0], sizes: [1, 1536], strides: [1536, 1] : memref<1x1x1536xf32> to memref<1x1536xf32>
    %alloc_59 = memref.alloc() {alignment = 64 : i64} : memref<1x256xf32>
    memref.copy %7, %alloc_59 : memref<1x256xf32> to memref<1x256xf32>
    linalg.matmul {cast = #linalg.type_fn<cast_signed>} ins(%reinterpret_cast_58, %arg11 : memref<1x1536xf32>, memref<1536x256xf32, strided<[?, ?], offset: ?>>) outs(%alloc_59 : memref<1x256xf32>)
    %base_buffer_60, %offset_61, %sizes_62, %strides_63 = memref.extract_strided_metadata %arg10 : memref<256xf32, strided<[?], offset: ?>> -> memref<f32>, index, index, index
    %17 = affine.apply #map11()[%strides_63]
    %reinterpret_cast_64 = memref.reinterpret_cast %base_buffer_60 to offset: [%offset_61], sizes: [1, 256], strides: [%17, %strides_63] : memref<f32> to memref<1x256xf32, strided<[?, ?], offset: ?>>
    %alloc_65 = memref.alloc() {alignment = 64 : i64} : memref<1x256xf32>
    linalg.generic {indexing_maps = [#map, #map, #map], iterator_types = ["parallel", "parallel"]} ins(%reinterpret_cast_64, %alloc_59 : memref<1x256xf32, strided<[?, ?], offset: ?>>, memref<1x256xf32>) outs(%alloc_65 : memref<1x256xf32>) {
    ^bb0(%in: f32, %in_3095: f32, %out: f32):
      %211 = arith.addf %in, %in_3095 : f32
      linalg.yield %211 : f32
    }
    %reinterpret_cast_66 = memref.reinterpret_cast %alloc_65 to offset: [0], sizes: [1, 2, 1, 128], strides: [256, 128, 128, 1] : memref<1x256xf32> to memref<1x2x1x128xf32>
    %reinterpret_cast_67 = memref.reinterpret_cast %alloc_26 to offset: [0], sizes: [1, 1, 1, 128], strides: [128, 128, 128, 1] : memref<1x1x128xf32> to memref<1x1x1x128xf32>
    %reinterpret_cast_68 = memref.reinterpret_cast %alloc_24 to offset: [0], sizes: [1, 1, 1, 128], strides: [128, 128, 128, 1] : memref<1x1x2x64xf32> to memref<1x1x1x128xf32>
    %alloc_69 = memref.alloc() {alignment = 64 : i64} : memref<1x12x1x128xf32>
    linalg.generic {indexing_maps = [#map8, #map12, #map8], iterator_types = ["parallel", "parallel", "parallel", "parallel"]} ins(%reinterpret_cast_48, %reinterpret_cast_67 : memref<1x12x1x128xf32>, memref<1x1x1x128xf32>) outs(%alloc_69 : memref<1x12x1x128xf32>) {
    ^bb0(%in: f32, %in_3095: f32, %out: f32):
      %211 = arith.mulf %in, %in_3095 : f32
      linalg.yield %211 : f32
    }
    %reinterpret_cast_70 = memref.reinterpret_cast %alloc_47 to offset: [0], sizes: [1, 12, 1, 64], strides: [1536, 128, 128, 1] : memref<1x1536xf32> to memref<1x12x1x64xf32, strided<[1536, 128, 128, 1]>>
    %reinterpret_cast_71 = memref.reinterpret_cast %alloc_47 to offset: [64], sizes: [1, 12, 1, 64], strides: [1536, 128, 128, 1] : memref<1x1536xf32> to memref<1x12x1x64xf32, strided<[1536, 128, 128, 1], offset: 64>>
    %alloc_72 = memref.alloc() {alignment = 64 : i64} : memref<1x12x1x64xf32>
    linalg.generic {indexing_maps = [#map8, #map8], iterator_types = ["parallel", "parallel", "parallel", "parallel"]} ins(%reinterpret_cast_71 : memref<1x12x1x64xf32, strided<[1536, 128, 128, 1], offset: 64>>) outs(%alloc_72 : memref<1x12x1x64xf32>) {
    ^bb0(%in: f32, %out: f32):
      %211 = arith.negf %in : f32
      linalg.yield %211 : f32
    }
    %alloc_73 = memref.alloc() {alignment = 64 : i64} : memref<1x12x1x128xf32>
    %reinterpret_cast_74 = memref.reinterpret_cast %alloc_73 to offset: [0], sizes: [1, 12, 1, 64], strides: [1536, 128, 128, 1] : memref<1x12x1x128xf32> to memref<1x12x1x64xf32, strided<[1536, 128, 128, 1]>>
    memref.copy %alloc_72, %reinterpret_cast_74 : memref<1x12x1x64xf32> to memref<1x12x1x64xf32, strided<[1536, 128, 128, 1]>>
    %reinterpret_cast_75 = memref.reinterpret_cast %alloc_73 to offset: [64], sizes: [1, 12, 1, 64], strides: [1536, 128, 128, 1] : memref<1x12x1x128xf32> to memref<1x12x1x64xf32, strided<[1536, 128, 128, 1], offset: 64>>
    memref.copy %reinterpret_cast_70, %reinterpret_cast_75 : memref<1x12x1x64xf32, strided<[1536, 128, 128, 1]>> to memref<1x12x1x64xf32, strided<[1536, 128, 128, 1], offset: 64>>
    %alloc_76 = memref.alloc() {alignment = 64 : i64} : memref<1x12x1x128xf32>
    linalg.generic {indexing_maps = [#map8, #map12, #map8], iterator_types = ["parallel", "parallel", "parallel", "parallel"]} ins(%alloc_73, %reinterpret_cast_68 : memref<1x12x1x128xf32>, memref<1x1x1x128xf32>) outs(%alloc_76 : memref<1x12x1x128xf32>) {
    ^bb0(%in: f32, %in_3095: f32, %out: f32):
      %211 = arith.mulf %in, %in_3095 : f32
      linalg.yield %211 : f32
    }
    %alloc_77 = memref.alloc() {alignment = 64 : i64} : memref<1x12x1x128xf32>
    linalg.generic {indexing_maps = [#map8, #map8, #map8], iterator_types = ["parallel", "parallel", "parallel", "parallel"]} ins(%alloc_69, %alloc_76 : memref<1x12x1x128xf32>, memref<1x12x1x128xf32>) outs(%alloc_77 : memref<1x12x1x128xf32>) {
    ^bb0(%in: f32, %in_3095: f32, %out: f32):
      %211 = arith.addf %in, %in_3095 : f32
      linalg.yield %211 : f32
    }
    %alloc_78 = memref.alloc() {alignment = 64 : i64} : memref<1x2x1x128xf32>
    linalg.generic {indexing_maps = [#map8, #map12, #map8], iterator_types = ["parallel", "parallel", "parallel", "parallel"]} ins(%reinterpret_cast_57, %reinterpret_cast_67 : memref<1x2x1x128xf32>, memref<1x1x1x128xf32>) outs(%alloc_78 : memref<1x2x1x128xf32>) {
    ^bb0(%in: f32, %in_3095: f32, %out: f32):
      %211 = arith.mulf %in, %in_3095 : f32
      linalg.yield %211 : f32
    }
    %reinterpret_cast_79 = memref.reinterpret_cast %alloc_56 to offset: [0], sizes: [1, 2, 1, 64], strides: [256, 128, 128, 1] : memref<1x256xf32> to memref<1x2x1x64xf32, strided<[256, 128, 128, 1]>>
    %reinterpret_cast_80 = memref.reinterpret_cast %alloc_56 to offset: [64], sizes: [1, 2, 1, 64], strides: [256, 128, 128, 1] : memref<1x256xf32> to memref<1x2x1x64xf32, strided<[256, 128, 128, 1], offset: 64>>
    %alloc_81 = memref.alloc() {alignment = 64 : i64} : memref<1x2x1x64xf32>
    linalg.generic {indexing_maps = [#map8, #map8], iterator_types = ["parallel", "parallel", "parallel", "parallel"]} ins(%reinterpret_cast_80 : memref<1x2x1x64xf32, strided<[256, 128, 128, 1], offset: 64>>) outs(%alloc_81 : memref<1x2x1x64xf32>) {
    ^bb0(%in: f32, %out: f32):
      %211 = arith.negf %in : f32
      linalg.yield %211 : f32
    }
    %alloc_82 = memref.alloc() {alignment = 64 : i64} : memref<1x2x1x128xf32>
    %reinterpret_cast_83 = memref.reinterpret_cast %alloc_82 to offset: [0], sizes: [1, 2, 1, 64], strides: [256, 128, 128, 1] : memref<1x2x1x128xf32> to memref<1x2x1x64xf32, strided<[256, 128, 128, 1]>>
    memref.copy %alloc_81, %reinterpret_cast_83 : memref<1x2x1x64xf32> to memref<1x2x1x64xf32, strided<[256, 128, 128, 1]>>
    %reinterpret_cast_84 = memref.reinterpret_cast %alloc_82 to offset: [64], sizes: [1, 2, 1, 64], strides: [256, 128, 128, 1] : memref<1x2x1x128xf32> to memref<1x2x1x64xf32, strided<[256, 128, 128, 1], offset: 64>>
    memref.copy %reinterpret_cast_79, %reinterpret_cast_84 : memref<1x2x1x64xf32, strided<[256, 128, 128, 1]>> to memref<1x2x1x64xf32, strided<[256, 128, 128, 1], offset: 64>>
    %alloc_85 = memref.alloc() {alignment = 64 : i64} : memref<1x2x1x128xf32>
    linalg.generic {indexing_maps = [#map8, #map12, #map8], iterator_types = ["parallel", "parallel", "parallel", "parallel"]} ins(%alloc_82, %reinterpret_cast_68 : memref<1x2x1x128xf32>, memref<1x1x1x128xf32>) outs(%alloc_85 : memref<1x2x1x128xf32>) {
    ^bb0(%in: f32, %in_3095: f32, %out: f32):
      %211 = arith.mulf %in, %in_3095 : f32
      linalg.yield %211 : f32
    }
    %alloc_86 = memref.alloc() {alignment = 64 : i64} : memref<1x2x1x128xf32>
    linalg.generic {indexing_maps = [#map8, #map8, #map8], iterator_types = ["parallel", "parallel", "parallel", "parallel"]} ins(%alloc_78, %alloc_85 : memref<1x2x1x128xf32>, memref<1x2x1x128xf32>) outs(%alloc_86 : memref<1x2x1x128xf32>) {
    ^bb0(%in: f32, %in_3095: f32, %out: f32):
      %211 = arith.addf %in, %in_3095 : f32
      linalg.yield %211 : f32
    }
    %alloc_87 = memref.alloc() {alignment = 64 : i64} : memref<1x2x1024x128xf32>
    memref.copy %arg12, %alloc_87 : memref<1x2x1024x128xf32, strided<[?, ?, ?, ?], offset: ?>> to memref<1x2x1024x128xf32>
    %base_buffer_88, %offset_89, %sizes_90, %strides_91 = memref.extract_strided_metadata %arg3 : memref<1xi64, strided<[?], offset: ?>> -> memref<i64>, index, index, index
    %reinterpret_cast_92 = memref.reinterpret_cast %base_buffer_88 to offset: [%offset_89], sizes: [1, 1, 1, 1], strides: [%strides_91, %strides_91, %strides_91, %strides_91] : memref<i64> to memref<1x1x1x1xi64, strided<[?, ?, ?, ?], offset: ?>>
    %alloc_93 = memref.alloc() {alignment = 64 : i64} : memref<1x2x1x128xi64>
    linalg.generic {indexing_maps = [#map13, #map8, #map8], iterator_types = ["parallel", "parallel", "parallel", "parallel"]} ins(%reinterpret_cast_92, %6 : memref<1x1x1x1xi64, strided<[?, ?, ?, ?], offset: ?>>, memref<1x2x1x128xi64>) outs(%alloc_93 : memref<1x2x1x128xi64>) {
    ^bb0(%in: i64, %in_3095: i64, %out: i64):
      %211 = arith.addi %in, %in_3095 : i64
      linalg.yield %211 : i64
    }
    scf.for %arg399 = %c0 to %c1 step %c1 {
      scf.for %arg400 = %c0 to %c2 step %c1 {
        scf.for %arg401 = %c0 to %c1 step %c1 {
          scf.for %arg402 = %c0 to %c128 step %c1 {
            %211 = memref.load %alloc_86[%arg399, %arg400, %arg401, %arg402] : memref<1x2x1x128xf32>
            %212 = memref.load %alloc_93[%arg399, %arg400, %arg401, %arg402] : memref<1x2x1x128xi64>
            %213 = arith.index_cast %212 : i64 to index
            memref.store %211, %alloc_87[%arg399, %arg400, %213, %arg402] : memref<1x2x1024x128xf32>
          }
        }
      }
    }
    %alloc_94 = memref.alloc() {alignment = 64 : i64} : memref<1x2x1024x128xf32>
    memref.copy %arg13, %alloc_94 : memref<1x2x1024x128xf32, strided<[?, ?, ?, ?], offset: ?>> to memref<1x2x1024x128xf32>
    %base_buffer_95, %offset_96, %sizes_97, %strides_98 = memref.extract_strided_metadata %arg3 : memref<1xi64, strided<[?], offset: ?>> -> memref<i64>, index, index, index
    %reinterpret_cast_99 = memref.reinterpret_cast %base_buffer_95 to offset: [%offset_96], sizes: [1, 1, 1, 1], strides: [%strides_98, %strides_98, %strides_98, %strides_98] : memref<i64> to memref<1x1x1x1xi64, strided<[?, ?, ?, ?], offset: ?>>
    %alloc_100 = memref.alloc() {alignment = 64 : i64} : memref<1x2x1x128xi64>
    linalg.generic {indexing_maps = [#map13, #map8, #map8], iterator_types = ["parallel", "parallel", "parallel", "parallel"]} ins(%reinterpret_cast_99, %6 : memref<1x1x1x1xi64, strided<[?, ?, ?, ?], offset: ?>>, memref<1x2x1x128xi64>) outs(%alloc_100 : memref<1x2x1x128xi64>) {
    ^bb0(%in: i64, %in_3095: i64, %out: i64):
      %211 = arith.addi %in, %in_3095 : i64
      linalg.yield %211 : i64
    }
    scf.for %arg399 = %c0 to %c1 step %c1 {
      scf.for %arg400 = %c0 to %c2 step %c1 {
        scf.for %arg401 = %c0 to %c1 step %c1 {
          scf.for %arg402 = %c0 to %c128 step %c1 {
            %211 = memref.load %reinterpret_cast_66[%arg399, %arg400, %arg401, %arg402] : memref<1x2x1x128xf32>
            %212 = memref.load %alloc_100[%arg399, %arg400, %arg401, %arg402] : memref<1x2x1x128xi64>
            %213 = arith.index_cast %212 : i64 to index
            memref.store %211, %alloc_94[%arg399, %arg400, %213, %arg402] : memref<1x2x1024x128xf32>
          }
        }
      }
    }
    %reinterpret_cast_101 = memref.reinterpret_cast %alloc_10 to offset: [0], sizes: [1, 1, 1, 1024], strides: [1024, 1024, 1024, 1] : memref<1x1024xi1> to memref<1x1x1x1024xi1>
    %alloc_102 = memref.alloc() {alignment = 64 : i64} : memref<1x1x1x1024xf32>
    linalg.generic {indexing_maps = [#map8, #map8, #map8, #map8], iterator_types = ["parallel", "parallel", "parallel", "parallel"]} ins(%reinterpret_cast_101, %1, %0 : memref<1x1x1x1024xi1>, memref<1x1x1x1024xf32>, memref<1x1x1x1024xf32>) outs(%alloc_102 : memref<1x1x1x1024xf32>) {
    ^bb0(%in: i1, %in_3095: f32, %in_3096: f32, %out: f32):
      %211 = arith.select %in, %in_3095, %in_3096 : f32
      linalg.yield %211 : f32
    }
    %alloc_103 = memref.alloc() : memref<1x12x1x128xf32>
    %alloc_104 = memref.alloc() : memref<1x12x1xf32>
    %alloc_105 = memref.alloc() : memref<128xf32>
    affine.for %arg399 = 0 to 1 {
      affine.for %arg400 = 0 to 12 {
        %211 = arith.divsi %arg400, %c6 : index
        affine.for %arg401 = 0 to 1 {
          affine.for %arg402 = 0 to 128 {
            memref.store %cst, %alloc_105[%arg402] : memref<128xf32>
          }
          %212:2 = affine.for %arg402 = 0 to 1024 iter_args(%arg403 = %cst_2, %arg404 = %cst) -> (f32, f32) {
            %213 = affine.for %arg405 = 0 to 128 step 16 iter_args(%arg406 = %cst_3) -> (vector<16xf32>) {
              %228 = vector.load %alloc_77[%arg399, %arg400, %arg401, %arg405] : memref<1x12x1x128xf32>, vector<16xf32>
              %229 = vector.load %alloc_87[%arg399, %211, %arg402, %arg405] : memref<1x2x1024x128xf32>, vector<16xf32>
              %230 = vector.fma %228, %229, %arg406 : vector<16xf32>
              affine.yield %230 : vector<16xf32>
            }
            %214 = vector.reduction <add>, %213 : vector<16xf32> into f32
            %215 = arith.mulf %214, %cst_1 : f32
            %216 = memref.load %alloc_102[%arg399, %c0, %arg401, %arg402] : memref<1x1x1x1024xf32>
            %217 = arith.addf %215, %216 : f32
            %218 = arith.cmpf ogt, %217, %arg403 : f32
            %219 = arith.select %218, %217, %arg403 : f32
            %220 = arith.subf %arg403, %217 : f32
            %221 = math.exp %220 : f32
            %222 = arith.mulf %221, %arg404 : f32
            %223 = arith.addf %222, %cst_0 : f32
            %224 = arith.subf %217, %arg403 : f32
            %225 = math.exp %224 : f32
            %226 = arith.addf %arg404, %225 : f32
            %227 = arith.select %218, %223, %226 : f32
            affine.for %arg405 = 0 to 128 {
              %228 = memref.load %alloc_94[%arg399, %211, %arg402, %arg405] : memref<1x2x1024x128xf32>
              %229 = memref.load %alloc_105[%arg405] : memref<128xf32>
              %230 = arith.mulf %229, %221 : f32
              %231 = arith.addf %230, %228 : f32
              %232 = arith.mulf %225, %228 : f32
              %233 = arith.addf %232, %229 : f32
              %234 = arith.select %218, %231, %233 : f32
              memref.store %234, %alloc_105[%arg405] : memref<128xf32>
            }
            affine.yield %219, %227 : f32, f32
          }
          memref.store %212#1, %alloc_104[%arg399, %arg400, %arg401] : memref<1x12x1xf32>
          affine.for %arg402 = 0 to 128 {
            %213 = memref.load %alloc_105[%arg402] : memref<128xf32>
            %214 = arith.divf %213, %212#1 : f32
            memref.store %214, %alloc_103[%arg399, %arg400, %arg401, %arg402] : memref<1x12x1x128xf32>
          }
        }
      }
    }
    %reinterpret_cast_106 = memref.reinterpret_cast %alloc_103 to offset: [0], sizes: [1, 1536], strides: [1536, 1] : memref<1x12x1x128xf32> to memref<1x1536xf32>
    %alloc_107 = memref.alloc() {alignment = 64 : i64} : memref<1x1536xf32>
    memref.copy %8, %alloc_107 : memref<1x1536xf32> to memref<1x1536xf32>
    linalg.matmul {cast = #linalg.type_fn<cast_signed>} ins(%reinterpret_cast_106, %arg14 : memref<1x1536xf32>, memref<1536x1536xf32, strided<[?, ?], offset: ?>>) outs(%alloc_107 : memref<1x1536xf32>)
    %reinterpret_cast_108 = memref.reinterpret_cast %alloc_107 to offset: [0], sizes: [1, 1, 1536], strides: [1536, 1536, 1] : memref<1x1536xf32> to memref<1x1x1536xf32>
    %alloc_109 = memref.alloc() {alignment = 64 : i64} : memref<1x1x1536xf32>
    linalg.generic {indexing_maps = [#map3, #map3, #map3], iterator_types = ["parallel", "parallel", "parallel"]} ins(%alloc_4, %reinterpret_cast_108 : memref<1x1x1536xf32>, memref<1x1x1536xf32>) outs(%alloc_109 : memref<1x1x1536xf32>) {
    ^bb0(%in: f32, %in_3095: f32, %out: f32):
      %211 = arith.addf %in, %in_3095 : f32
      linalg.yield %211 : f32
    }
    %alloc_110 = memref.alloc() {alignment = 64 : i64} : memref<1x1x1536xf32>
    linalg.generic {indexing_maps = [#map3, #map3], iterator_types = ["parallel", "parallel", "parallel"]} ins(%alloc_109 : memref<1x1x1536xf32>) outs(%alloc_110 : memref<1x1x1536xf32>) {
    ^bb0(%in: f32, %out: f32):
      %211 = math.fpowi %in, %c2_i32 : f32, i32
      linalg.yield %211 : f32
    }
    %alloc_111 = memref.alloc() {alignment = 64 : i64} : memref<1x1xf32>
    linalg.fill ins(%cst : f32) outs(%alloc_111 : memref<1x1xf32>)
    linalg.reduce ins(%alloc_110 : memref<1x1x1536xf32>) outs(%alloc_111 : memref<1x1xf32>) dimensions = [2]
      (%in: f32, %init: f32) {
        %211 = arith.addf %in, %init : f32
        linalg.yield %211 : f32
      }
    %reinterpret_cast_112 = memref.reinterpret_cast %alloc_111 to offset: [0], sizes: [1, 1, 1], strides: [1, 1, 1] : memref<1x1xf32> to memref<1x1x1xf32>
    %alloc_113 = memref.alloc() {alignment = 64 : i64} : memref<1x1x1xf32>
    linalg.generic {indexing_maps = [#map3, #map3, #map3], iterator_types = ["parallel", "parallel", "parallel"]} ins(%reinterpret_cast_112, %2 : memref<1x1x1xf32>, memref<1x1x1xf32>) outs(%alloc_113 : memref<1x1x1xf32>) {
    ^bb0(%in: f32, %in_3095: f32, %out: f32):
      %211 = arith.mulf %in, %in_3095 : f32
      linalg.yield %211 : f32
    }
    %alloc_114 = memref.alloc() {alignment = 64 : i64} : memref<1x1x1xf32>
    linalg.generic {indexing_maps = [#map3, #map3, #map3], iterator_types = ["parallel", "parallel", "parallel"]} ins(%alloc_113, %9 : memref<1x1x1xf32>, memref<1x1x1xf32>) outs(%alloc_114 : memref<1x1x1xf32>) {
    ^bb0(%in: f32, %in_3095: f32, %out: f32):
      %211 = arith.addf %in, %in_3095 : f32
      linalg.yield %211 : f32
    }
    %alloc_115 = memref.alloc() {alignment = 64 : i64} : memref<1x1x1xf32>
    linalg.generic {indexing_maps = [#map3, #map3], iterator_types = ["parallel", "parallel", "parallel"]} ins(%alloc_114 : memref<1x1x1xf32>) outs(%alloc_115 : memref<1x1x1xf32>) {
    ^bb0(%in: f32, %out: f32):
      %211 = math.rsqrt %in : f32
      linalg.yield %211 : f32
    }
    %alloc_116 = memref.alloc() {alignment = 64 : i64} : memref<1x1x1536xf32>
    linalg.generic {indexing_maps = [#map3, #map9, #map3], iterator_types = ["parallel", "parallel", "parallel"]} ins(%alloc_109, %alloc_115 : memref<1x1x1536xf32>, memref<1x1x1xf32>) outs(%alloc_116 : memref<1x1x1536xf32>) {
    ^bb0(%in: f32, %in_3095: f32, %out: f32):
      %211 = arith.mulf %in, %in_3095 : f32
      linalg.yield %211 : f32
    }
    %base_buffer_117, %offset_118, %sizes_119, %strides_120 = memref.extract_strided_metadata %arg15 : memref<1536xf32, strided<[?], offset: ?>> -> memref<f32>, index, index, index
    %18 = affine.apply #map10()[%strides_120]
    %19 = affine.apply #map10()[%strides_120]
    %reinterpret_cast_121 = memref.reinterpret_cast %base_buffer_117 to offset: [%offset_118], sizes: [1, 1, 1536], strides: [%18, %19, %strides_120] : memref<f32> to memref<1x1x1536xf32, strided<[?, ?, ?], offset: ?>>
    %alloc_122 = memref.alloc() {alignment = 64 : i64} : memref<1x1x1536xf32>
    linalg.generic {indexing_maps = [#map3, #map3, #map3], iterator_types = ["parallel", "parallel", "parallel"]} ins(%reinterpret_cast_121, %alloc_116 : memref<1x1x1536xf32, strided<[?, ?, ?], offset: ?>>, memref<1x1x1536xf32>) outs(%alloc_122 : memref<1x1x1536xf32>) {
    ^bb0(%in: f32, %in_3095: f32, %out: f32):
      %211 = arith.mulf %in, %in_3095 : f32
      linalg.yield %211 : f32
    }
    %reinterpret_cast_123 = memref.reinterpret_cast %alloc_122 to offset: [0], sizes: [1, 1536], strides: [1536, 1] : memref<1x1x1536xf32> to memref<1x1536xf32>
    %alloc_124 = memref.alloc() {alignment = 64 : i64} : memref<1x8960xf32>
    memref.copy %5, %alloc_124 : memref<1x8960xf32> to memref<1x8960xf32>
    linalg.matmul {cast = #linalg.type_fn<cast_signed>} ins(%reinterpret_cast_123, %arg16 : memref<1x1536xf32>, memref<1536x8960xf32, strided<[?, ?], offset: ?>>) outs(%alloc_124 : memref<1x8960xf32>)
    %reinterpret_cast_125 = memref.reinterpret_cast %alloc_124 to offset: [0], sizes: [1, 1, 8960], strides: [8960, 8960, 1] : memref<1x8960xf32> to memref<1x1x8960xf32>
    %alloc_126 = memref.alloc() {alignment = 64 : i64} : memref<1x1x8960xf32>
    linalg.generic {indexing_maps = [#map3, #map3], iterator_types = ["parallel", "parallel", "parallel"]} ins(%reinterpret_cast_125 : memref<1x1x8960xf32>) outs(%alloc_126 : memref<1x1x8960xf32>) {
    ^bb0(%in: f32, %out: f32):
      %211 = arith.negf %in : f32
      %212 = math.exp %211 : f32
      %213 = arith.addf %212, %cst_0 : f32
      %214 = arith.divf %cst_0, %213 : f32
      linalg.yield %214 : f32
    }
    %alloc_127 = memref.alloc() {alignment = 64 : i64} : memref<1x1x8960xf32>
    linalg.generic {indexing_maps = [#map3, #map3, #map3], iterator_types = ["parallel", "parallel", "parallel"]} ins(%reinterpret_cast_125, %alloc_126 : memref<1x1x8960xf32>, memref<1x1x8960xf32>) outs(%alloc_127 : memref<1x1x8960xf32>) {
    ^bb0(%in: f32, %in_3095: f32, %out: f32):
      %211 = arith.mulf %in, %in_3095 : f32
      linalg.yield %211 : f32
    }
    %reinterpret_cast_128 = memref.reinterpret_cast %alloc_122 to offset: [0], sizes: [1, 1536], strides: [1536, 1] : memref<1x1x1536xf32> to memref<1x1536xf32>
    %alloc_129 = memref.alloc() {alignment = 64 : i64} : memref<1x8960xf32>
    memref.copy %5, %alloc_129 : memref<1x8960xf32> to memref<1x8960xf32>
    linalg.matmul {cast = #linalg.type_fn<cast_signed>} ins(%reinterpret_cast_128, %arg17 : memref<1x1536xf32>, memref<1536x8960xf32, strided<[?, ?], offset: ?>>) outs(%alloc_129 : memref<1x8960xf32>)
    %reinterpret_cast_130 = memref.reinterpret_cast %alloc_129 to offset: [0], sizes: [1, 1, 8960], strides: [8960, 8960, 1] : memref<1x8960xf32> to memref<1x1x8960xf32>
    %alloc_131 = memref.alloc() {alignment = 64 : i64} : memref<1x1x8960xf32>
    linalg.generic {indexing_maps = [#map3, #map3, #map3], iterator_types = ["parallel", "parallel", "parallel"]} ins(%alloc_127, %reinterpret_cast_130 : memref<1x1x8960xf32>, memref<1x1x8960xf32>) outs(%alloc_131 : memref<1x1x8960xf32>) {
    ^bb0(%in: f32, %in_3095: f32, %out: f32):
      %211 = arith.mulf %in, %in_3095 : f32
      linalg.yield %211 : f32
    }
    %reinterpret_cast_132 = memref.reinterpret_cast %alloc_131 to offset: [0], sizes: [1, 8960], strides: [8960, 1] : memref<1x1x8960xf32> to memref<1x8960xf32>
    %alloc_133 = memref.alloc() {alignment = 64 : i64} : memref<1x1536xf32>
    memref.copy %8, %alloc_133 : memref<1x1536xf32> to memref<1x1536xf32>
    linalg.matmul {cast = #linalg.type_fn<cast_signed>} ins(%reinterpret_cast_132, %arg18 : memref<1x8960xf32>, memref<8960x1536xf32, strided<[?, ?], offset: ?>>) outs(%alloc_133 : memref<1x1536xf32>)
    %reinterpret_cast_134 = memref.reinterpret_cast %alloc_133 to offset: [0], sizes: [1, 1, 1536], strides: [1536, 1536, 1] : memref<1x1536xf32> to memref<1x1x1536xf32>
    %alloc_135 = memref.alloc() {alignment = 64 : i64} : memref<1x1x1536xf32>
    linalg.generic {indexing_maps = [#map3, #map3, #map3], iterator_types = ["parallel", "parallel", "parallel"]} ins(%alloc_109, %reinterpret_cast_134 : memref<1x1x1536xf32>, memref<1x1x1536xf32>) outs(%alloc_135 : memref<1x1x1536xf32>) {
    ^bb0(%in: f32, %in_3095: f32, %out: f32):
      %211 = arith.addf %in, %in_3095 : f32
      linalg.yield %211 : f32
    }
    %alloc_136 = memref.alloc() {alignment = 64 : i64} : memref<1x1x1536xf32>
    linalg.generic {indexing_maps = [#map3, #map3], iterator_types = ["parallel", "parallel", "parallel"]} ins(%alloc_135 : memref<1x1x1536xf32>) outs(%alloc_136 : memref<1x1x1536xf32>) {
    ^bb0(%in: f32, %out: f32):
      %211 = math.fpowi %in, %c2_i32 : f32, i32
      linalg.yield %211 : f32
    }
    %alloc_137 = memref.alloc() {alignment = 64 : i64} : memref<1x1xf32>
    linalg.fill ins(%cst : f32) outs(%alloc_137 : memref<1x1xf32>)
    linalg.reduce ins(%alloc_136 : memref<1x1x1536xf32>) outs(%alloc_137 : memref<1x1xf32>) dimensions = [2]
      (%in: f32, %init: f32) {
        %211 = arith.addf %in, %init : f32
        linalg.yield %211 : f32
      }
    %reinterpret_cast_138 = memref.reinterpret_cast %alloc_137 to offset: [0], sizes: [1, 1, 1], strides: [1, 1, 1] : memref<1x1xf32> to memref<1x1x1xf32>
    %alloc_139 = memref.alloc() {alignment = 64 : i64} : memref<1x1x1xf32>
    linalg.generic {indexing_maps = [#map3, #map3, #map3], iterator_types = ["parallel", "parallel", "parallel"]} ins(%reinterpret_cast_138, %2 : memref<1x1x1xf32>, memref<1x1x1xf32>) outs(%alloc_139 : memref<1x1x1xf32>) {
    ^bb0(%in: f32, %in_3095: f32, %out: f32):
      %211 = arith.mulf %in, %in_3095 : f32
      linalg.yield %211 : f32
    }
    %alloc_140 = memref.alloc() {alignment = 64 : i64} : memref<1x1x1xf32>
    linalg.generic {indexing_maps = [#map3, #map3, #map3], iterator_types = ["parallel", "parallel", "parallel"]} ins(%alloc_139, %9 : memref<1x1x1xf32>, memref<1x1x1xf32>) outs(%alloc_140 : memref<1x1x1xf32>) {
    ^bb0(%in: f32, %in_3095: f32, %out: f32):
      %211 = arith.addf %in, %in_3095 : f32
      linalg.yield %211 : f32
    }
    %alloc_141 = memref.alloc() {alignment = 64 : i64} : memref<1x1x1xf32>
    linalg.generic {indexing_maps = [#map3, #map3], iterator_types = ["parallel", "parallel", "parallel"]} ins(%alloc_140 : memref<1x1x1xf32>) outs(%alloc_141 : memref<1x1x1xf32>) {
    ^bb0(%in: f32, %out: f32):
      %211 = math.rsqrt %in : f32
      linalg.yield %211 : f32
    }
    %alloc_142 = memref.alloc() {alignment = 64 : i64} : memref<1x1x1536xf32>
    linalg.generic {indexing_maps = [#map3, #map9, #map3], iterator_types = ["parallel", "parallel", "parallel"]} ins(%alloc_135, %alloc_141 : memref<1x1x1536xf32>, memref<1x1x1xf32>) outs(%alloc_142 : memref<1x1x1536xf32>) {
    ^bb0(%in: f32, %in_3095: f32, %out: f32):
      %211 = arith.mulf %in, %in_3095 : f32
      linalg.yield %211 : f32
    }
    %base_buffer_143, %offset_144, %sizes_145, %strides_146 = memref.extract_strided_metadata %arg19 : memref<1536xf32, strided<[?], offset: ?>> -> memref<f32>, index, index, index
    %20 = affine.apply #map10()[%strides_146]
    %21 = affine.apply #map10()[%strides_146]
    %reinterpret_cast_147 = memref.reinterpret_cast %base_buffer_143 to offset: [%offset_144], sizes: [1, 1, 1536], strides: [%20, %21, %strides_146] : memref<f32> to memref<1x1x1536xf32, strided<[?, ?, ?], offset: ?>>
    %alloc_148 = memref.alloc() {alignment = 64 : i64} : memref<1x1x1536xf32>
    linalg.generic {indexing_maps = [#map3, #map3, #map3], iterator_types = ["parallel", "parallel", "parallel"]} ins(%reinterpret_cast_147, %alloc_142 : memref<1x1x1536xf32, strided<[?, ?, ?], offset: ?>>, memref<1x1x1536xf32>) outs(%alloc_148 : memref<1x1x1536xf32>) {
    ^bb0(%in: f32, %in_3095: f32, %out: f32):
      %211 = arith.mulf %in, %in_3095 : f32
      linalg.yield %211 : f32
    }
    %reinterpret_cast_149 = memref.reinterpret_cast %alloc_148 to offset: [0], sizes: [1, 1536], strides: [1536, 1] : memref<1x1x1536xf32> to memref<1x1536xf32>
    %alloc_150 = memref.alloc() {alignment = 64 : i64} : memref<1x1536xf32>
    memref.copy %8, %alloc_150 : memref<1x1536xf32> to memref<1x1536xf32>
    linalg.matmul {cast = #linalg.type_fn<cast_signed>} ins(%reinterpret_cast_149, %arg21 : memref<1x1536xf32>, memref<1536x1536xf32, strided<[?, ?], offset: ?>>) outs(%alloc_150 : memref<1x1536xf32>)
    %base_buffer_151, %offset_152, %sizes_153, %strides_154 = memref.extract_strided_metadata %arg20 : memref<1536xf32, strided<[?], offset: ?>> -> memref<f32>, index, index, index
    %22 = affine.apply #map10()[%strides_154]
    %reinterpret_cast_155 = memref.reinterpret_cast %base_buffer_151 to offset: [%offset_152], sizes: [1, 1536], strides: [%22, %strides_154] : memref<f32> to memref<1x1536xf32, strided<[?, ?], offset: ?>>
    %alloc_156 = memref.alloc() {alignment = 64 : i64} : memref<1x1536xf32>
    linalg.generic {indexing_maps = [#map, #map, #map], iterator_types = ["parallel", "parallel"]} ins(%reinterpret_cast_155, %alloc_150 : memref<1x1536xf32, strided<[?, ?], offset: ?>>, memref<1x1536xf32>) outs(%alloc_156 : memref<1x1536xf32>) {
    ^bb0(%in: f32, %in_3095: f32, %out: f32):
      %211 = arith.addf %in, %in_3095 : f32
      linalg.yield %211 : f32
    }
    %reinterpret_cast_157 = memref.reinterpret_cast %alloc_156 to offset: [0], sizes: [1, 12, 1, 128], strides: [1536, 128, 128, 1] : memref<1x1536xf32> to memref<1x12x1x128xf32>
    %reinterpret_cast_158 = memref.reinterpret_cast %alloc_148 to offset: [0], sizes: [1, 1536], strides: [1536, 1] : memref<1x1x1536xf32> to memref<1x1536xf32>
    %alloc_159 = memref.alloc() {alignment = 64 : i64} : memref<1x256xf32>
    memref.copy %7, %alloc_159 : memref<1x256xf32> to memref<1x256xf32>
    linalg.matmul {cast = #linalg.type_fn<cast_signed>} ins(%reinterpret_cast_158, %arg23 : memref<1x1536xf32>, memref<1536x256xf32, strided<[?, ?], offset: ?>>) outs(%alloc_159 : memref<1x256xf32>)
    %base_buffer_160, %offset_161, %sizes_162, %strides_163 = memref.extract_strided_metadata %arg22 : memref<256xf32, strided<[?], offset: ?>> -> memref<f32>, index, index, index
    %23 = affine.apply #map11()[%strides_163]
    %reinterpret_cast_164 = memref.reinterpret_cast %base_buffer_160 to offset: [%offset_161], sizes: [1, 256], strides: [%23, %strides_163] : memref<f32> to memref<1x256xf32, strided<[?, ?], offset: ?>>
    %alloc_165 = memref.alloc() {alignment = 64 : i64} : memref<1x256xf32>
    linalg.generic {indexing_maps = [#map, #map, #map], iterator_types = ["parallel", "parallel"]} ins(%reinterpret_cast_164, %alloc_159 : memref<1x256xf32, strided<[?, ?], offset: ?>>, memref<1x256xf32>) outs(%alloc_165 : memref<1x256xf32>) {
    ^bb0(%in: f32, %in_3095: f32, %out: f32):
      %211 = arith.addf %in, %in_3095 : f32
      linalg.yield %211 : f32
    }
    %reinterpret_cast_166 = memref.reinterpret_cast %alloc_165 to offset: [0], sizes: [1, 2, 1, 128], strides: [256, 128, 128, 1] : memref<1x256xf32> to memref<1x2x1x128xf32>
    %reinterpret_cast_167 = memref.reinterpret_cast %alloc_148 to offset: [0], sizes: [1, 1536], strides: [1536, 1] : memref<1x1x1536xf32> to memref<1x1536xf32>
    %alloc_168 = memref.alloc() {alignment = 64 : i64} : memref<1x256xf32>
    memref.copy %7, %alloc_168 : memref<1x256xf32> to memref<1x256xf32>
    linalg.matmul {cast = #linalg.type_fn<cast_signed>} ins(%reinterpret_cast_167, %arg25 : memref<1x1536xf32>, memref<1536x256xf32, strided<[?, ?], offset: ?>>) outs(%alloc_168 : memref<1x256xf32>)
    %base_buffer_169, %offset_170, %sizes_171, %strides_172 = memref.extract_strided_metadata %arg24 : memref<256xf32, strided<[?], offset: ?>> -> memref<f32>, index, index, index
    %24 = affine.apply #map11()[%strides_172]
    %reinterpret_cast_173 = memref.reinterpret_cast %base_buffer_169 to offset: [%offset_170], sizes: [1, 256], strides: [%24, %strides_172] : memref<f32> to memref<1x256xf32, strided<[?, ?], offset: ?>>
    %alloc_174 = memref.alloc() {alignment = 64 : i64} : memref<1x256xf32>
    linalg.generic {indexing_maps = [#map, #map, #map], iterator_types = ["parallel", "parallel"]} ins(%reinterpret_cast_173, %alloc_168 : memref<1x256xf32, strided<[?, ?], offset: ?>>, memref<1x256xf32>) outs(%alloc_174 : memref<1x256xf32>) {
    ^bb0(%in: f32, %in_3095: f32, %out: f32):
      %211 = arith.addf %in, %in_3095 : f32
      linalg.yield %211 : f32
    }
    %reinterpret_cast_175 = memref.reinterpret_cast %alloc_174 to offset: [0], sizes: [1, 2, 1, 128], strides: [256, 128, 128, 1] : memref<1x256xf32> to memref<1x2x1x128xf32>
    %reinterpret_cast_176 = memref.reinterpret_cast %alloc_26 to offset: [0], sizes: [1, 1, 1, 128], strides: [128, 128, 128, 1] : memref<1x1x128xf32> to memref<1x1x1x128xf32>
    %reinterpret_cast_177 = memref.reinterpret_cast %alloc_24 to offset: [0], sizes: [1, 1, 1, 128], strides: [128, 128, 128, 1] : memref<1x1x2x64xf32> to memref<1x1x1x128xf32>
    %alloc_178 = memref.alloc() {alignment = 64 : i64} : memref<1x12x1x128xf32>
    linalg.generic {indexing_maps = [#map8, #map12, #map8], iterator_types = ["parallel", "parallel", "parallel", "parallel"]} ins(%reinterpret_cast_157, %reinterpret_cast_176 : memref<1x12x1x128xf32>, memref<1x1x1x128xf32>) outs(%alloc_178 : memref<1x12x1x128xf32>) {
    ^bb0(%in: f32, %in_3095: f32, %out: f32):
      %211 = arith.mulf %in, %in_3095 : f32
      linalg.yield %211 : f32
    }
    %reinterpret_cast_179 = memref.reinterpret_cast %alloc_156 to offset: [0], sizes: [1, 12, 1, 64], strides: [1536, 128, 128, 1] : memref<1x1536xf32> to memref<1x12x1x64xf32, strided<[1536, 128, 128, 1]>>
    %reinterpret_cast_180 = memref.reinterpret_cast %alloc_156 to offset: [64], sizes: [1, 12, 1, 64], strides: [1536, 128, 128, 1] : memref<1x1536xf32> to memref<1x12x1x64xf32, strided<[1536, 128, 128, 1], offset: 64>>
    %alloc_181 = memref.alloc() {alignment = 64 : i64} : memref<1x12x1x64xf32>
    linalg.generic {indexing_maps = [#map8, #map8], iterator_types = ["parallel", "parallel", "parallel", "parallel"]} ins(%reinterpret_cast_180 : memref<1x12x1x64xf32, strided<[1536, 128, 128, 1], offset: 64>>) outs(%alloc_181 : memref<1x12x1x64xf32>) {
    ^bb0(%in: f32, %out: f32):
      %211 = arith.negf %in : f32
      linalg.yield %211 : f32
    }
    %alloc_182 = memref.alloc() {alignment = 64 : i64} : memref<1x12x1x128xf32>
    %reinterpret_cast_183 = memref.reinterpret_cast %alloc_182 to offset: [0], sizes: [1, 12, 1, 64], strides: [1536, 128, 128, 1] : memref<1x12x1x128xf32> to memref<1x12x1x64xf32, strided<[1536, 128, 128, 1]>>
    memref.copy %alloc_181, %reinterpret_cast_183 : memref<1x12x1x64xf32> to memref<1x12x1x64xf32, strided<[1536, 128, 128, 1]>>
    %reinterpret_cast_184 = memref.reinterpret_cast %alloc_182 to offset: [64], sizes: [1, 12, 1, 64], strides: [1536, 128, 128, 1] : memref<1x12x1x128xf32> to memref<1x12x1x64xf32, strided<[1536, 128, 128, 1], offset: 64>>
    memref.copy %reinterpret_cast_179, %reinterpret_cast_184 : memref<1x12x1x64xf32, strided<[1536, 128, 128, 1]>> to memref<1x12x1x64xf32, strided<[1536, 128, 128, 1], offset: 64>>
    %alloc_185 = memref.alloc() {alignment = 64 : i64} : memref<1x12x1x128xf32>
    linalg.generic {indexing_maps = [#map8, #map12, #map8], iterator_types = ["parallel", "parallel", "parallel", "parallel"]} ins(%alloc_182, %reinterpret_cast_177 : memref<1x12x1x128xf32>, memref<1x1x1x128xf32>) outs(%alloc_185 : memref<1x12x1x128xf32>) {
    ^bb0(%in: f32, %in_3095: f32, %out: f32):
      %211 = arith.mulf %in, %in_3095 : f32
      linalg.yield %211 : f32
    }
    %alloc_186 = memref.alloc() {alignment = 64 : i64} : memref<1x12x1x128xf32>
    linalg.generic {indexing_maps = [#map8, #map8, #map8], iterator_types = ["parallel", "parallel", "parallel", "parallel"]} ins(%alloc_178, %alloc_185 : memref<1x12x1x128xf32>, memref<1x12x1x128xf32>) outs(%alloc_186 : memref<1x12x1x128xf32>) {
    ^bb0(%in: f32, %in_3095: f32, %out: f32):
      %211 = arith.addf %in, %in_3095 : f32
      linalg.yield %211 : f32
    }
    %alloc_187 = memref.alloc() {alignment = 64 : i64} : memref<1x2x1x128xf32>
    linalg.generic {indexing_maps = [#map8, #map12, #map8], iterator_types = ["parallel", "parallel", "parallel", "parallel"]} ins(%reinterpret_cast_166, %reinterpret_cast_176 : memref<1x2x1x128xf32>, memref<1x1x1x128xf32>) outs(%alloc_187 : memref<1x2x1x128xf32>) {
    ^bb0(%in: f32, %in_3095: f32, %out: f32):
      %211 = arith.mulf %in, %in_3095 : f32
      linalg.yield %211 : f32
    }
    %reinterpret_cast_188 = memref.reinterpret_cast %alloc_165 to offset: [0], sizes: [1, 2, 1, 64], strides: [256, 128, 128, 1] : memref<1x256xf32> to memref<1x2x1x64xf32, strided<[256, 128, 128, 1]>>
    %reinterpret_cast_189 = memref.reinterpret_cast %alloc_165 to offset: [64], sizes: [1, 2, 1, 64], strides: [256, 128, 128, 1] : memref<1x256xf32> to memref<1x2x1x64xf32, strided<[256, 128, 128, 1], offset: 64>>
    %alloc_190 = memref.alloc() {alignment = 64 : i64} : memref<1x2x1x64xf32>
    linalg.generic {indexing_maps = [#map8, #map8], iterator_types = ["parallel", "parallel", "parallel", "parallel"]} ins(%reinterpret_cast_189 : memref<1x2x1x64xf32, strided<[256, 128, 128, 1], offset: 64>>) outs(%alloc_190 : memref<1x2x1x64xf32>) {
    ^bb0(%in: f32, %out: f32):
      %211 = arith.negf %in : f32
      linalg.yield %211 : f32
    }
    %alloc_191 = memref.alloc() {alignment = 64 : i64} : memref<1x2x1x128xf32>
    %reinterpret_cast_192 = memref.reinterpret_cast %alloc_191 to offset: [0], sizes: [1, 2, 1, 64], strides: [256, 128, 128, 1] : memref<1x2x1x128xf32> to memref<1x2x1x64xf32, strided<[256, 128, 128, 1]>>
    memref.copy %alloc_190, %reinterpret_cast_192 : memref<1x2x1x64xf32> to memref<1x2x1x64xf32, strided<[256, 128, 128, 1]>>
    %reinterpret_cast_193 = memref.reinterpret_cast %alloc_191 to offset: [64], sizes: [1, 2, 1, 64], strides: [256, 128, 128, 1] : memref<1x2x1x128xf32> to memref<1x2x1x64xf32, strided<[256, 128, 128, 1], offset: 64>>
    memref.copy %reinterpret_cast_188, %reinterpret_cast_193 : memref<1x2x1x64xf32, strided<[256, 128, 128, 1]>> to memref<1x2x1x64xf32, strided<[256, 128, 128, 1], offset: 64>>
    %alloc_194 = memref.alloc() {alignment = 64 : i64} : memref<1x2x1x128xf32>
    linalg.generic {indexing_maps = [#map8, #map12, #map8], iterator_types = ["parallel", "parallel", "parallel", "parallel"]} ins(%alloc_191, %reinterpret_cast_177 : memref<1x2x1x128xf32>, memref<1x1x1x128xf32>) outs(%alloc_194 : memref<1x2x1x128xf32>) {
    ^bb0(%in: f32, %in_3095: f32, %out: f32):
      %211 = arith.mulf %in, %in_3095 : f32
      linalg.yield %211 : f32
    }
    %alloc_195 = memref.alloc() {alignment = 64 : i64} : memref<1x2x1x128xf32>
    linalg.generic {indexing_maps = [#map8, #map8, #map8], iterator_types = ["parallel", "parallel", "parallel", "parallel"]} ins(%alloc_187, %alloc_194 : memref<1x2x1x128xf32>, memref<1x2x1x128xf32>) outs(%alloc_195 : memref<1x2x1x128xf32>) {
    ^bb0(%in: f32, %in_3095: f32, %out: f32):
      %211 = arith.addf %in, %in_3095 : f32
      linalg.yield %211 : f32
    }
    %alloc_196 = memref.alloc() {alignment = 64 : i64} : memref<1x2x1024x128xf32>
    memref.copy %arg26, %alloc_196 : memref<1x2x1024x128xf32, strided<[?, ?, ?, ?], offset: ?>> to memref<1x2x1024x128xf32>
    %base_buffer_197, %offset_198, %sizes_199, %strides_200 = memref.extract_strided_metadata %arg3 : memref<1xi64, strided<[?], offset: ?>> -> memref<i64>, index, index, index
    %reinterpret_cast_201 = memref.reinterpret_cast %base_buffer_197 to offset: [%offset_198], sizes: [1, 1, 1, 1], strides: [%strides_200, %strides_200, %strides_200, %strides_200] : memref<i64> to memref<1x1x1x1xi64, strided<[?, ?, ?, ?], offset: ?>>
    %alloc_202 = memref.alloc() {alignment = 64 : i64} : memref<1x2x1x128xi64>
    linalg.generic {indexing_maps = [#map13, #map8, #map8], iterator_types = ["parallel", "parallel", "parallel", "parallel"]} ins(%reinterpret_cast_201, %6 : memref<1x1x1x1xi64, strided<[?, ?, ?, ?], offset: ?>>, memref<1x2x1x128xi64>) outs(%alloc_202 : memref<1x2x1x128xi64>) {
    ^bb0(%in: i64, %in_3095: i64, %out: i64):
      %211 = arith.addi %in, %in_3095 : i64
      linalg.yield %211 : i64
    }
    scf.for %arg399 = %c0 to %c1 step %c1 {
      scf.for %arg400 = %c0 to %c2 step %c1 {
        scf.for %arg401 = %c0 to %c1 step %c1 {
          scf.for %arg402 = %c0 to %c128 step %c1 {
            %211 = memref.load %alloc_195[%arg399, %arg400, %arg401, %arg402] : memref<1x2x1x128xf32>
            %212 = memref.load %alloc_202[%arg399, %arg400, %arg401, %arg402] : memref<1x2x1x128xi64>
            %213 = arith.index_cast %212 : i64 to index
            memref.store %211, %alloc_196[%arg399, %arg400, %213, %arg402] : memref<1x2x1024x128xf32>
          }
        }
      }
    }
    %alloc_203 = memref.alloc() {alignment = 64 : i64} : memref<1x2x1024x128xf32>
    memref.copy %arg27, %alloc_203 : memref<1x2x1024x128xf32, strided<[?, ?, ?, ?], offset: ?>> to memref<1x2x1024x128xf32>
    %base_buffer_204, %offset_205, %sizes_206, %strides_207 = memref.extract_strided_metadata %arg3 : memref<1xi64, strided<[?], offset: ?>> -> memref<i64>, index, index, index
    %reinterpret_cast_208 = memref.reinterpret_cast %base_buffer_204 to offset: [%offset_205], sizes: [1, 1, 1, 1], strides: [%strides_207, %strides_207, %strides_207, %strides_207] : memref<i64> to memref<1x1x1x1xi64, strided<[?, ?, ?, ?], offset: ?>>
    %alloc_209 = memref.alloc() {alignment = 64 : i64} : memref<1x2x1x128xi64>
    linalg.generic {indexing_maps = [#map13, #map8, #map8], iterator_types = ["parallel", "parallel", "parallel", "parallel"]} ins(%reinterpret_cast_208, %6 : memref<1x1x1x1xi64, strided<[?, ?, ?, ?], offset: ?>>, memref<1x2x1x128xi64>) outs(%alloc_209 : memref<1x2x1x128xi64>) {
    ^bb0(%in: i64, %in_3095: i64, %out: i64):
      %211 = arith.addi %in, %in_3095 : i64
      linalg.yield %211 : i64
    }
    scf.for %arg399 = %c0 to %c1 step %c1 {
      scf.for %arg400 = %c0 to %c2 step %c1 {
        scf.for %arg401 = %c0 to %c1 step %c1 {
          scf.for %arg402 = %c0 to %c128 step %c1 {
            %211 = memref.load %reinterpret_cast_175[%arg399, %arg400, %arg401, %arg402] : memref<1x2x1x128xf32>
            %212 = memref.load %alloc_209[%arg399, %arg400, %arg401, %arg402] : memref<1x2x1x128xi64>
            %213 = arith.index_cast %212 : i64 to index
            memref.store %211, %alloc_203[%arg399, %arg400, %213, %arg402] : memref<1x2x1024x128xf32>
          }
        }
      }
    }
    %reinterpret_cast_210 = memref.reinterpret_cast %alloc_10 to offset: [0], sizes: [1, 1, 1, 1024], strides: [1024, 1024, 1024, 1] : memref<1x1024xi1> to memref<1x1x1x1024xi1>
    %alloc_211 = memref.alloc() {alignment = 64 : i64} : memref<1x1x1x1024xf32>
    linalg.generic {indexing_maps = [#map8, #map8, #map8, #map8], iterator_types = ["parallel", "parallel", "parallel", "parallel"]} ins(%reinterpret_cast_210, %1, %0 : memref<1x1x1x1024xi1>, memref<1x1x1x1024xf32>, memref<1x1x1x1024xf32>) outs(%alloc_211 : memref<1x1x1x1024xf32>) {
    ^bb0(%in: i1, %in_3095: f32, %in_3096: f32, %out: f32):
      %211 = arith.select %in, %in_3095, %in_3096 : f32
      linalg.yield %211 : f32
    }
    %alloc_212 = memref.alloc() : memref<1x12x1x128xf32>
    %alloc_213 = memref.alloc() : memref<1x12x1xf32>
    %alloc_214 = memref.alloc() : memref<128xf32>
    affine.for %arg399 = 0 to 1 {
      affine.for %arg400 = 0 to 12 {
        %211 = arith.divsi %arg400, %c6 : index
        affine.for %arg401 = 0 to 1 {
          affine.for %arg402 = 0 to 128 {
            memref.store %cst, %alloc_214[%arg402] : memref<128xf32>
          }
          %212:2 = affine.for %arg402 = 0 to 1024 iter_args(%arg403 = %cst_2, %arg404 = %cst) -> (f32, f32) {
            %213 = affine.for %arg405 = 0 to 128 step 16 iter_args(%arg406 = %cst_3) -> (vector<16xf32>) {
              %228 = vector.load %alloc_186[%arg399, %arg400, %arg401, %arg405] : memref<1x12x1x128xf32>, vector<16xf32>
              %229 = vector.load %alloc_196[%arg399, %211, %arg402, %arg405] : memref<1x2x1024x128xf32>, vector<16xf32>
              %230 = vector.fma %228, %229, %arg406 : vector<16xf32>
              affine.yield %230 : vector<16xf32>
            }
            %214 = vector.reduction <add>, %213 : vector<16xf32> into f32
            %215 = arith.mulf %214, %cst_1 : f32
            %216 = memref.load %alloc_211[%arg399, %c0, %arg401, %arg402] : memref<1x1x1x1024xf32>
            %217 = arith.addf %215, %216 : f32
            %218 = arith.cmpf ogt, %217, %arg403 : f32
            %219 = arith.select %218, %217, %arg403 : f32
            %220 = arith.subf %arg403, %217 : f32
            %221 = math.exp %220 : f32
            %222 = arith.mulf %221, %arg404 : f32
            %223 = arith.addf %222, %cst_0 : f32
            %224 = arith.subf %217, %arg403 : f32
            %225 = math.exp %224 : f32
            %226 = arith.addf %arg404, %225 : f32
