#map = affine_map<(d0, d1) -> (d0, d1)>
#map1 = affine_map<(d0, d1, d2) -> (d0, d1)>
#map2 = affine_map<(d0, d1, d2) -> (d0, d1, d2)>
#map3 = affine_map<(d0, d1) -> (d0, 0)>
#map4 = affine_map<(d0, d1, d2) -> (d0, 0, d2)>
#map5 = affine_map<(d0, d1, d2, d3) -> (d0, d1, 0, d3)>
#map6 = affine_map<(d0, d1, d2, d3) -> (d0, d1, d2, d3)>
#map7 = affine_map<(d0, d1, d2) -> (d0, d1, 0)>
#map8 = affine_map<(d0, d1, d2, d3) -> (d0, 0, d2, d3)>
#map9 = affine_map<(d0, d1, d2, d3) -> (d0, 0, d2, 0)>
module {
  func.func @subgraph0_decode(%arg0: tensor<151936x1536xf32>, %arg1: tensor<1x1xi64>, %arg2: tensor<1xi64>, %arg3: tensor<1xi64>, %arg4: tensor<64xf32>, %arg5: tensor<1536xf32>, %arg6: tensor<1536xf32>, %arg7: tensor<1536x1536xf32>, %arg8: tensor<256xf32>, %arg9: tensor<1536x256xf32>, %arg10: tensor<256xf32>, %arg11: tensor<1536x256xf32>, %arg12: tensor<1x2x1024x128xf32>, %arg13: tensor<1x2x1024x128xf32>, %arg14: tensor<1536x1536xf32>, %arg15: tensor<1536xf32>, %arg16: tensor<1536x8960xf32>, %arg17: tensor<1536x8960xf32>, %arg18: tensor<8960x1536xf32>, %arg19: tensor<1536xf32>, %arg20: tensor<1536xf32>, %arg21: tensor<1536x1536xf32>, %arg22: tensor<256xf32>, %arg23: tensor<1536x256xf32>, %arg24: tensor<256xf32>, %arg25: tensor<1536x256xf32>, %arg26: tensor<1x2x1024x128xf32>, %arg27: tensor<1x2x1024x128xf32>, %arg28: tensor<1536x1536xf32>, %arg29: tensor<1536xf32>, %arg30: tensor<1536x8960xf32>, %arg31: tensor<1536x8960xf32>, %arg32: tensor<8960x1536xf32>, %arg33: tensor<1536xf32>, %arg34: tensor<1536xf32>, %arg35: tensor<1536x1536xf32>, %arg36: tensor<256xf32>, %arg37: tensor<1536x256xf32>, %arg38: tensor<256xf32>, %arg39: tensor<1536x256xf32>, %arg40: tensor<1x2x1024x128xf32>, %arg41: tensor<1x2x1024x128xf32>, %arg42: tensor<1536x1536xf32>, %arg43: tensor<1536xf32>, %arg44: tensor<1536x8960xf32>, %arg45: tensor<1536x8960xf32>, %arg46: tensor<8960x1536xf32>, %arg47: tensor<1536xf32>, %arg48: tensor<1536xf32>, %arg49: tensor<1536x1536xf32>, %arg50: tensor<256xf32>, %arg51: tensor<1536x256xf32>, %arg52: tensor<256xf32>, %arg53: tensor<1536x256xf32>, %arg54: tensor<1x2x1024x128xf32>, %arg55: tensor<1x2x1024x128xf32>, %arg56: tensor<1536x1536xf32>, %arg57: tensor<1536xf32>, %arg58: tensor<1536x8960xf32>, %arg59: tensor<1536x8960xf32>, %arg60: tensor<8960x1536xf32>, %arg61: tensor<1536xf32>, %arg62: tensor<1536xf32>, %arg63: tensor<1536x1536xf32>, %arg64: tensor<256xf32>, %arg65: tensor<1536x256xf32>, %arg66: tensor<256xf32>, %arg67: tensor<1536x256xf32>, %arg68: tensor<1x2x1024x128xf32>, %arg69: tensor<1x2x1024x128xf32>, %arg70: tensor<1536x1536xf32>, %arg71: tensor<1536xf32>, %arg72: tensor<1536x8960xf32>, %arg73: tensor<1536x8960xf32>, %arg74: tensor<8960x1536xf32>, %arg75: tensor<1536xf32>, %arg76: tensor<1536xf32>, %arg77: tensor<1536x1536xf32>, %arg78: tensor<256xf32>, %arg79: tensor<1536x256xf32>, %arg80: tensor<256xf32>, %arg81: tensor<1536x256xf32>, %arg82: tensor<1x2x1024x128xf32>, %arg83: tensor<1x2x1024x128xf32>, %arg84: tensor<1536x1536xf32>, %arg85: tensor<1536xf32>, %arg86: tensor<1536x8960xf32>, %arg87: tensor<1536x8960xf32>, %arg88: tensor<8960x1536xf32>, %arg89: tensor<1536xf32>, %arg90: tensor<1536xf32>, %arg91: tensor<1536x1536xf32>, %arg92: tensor<256xf32>, %arg93: tensor<1536x256xf32>, %arg94: tensor<256xf32>, %arg95: tensor<1536x256xf32>, %arg96: tensor<1x2x1024x128xf32>, %arg97: tensor<1x2x1024x128xf32>, %arg98: tensor<1536x1536xf32>, %arg99: tensor<1536xf32>, %arg100: tensor<1536x8960xf32>, %arg101: tensor<1536x8960xf32>, %arg102: tensor<8960x1536xf32>, %arg103: tensor<1536xf32>, %arg104: tensor<1536xf32>, %arg105: tensor<1536x1536xf32>, %arg106: tensor<256xf32>, %arg107: tensor<1536x256xf32>, %arg108: tensor<256xf32>, %arg109: tensor<1536x256xf32>, %arg110: tensor<1x2x1024x128xf32>, %arg111: tensor<1x2x1024x128xf32>, %arg112: tensor<1536x1536xf32>, %arg113: tensor<1536xf32>, %arg114: tensor<1536x8960xf32>, %arg115: tensor<1536x8960xf32>, %arg116: tensor<8960x1536xf32>, %arg117: tensor<1536xf32>, %arg118: tensor<1536xf32>, %arg119: tensor<1536x1536xf32>, %arg120: tensor<256xf32>, %arg121: tensor<1536x256xf32>, %arg122: tensor<256xf32>, %arg123: tensor<1536x256xf32>, %arg124: tensor<1x2x1024x128xf32>, %arg125: tensor<1x2x1024x128xf32>, %arg126: tensor<1536x1536xf32>, %arg127: tensor<1536xf32>, %arg128: tensor<1536x8960xf32>, %arg129: tensor<1536x8960xf32>, %arg130: tensor<8960x1536xf32>, %arg131: tensor<1536xf32>, %arg132: tensor<1536xf32>, %arg133: tensor<1536x1536xf32>, %arg134: tensor<256xf32>, %arg135: tensor<1536x256xf32>, %arg136: tensor<256xf32>, %arg137: tensor<1536x256xf32>, %arg138: tensor<1x2x1024x128xf32>, %arg139: tensor<1x2x1024x128xf32>, %arg140: tensor<1536x1536xf32>, %arg141: tensor<1536xf32>, %arg142: tensor<1536x8960xf32>, %arg143: tensor<1536x8960xf32>, %arg144: tensor<8960x1536xf32>, %arg145: tensor<1536xf32>, %arg146: tensor<1536xf32>, %arg147: tensor<1536x1536xf32>, %arg148: tensor<256xf32>, %arg149: tensor<1536x256xf32>, %arg150: tensor<256xf32>, %arg151: tensor<1536x256xf32>, %arg152: tensor<1x2x1024x128xf32>, %arg153: tensor<1x2x1024x128xf32>, %arg154: tensor<1536x1536xf32>, %arg155: tensor<1536xf32>, %arg156: tensor<1536x8960xf32>, %arg157: tensor<1536x8960xf32>, %arg158: tensor<8960x1536xf32>, %arg159: tensor<1536xf32>, %arg160: tensor<1536xf32>, %arg161: tensor<1536x1536xf32>, %arg162: tensor<256xf32>, %arg163: tensor<1536x256xf32>, %arg164: tensor<256xf32>, %arg165: tensor<1536x256xf32>, %arg166: tensor<1x2x1024x128xf32>, %arg167: tensor<1x2x1024x128xf32>, %arg168: tensor<1536x1536xf32>, %arg169: tensor<1536xf32>, %arg170: tensor<1536x8960xf32>, %arg171: tensor<1536x8960xf32>, %arg172: tensor<8960x1536xf32>, %arg173: tensor<1536xf32>, %arg174: tensor<1536xf32>, %arg175: tensor<1536x1536xf32>, %arg176: tensor<256xf32>, %arg177: tensor<1536x256xf32>, %arg178: tensor<256xf32>, %arg179: tensor<1536x256xf32>, %arg180: tensor<1x2x1024x128xf32>, %arg181: tensor<1x2x1024x128xf32>, %arg182: tensor<1536x1536xf32>, %arg183: tensor<1536xf32>, %arg184: tensor<1536x8960xf32>, %arg185: tensor<1536x8960xf32>, %arg186: tensor<8960x1536xf32>, %arg187: tensor<1536xf32>, %arg188: tensor<1536xf32>, %arg189: tensor<1536x1536xf32>, %arg190: tensor<256xf32>, %arg191: tensor<1536x256xf32>, %arg192: tensor<256xf32>, %arg193: tensor<1536x256xf32>, %arg194: tensor<1x2x1024x128xf32>, %arg195: tensor<1x2x1024x128xf32>, %arg196: tensor<1536x1536xf32>, %arg197: tensor<1536xf32>, %arg198: tensor<1536x8960xf32>, %arg199: tensor<1536x8960xf32>, %arg200: tensor<8960x1536xf32>, %arg201: tensor<1536xf32>, %arg202: tensor<1536xf32>, %arg203: tensor<1536x1536xf32>, %arg204: tensor<256xf32>, %arg205: tensor<1536x256xf32>, %arg206: tensor<256xf32>, %arg207: tensor<1536x256xf32>, %arg208: tensor<1x2x1024x128xf32>, %arg209: tensor<1x2x1024x128xf32>, %arg210: tensor<1536x1536xf32>, %arg211: tensor<1536xf32>, %arg212: tensor<1536x8960xf32>, %arg213: tensor<1536x8960xf32>, %arg214: tensor<8960x1536xf32>, %arg215: tensor<1536xf32>, %arg216: tensor<1536xf32>, %arg217: tensor<1536x1536xf32>, %arg218: tensor<256xf32>, %arg219: tensor<1536x256xf32>, %arg220: tensor<256xf32>, %arg221: tensor<1536x256xf32>, %arg222: tensor<1x2x1024x128xf32>, %arg223: tensor<1x2x1024x128xf32>, %arg224: tensor<1536x1536xf32>, %arg225: tensor<1536xf32>, %arg226: tensor<1536x8960xf32>, %arg227: tensor<1536x8960xf32>, %arg228: tensor<8960x1536xf32>, %arg229: tensor<1536xf32>, %arg230: tensor<1536xf32>, %arg231: tensor<1536x1536xf32>, %arg232: tensor<256xf32>, %arg233: tensor<1536x256xf32>, %arg234: tensor<256xf32>, %arg235: tensor<1536x256xf32>, %arg236: tensor<1x2x1024x128xf32>, %arg237: tensor<1x2x1024x128xf32>, %arg238: tensor<1536x1536xf32>, %arg239: tensor<1536xf32>, %arg240: tensor<1536x8960xf32>, %arg241: tensor<1536x8960xf32>, %arg242: tensor<8960x1536xf32>, %arg243: tensor<1536xf32>, %arg244: tensor<1536xf32>, %arg245: tensor<1536x1536xf32>, %arg246: tensor<256xf32>, %arg247: tensor<1536x256xf32>, %arg248: tensor<256xf32>, %arg249: tensor<1536x256xf32>, %arg250: tensor<1x2x1024x128xf32>, %arg251: tensor<1x2x1024x128xf32>, %arg252: tensor<1536x1536xf32>, %arg253: tensor<1536xf32>, %arg254: tensor<1536x8960xf32>, %arg255: tensor<1536x8960xf32>, %arg256: tensor<8960x1536xf32>, %arg257: tensor<1536xf32>, %arg258: tensor<1536xf32>, %arg259: tensor<1536x1536xf32>, %arg260: tensor<256xf32>, %arg261: tensor<1536x256xf32>, %arg262: tensor<256xf32>, %arg263: tensor<1536x256xf32>, %arg264: tensor<1x2x1024x128xf32>, %arg265: tensor<1x2x1024x128xf32>, %arg266: tensor<1536x1536xf32>, %arg267: tensor<1536xf32>, %arg268: tensor<1536x8960xf32>, %arg269: tensor<1536x8960xf32>, %arg270: tensor<8960x1536xf32>, %arg271: tensor<1536xf32>, %arg272: tensor<1536xf32>, %arg273: tensor<1536x1536xf32>, %arg274: tensor<256xf32>, %arg275: tensor<1536x256xf32>, %arg276: tensor<256xf32>, %arg277: tensor<1536x256xf32>, %arg278: tensor<1x2x1024x128xf32>, %arg279: tensor<1x2x1024x128xf32>, %arg280: tensor<1536x1536xf32>, %arg281: tensor<1536xf32>, %arg282: tensor<1536x8960xf32>, %arg283: tensor<1536x8960xf32>, %arg284: tensor<8960x1536xf32>, %arg285: tensor<1536xf32>, %arg286: tensor<1536xf32>, %arg287: tensor<1536x1536xf32>, %arg288: tensor<256xf32>, %arg289: tensor<1536x256xf32>, %arg290: tensor<256xf32>, %arg291: tensor<1536x256xf32>, %arg292: tensor<1x2x1024x128xf32>, %arg293: tensor<1x2x1024x128xf32>, %arg294: tensor<1536x1536xf32>, %arg295: tensor<1536xf32>, %arg296: tensor<1536x8960xf32>, %arg297: tensor<1536x8960xf32>, %arg298: tensor<8960x1536xf32>, %arg299: tensor<1536xf32>, %arg300: tensor<1536xf32>, %arg301: tensor<1536x1536xf32>, %arg302: tensor<256xf32>, %arg303: tensor<1536x256xf32>, %arg304: tensor<256xf32>, %arg305: tensor<1536x256xf32>, %arg306: tensor<1x2x1024x128xf32>, %arg307: tensor<1x2x1024x128xf32>, %arg308: tensor<1536x1536xf32>, %arg309: tensor<1536xf32>, %arg310: tensor<1536x8960xf32>, %arg311: tensor<1536x8960xf32>, %arg312: tensor<8960x1536xf32>, %arg313: tensor<1536xf32>, %arg314: tensor<1536xf32>, %arg315: tensor<1536x1536xf32>, %arg316: tensor<256xf32>, %arg317: tensor<1536x256xf32>, %arg318: tensor<256xf32>, %arg319: tensor<1536x256xf32>, %arg320: tensor<1x2x1024x128xf32>, %arg321: tensor<1x2x1024x128xf32>, %arg322: tensor<1536x1536xf32>, %arg323: tensor<1536xf32>, %arg324: tensor<1536x8960xf32>, %arg325: tensor<1536x8960xf32>, %arg326: tensor<8960x1536xf32>, %arg327: tensor<1536xf32>, %arg328: tensor<1536xf32>, %arg329: tensor<1536x1536xf32>, %arg330: tensor<256xf32>, %arg331: tensor<1536x256xf32>, %arg332: tensor<256xf32>, %arg333: tensor<1536x256xf32>, %arg334: tensor<1x2x1024x128xf32>, %arg335: tensor<1x2x1024x128xf32>, %arg336: tensor<1536x1536xf32>, %arg337: tensor<1536xf32>, %arg338: tensor<1536x8960xf32>, %arg339: tensor<1536x8960xf32>, %arg340: tensor<8960x1536xf32>, %arg341: tensor<1536xf32>, %arg342: tensor<1536xf32>, %arg343: tensor<1536x1536xf32>, %arg344: tensor<256xf32>, %arg345: tensor<1536x256xf32>, %arg346: tensor<256xf32>, %arg347: tensor<1536x256xf32>, %arg348: tensor<1x2x1024x128xf32>, %arg349: tensor<1x2x1024x128xf32>, %arg350: tensor<1536x1536xf32>, %arg351: tensor<1536xf32>, %arg352: tensor<1536x8960xf32>, %arg353: tensor<1536x8960xf32>, %arg354: tensor<8960x1536xf32>, %arg355: tensor<1536xf32>, %arg356: tensor<1536xf32>, %arg357: tensor<1536x1536xf32>, %arg358: tensor<256xf32>, %arg359: tensor<1536x256xf32>, %arg360: tensor<256xf32>, %arg361: tensor<1536x256xf32>, %arg362: tensor<1x2x1024x128xf32>, %arg363: tensor<1x2x1024x128xf32>, %arg364: tensor<1536x1536xf32>, %arg365: tensor<1536xf32>, %arg366: tensor<1536x8960xf32>, %arg367: tensor<1536x8960xf32>, %arg368: tensor<8960x1536xf32>, %arg369: tensor<1536xf32>, %arg370: tensor<1536xf32>, %arg371: tensor<1536x1536xf32>, %arg372: tensor<256xf32>, %arg373: tensor<1536x256xf32>, %arg374: tensor<256xf32>, %arg375: tensor<1536x256xf32>, %arg376: tensor<1x2x1024x128xf32>, %arg377: tensor<1x2x1024x128xf32>, %arg378: tensor<1536x1536xf32>, %arg379: tensor<1536xf32>, %arg380: tensor<1536x8960xf32>, %arg381: tensor<1536x8960xf32>, %arg382: tensor<8960x1536xf32>, %arg383: tensor<1536xf32>, %arg384: tensor<1536xf32>, %arg385: tensor<1536x1536xf32>, %arg386: tensor<256xf32>, %arg387: tensor<1536x256xf32>, %arg388: tensor<256xf32>, %arg389: tensor<1536x256xf32>, %arg390: tensor<1x2x1024x128xf32>, %arg391: tensor<1x2x1024x128xf32>, %arg392: tensor<1536x1536xf32>, %arg393: tensor<1536xf32>, %arg394: tensor<1536x8960xf32>, %arg395: tensor<1536x8960xf32>, %arg396: tensor<8960x1536xf32>, %arg397: tensor<1536xf32>, %arg398: tensor<1536x151936xf32>) -> (tensor<1x2x1024x128xf32>, tensor<1x2x1024x128xf32>, tensor<1x2x1024x128xf32>, tensor<1x2x1024x128xf32>, tensor<1x2x1024x128xf32>, tensor<1x2x1024x128xf32>, tensor<1x2x1024x128xf32>, tensor<1x2x1024x128xf32>, tensor<1x2x1024x128xf32>, tensor<1x2x1024x128xf32>, tensor<1x2x1024x128xf32>, tensor<1x2x1024x128xf32>, tensor<1x2x1024x128xf32>, tensor<1x2x1024x128xf32>, tensor<1x2x1024x128xf32>, tensor<1x2x1024x128xf32>, tensor<1x2x1024x128xf32>, tensor<1x2x1024x128xf32>, tensor<1x2x1024x128xf32>, tensor<1x2x1024x128xf32>, tensor<1x2x1024x128xf32>, tensor<1x2x1024x128xf32>, tensor<1x2x1024x128xf32>, tensor<1x2x1024x128xf32>, tensor<1x2x1024x128xf32>, tensor<1x2x1024x128xf32>, tensor<1x2x1024x128xf32>, tensor<1x2x1024x128xf32>, tensor<1x2x1024x128xf32>, tensor<1x2x1024x128xf32>, tensor<1x2x1024x128xf32>, tensor<1x2x1024x128xf32>, tensor<1x2x1024x128xf32>, tensor<1x2x1024x128xf32>, tensor<1x2x1024x128xf32>, tensor<1x2x1024x128xf32>, tensor<1x2x1024x128xf32>, tensor<1x2x1024x128xf32>, tensor<1x2x1024x128xf32>, tensor<1x2x1024x128xf32>, tensor<1x2x1024x128xf32>, tensor<1x2x1024x128xf32>, tensor<1x2x1024x128xf32>, tensor<1x2x1024x128xf32>, tensor<1x2x1024x128xf32>, tensor<1x2x1024x128xf32>, tensor<1x2x1024x128xf32>, tensor<1x2x1024x128xf32>, tensor<1x2x1024x128xf32>, tensor<1x2x1024x128xf32>, tensor<1x2x1024x128xf32>, tensor<1x2x1024x128xf32>, tensor<1x2x1024x128xf32>, tensor<1x2x1024x128xf32>, tensor<1x2x1024x128xf32>, tensor<1x2x1024x128xf32>, tensor<1x1x151936xf32>) {
    %cst = arith.constant dense<0.000000e+00> : vector<16xf32>
    %cst_0 = arith.constant dense<0xFF800000> : tensor<1x1x1x1024xf32>
    %cst_1 = arith.constant dense<0.000000e+00> : tensor<1x1x1x1024xf32>
    %cst_2 = arith.constant dense<6.51041686E-4> : tensor<1x1x1xf32>
    %cst_3 = arith.constant dense<"0x00000000000000000100000000000000020000000000000003000000000000000400000000000000050000000000000006000000000000000700000000000000080000000000000009000000000000000A000000000000000B000000000000000C000000000000000D000000000000000E000000000000000F0000000000000010000000000000001100000000000000120000000000000013000000000000001400000000000000150000000000000016000000000000001700000000000000180000000000000019000000000000001A000000000000001B000000000000001C000000000000001D000000000000001E000000000000001F0000000000000020000000000000002100000000000000220000000000000023000000000000002400000000000000250000000000000026000000000000002700000000000000280000000000000029000000000000002A000000000000002B000000000000002C000000000000002D000000000000002E000000000000002F0000000000000030000000000000003100000000000000320000000000000033000000000000003400000000000000350000000000000036000000000000003700000000000000380000000000000039000000000000003A000000000000003B000000000000003C000000000000003D000000000000003E000000000000003F0000000000000040000000000000004100000000000000420000000000000043000000000000004400000000000000450000000000000046000000000000004700000000000000480000000000000049000000000000004A000000000000004B000000000000004C000000000000004D000000000000004E000000000000004F0000000000000050000000000000005100000000000000520000000000000053000000000000005400000000000000550000000000000056000000000000005700000000000000580000000000000059000000000000005A000000000000005B000000000000005C000000000000005D000000000000005E000000000000005F0000000000000060000000000000006100000000000000620000000000000063000000000000006400000000000000650000000000000066000000000000006700000000000000680000000000000069000000000000006A000000000000006B000000000000006C000000000000006D000000000000006E000000000000006F0000000000000070000000000000007100000000000000720000000000000073000000000000007400000000000000750000000000000076000000000000007700000000000000780000000000000079000000000000007A000000000000007B000000000000007C000000000000007D000000000000007E000000000000007F0000000000000080000000000000008100000000000000820000000000000083000000000000008400000000000000850000000000000086000000000000008700000000000000880000000000000089000000000000008A000000000000008B000000000000008C000000000000008D000000000000008E000000000000008F0000000000000090000000000000009100000000000000920000000000000093000000000000009400000000000000950000000000000096000000000000009700000000000000980000000000000099000000000000009A000000000000009B000000000000009C000000000000009D000000000000009E000000000000009F00000000000000A000000000000000A100000000000000A200000000000000A300000000000000A400000000000000A500000000000000A600000000000000A700000000000000A800000000000000A900000000000000AA00000000000000AB00000000000000AC00000000000000AD00000000000000AE00000000000000AF00000000000000B000000000000000B100000000000000B200000000000000B300000000000000B400000000000000B500000000000000B600000000000000B700000000000000B800000000000000B900000000000000BA00000000000000BB00000000000000BC00000000000000BD00000000000000BE00000000000000BF00000000000000C000000000000000C100000000000000C200000000000000C300000000000000C400000000000000C500000000000000C600000000000000C700000000000000C800000000000000C900000000000000CA00000000000000CB00000000000000CC00000000000000CD00000000000000CE00000000000000CF00000000000000D000000000000000D100000000000000D200000000000000D300000000000000D400000000000000D500000000000000D600000000000000D700000000000000D800000000000000D900000000000000DA00000000000000DB00000000000000DC00000000000000DD00000000000000DE00000000000000DF00000000000000E000000000000000E100000000000000E200000000000000E300000000000000E400000000000000E500000000000000E600000000000000E700000000000000E800000000000000E900000000000000EA00000000000000EB00000000000000EC00000000000000ED00000000000000EE00000000000000EF00000000000000F000000000000000F100000000000000F200000000000000F300000000000000F400000000000000F500000000000000F600000000000000F700000000000000F800000000000000F900000000000000FA00000000000000FB00000000000000FC00000000000000FD00000000000000FE00000000000000FF0000000000000000010000000000000101000000000000020100000000000003010000000000000401000000000000050100000000000006010000000000000701000000000000080100000000000009010000000000000A010000000000000B010000000000000C010000000000000D010000000000000E010000000000000F0100000000000010010000000000001101000000000000120100000000000013010000000000001401000000000000150100000000000016010000000000001701000000000000180100000000000019010000000000001A010000000000001B010000000000001C010000000000001D010000000000001E010000000000001F0100000000000020010000000000002101000000000000220100000000000023010000000000002401000000000000250100000000000026010000000000002701000000000000280100000000000029010000000000002A010000000000002B010000000000002C010000000000002D010000000000002E010000000000002F0100000000000030010000000000003101000000000000320100000000000033010000000000003401000000000000350100000000000036010000000000003701000000000000380100000000000039010000000000003A010000000000003B010000000000003C010000000000003D010000000000003E010000000000003F0100000000000040010000000000004101000000000000420100000000000043010000000000004401000000000000450100000000000046010000000000004701000000000000480100000000000049010000000000004A010000000000004B010000000000004C010000000000004D010000000000004E010000000000004F0100000000000050010000000000005101000000000000520100000000000053010000000000005401000000000000550100000000000056010000000000005701000000000000580100000000000059010000000000005A010000000000005B010000000000005C010000000000005D010000000000005E010000000000005F0100000000000060010000000000006101000000000000620100000000000063010000000000006401000000000000650100000000000066010000000000006701000000000000680100000000000069010000000000006A010000000000006B010000000000006C010000000000006D010000000000006E010000000000006F0100000000000070010000000000007101000000000000720100000000000073010000000000007401000000000000750100000000000076010000000000007701000000000000780100000000000079010000000000007A010000000000007B010000000000007C010000000000007D010000000000007E010000000000007F0100000000000080010000000000008101000000000000820100000000000083010000000000008401000000000000850100000000000086010000000000008701000000000000880100000000000089010000000000008A010000000000008B010000000000008C010000000000008D010000000000008E010000000000008F0100000000000090010000000000009101000000000000920100000000000093010000000000009401000000000000950100000000000096010000000000009701000000000000980100000000000099010000000000009A010000000000009B010000000000009C010000000000009D010000000000009E010000000000009F01000000000000A001000000000000A101000000000000A201000000000000A301000000000000A401000000000000A501000000000000A601000000000000A701000000000000A801000000000000A901000000000000AA01000000000000AB01000000000000AC01000000000000AD01000000000000AE01000000000000AF01000000000000B001000000000000B101000000000000B201000000000000B301000000000000B401000000000000B501000000000000B601000000000000B701000000000000B801000000000000B901000000000000BA01000000000000BB01000000000000BC01000000000000BD01000000000000BE01000000000000BF01000000000000C001000000000000C101000000000000C201000000000000C301000000000000C401000000000000C501000000000000C601000000000000C701000000000000C801000000000000C901000000000000CA01000000000000CB01000000000000CC01000000000000CD01000000000000CE01000000000000CF01000000000000D001000000000000D101000000000000D201000000000000D301000000000000D401000000000000D501000000000000D601000000000000D701000000000000D801000000000000D901000000000000DA01000000000000DB01000000000000DC01000000000000DD01000000000000DE01000000000000DF01000000000000E001000000000000E101000000000000E201000000000000E301000000000000E401000000000000E501000000000000E601000000000000E701000000000000E801000000000000E901000000000000EA01000000000000EB01000000000000EC01000000000000ED01000000000000EE01000000000000EF01000000000000F001000000000000F101000000000000F201000000000000F301000000000000F401000000000000F501000000000000F601000000000000F701000000000000F801000000000000F901000000000000FA01000000000000FB01000000000000FC01000000000000FD01000000000000FE01000000000000FF0100000000000000020000000000000102000000000000020200000000000003020000000000000402000000000000050200000000000006020000000000000702000000000000080200000000000009020000000000000A020000000000000B020000000000000C020000000000000D020000000000000E020000000000000F0200000000000010020000000000001102000000000000120200000000000013020000000000001402000000000000150200000000000016020000000000001702000000000000180200000000000019020000000000001A020000000000001B020000000000001C020000000000001D020000000000001E020000000000001F0200000000000020020000000000002102000000000000220200000000000023020000000000002402000000000000250200000000000026020000000000002702000000000000280200000000000029020000000000002A020000000000002B020000000000002C020000000000002D020000000000002E020000000000002F0200000000000030020000000000003102000000000000320200000000000033020000000000003402000000000000350200000000000036020000000000003702000000000000380200000000000039020000000000003A020000000000003B020000000000003C020000000000003D020000000000003E020000000000003F0200000000000040020000000000004102000000000000420200000000000043020000000000004402000000000000450200000000000046020000000000004702000000000000480200000000000049020000000000004A020000000000004B020000000000004C020000000000004D020000000000004E020000000000004F0200000000000050020000000000005102000000000000520200000000000053020000000000005402000000000000550200000000000056020000000000005702000000000000580200000000000059020000000000005A020000000000005B020000000000005C020000000000005D020000000000005E020000000000005F0200000000000060020000000000006102000000000000620200000000000063020000000000006402000000000000650200000000000066020000000000006702000000000000680200000000000069020000000000006A020000000000006B020000000000006C020000000000006D020000000000006E020000000000006F0200000000000070020000000000007102000000000000720200000000000073020000000000007402000000000000750200000000000076020000000000007702000000000000780200000000000079020000000000007A020000000000007B020000000000007C020000000000007D020000000000007E020000000000007F0200000000000080020000000000008102000000000000820200000000000083020000000000008402000000000000850200000000000086020000000000008702000000000000880200000000000089020000000000008A020000000000008B020000000000008C020000000000008D020000000000008E020000000000008F0200000000000090020000000000009102000000000000920200000000000093020000000000009402000000000000950200000000000096020000000000009702000000000000980200000000000099020000000000009A020000000000009B020000000000009C020000000000009D020000000000009E020000000000009F02000000000000A002000000000000A102000000000000A202000000000000A302000000000000A402000000000000A502000000000000A602000000000000A702000000000000A802000000000000A902000000000000AA02000000000000AB02000000000000AC02000000000000AD02000000000000AE02000000000000AF02000000000000B002000000000000B102000000000000B202000000000000B302000000000000B402000000000000B502000000000000B602000000000000B702000000000000B802000000000000B902000000000000BA02000000000000BB02000000000000BC02000000000000BD02000000000000BE02000000000000BF02000000000000C002000000000000C102000000000000C202000000000000C302000000000000C402000000000000C502000000000000C602000000000000C702000000000000C802000000000000C902000000000000CA02000000000000CB02000000000000CC02000000000000CD02000000000000CE02000000000000CF02000000000000D002000000000000D102000000000000D202000000000000D302000000000000D402000000000000D502000000000000D602000000000000D702000000000000D802000000000000D902000000000000DA02000000000000DB02000000000000DC02000000000000DD02000000000000DE02000000000000DF02000000000000E002000000000000E102000000000000E202000000000000E302000000000000E402000000000000E502000000000000E602000000000000E702000000000000E802000000000000E902000000000000EA02000000000000EB02000000000000EC02000000000000ED02000000000000EE02000000000000EF02000000000000F002000000000000F102000000000000F202000000000000F302000000000000F402000000000000F502000000000000F602000000000000F702000000000000F802000000000000F902000000000000FA02000000000000FB02000000000000FC02000000000000FD02000000000000FE02000000000000FF0200000000000000030000000000000103000000000000020300000000000003030000000000000403000000000000050300000000000006030000000000000703000000000000080300000000000009030000000000000A030000000000000B030000000000000C030000000000000D030000000000000E030000000000000F0300000000000010030000000000001103000000000000120300000000000013030000000000001403000000000000150300000000000016030000000000001703000000000000180300000000000019030000000000001A030000000000001B030000000000001C030000000000001D030000000000001E030000000000001F0300000000000020030000000000002103000000000000220300000000000023030000000000002403000000000000250300000000000026030000000000002703000000000000280300000000000029030000000000002A030000000000002B030000000000002C030000000000002D030000000000002E030000000000002F0300000000000030030000000000003103000000000000320300000000000033030000000000003403000000000000350300000000000036030000000000003703000000000000380300000000000039030000000000003A030000000000003B030000000000003C030000000000003D030000000000003E030000000000003F0300000000000040030000000000004103000000000000420300000000000043030000000000004403000000000000450300000000000046030000000000004703000000000000480300000000000049030000000000004A030000000000004B030000000000004C030000000000004D030000000000004E030000000000004F0300000000000050030000000000005103000000000000520300000000000053030000000000005403000000000000550300000000000056030000000000005703000000000000580300000000000059030000000000005A030000000000005B030000000000005C030000000000005D030000000000005E030000000000005F0300000000000060030000000000006103000000000000620300000000000063030000000000006403000000000000650300000000000066030000000000006703000000000000680300000000000069030000000000006A030000000000006B030000000000006C030000000000006D030000000000006E030000000000006F0300000000000070030000000000007103000000000000720300000000000073030000000000007403000000000000750300000000000076030000000000007703000000000000780300000000000079030000000000007A030000000000007B030000000000007C030000000000007D030000000000007E030000000000007F0300000000000080030000000000008103000000000000820300000000000083030000000000008403000000000000850300000000000086030000000000008703000000000000880300000000000089030000000000008A030000000000008B030000000000008C030000000000008D030000000000008E030000000000008F0300000000000090030000000000009103000000000000920300000000000093030000000000009403000000000000950300000000000096030000000000009703000000000000980300000000000099030000000000009A030000000000009B030000000000009C030000000000009D030000000000009E030000000000009F03000000000000A003000000000000A103000000000000A203000000000000A303000000000000A403000000000000A503000000000000A603000000000000A703000000000000A803000000000000A903000000000000AA03000000000000AB03000000000000AC03000000000000AD03000000000000AE03000000000000AF03000000000000B003000000000000B103000000000000B203000000000000B303000000000000B403000000000000B503000000000000B603000000000000B703000000000000B803000000000000B903000000000000BA03000000000000BB03000000000000BC03000000000000BD03000000000000BE03000000000000BF03000000000000C003000000000000C103000000000000C203000000000000C303000000000000C403000000000000C503000000000000C603000000000000C703000000000000C803000000000000C903000000000000CA03000000000000CB03000000000000CC03000000000000CD03000000000000CE03000000000000CF03000000000000D003000000000000D103000000000000D203000000000000D303000000000000D403000000000000D503000000000000D603000000000000D703000000000000D803000000000000D903000000000000DA03000000000000DB03000000000000DC03000000000000DD03000000000000DE03000000000000DF03000000000000E003000000000000E103000000000000E203000000000000E303000000000000E403000000000000E503000000000000E603000000000000E703000000000000E803000000000000E903000000000000EA03000000000000EB03000000000000EC03000000000000ED03000000000000EE03000000000000EF03000000000000F003000000000000F103000000000000F203000000000000F303000000000000F403000000000000F503000000000000F603000000000000F703000000000000F803000000000000F903000000000000FA03000000000000FB03000000000000FC03000000000000FD03000000000000FE03000000000000FF03000000000000"> : tensor<1x1024xi64>
    %0 = tosa.const_shape  {values = dense<[1, 1, 151936]> : tensor<3xindex>} : () -> !tosa.shape<3>
    %cst_4 = arith.constant dense<0.000000e+00> : tensor<1x151936xf32>
    %1 = tosa.const_shape  {values = dense<[1, 8960]> : tensor<2xindex>} : () -> !tosa.shape<2>
    %2 = tosa.const_shape  {values = dense<[1, 1, 8960]> : tensor<3xindex>} : () -> !tosa.shape<3>
    %cst_5 = arith.constant dense<0.000000e+00> : tensor<1x8960xf32>
    %c6 = arith.constant 6 : index
    %cst_6 = arith.constant -1.000000e+30 : f32
    %cst_7 = arith.constant 0.0883883461 : f32
    %cst_8 = arith.constant 1.000000e+00 : f32
    %cst_9 = arith.constant 0.000000e+00 : f32
    %3 = tosa.const_shape  {values = dense<[1, 1, 1, 1024]> : tensor<4xindex>} : () -> !tosa.shape<4>
    %c128 = arith.constant 128 : index
    %c2 = arith.constant 2 : index
    %c1 = arith.constant 1 : index
    %c0 = arith.constant 0 : index
    %cst_10 = arith.constant dense<0> : tensor<1x2x1x128xi64>
    %4 = tosa.const_shape  {values = dense<1> : tensor<4xindex>} : () -> !tosa.shape<4>
    %5 = tosa.const_shape  {values = dense<[1, 1, 1, 128]> : tensor<4xindex>} : () -> !tosa.shape<4>
    %6 = tosa.const_shape  {values = dense<[1, 2, 1, 128]> : tensor<4xindex>} : () -> !tosa.shape<4>
    %7 = tosa.const_shape  {values = dense<[1, 256]> : tensor<2xindex>} : () -> !tosa.shape<2>
    %cst_11 = arith.constant dense<0.000000e+00> : tensor<1x256xf32>
    %8 = tosa.const_shape  {values = dense<[1, 12, 1, 128]> : tensor<4xindex>} : () -> !tosa.shape<4>
    %cst_12 = arith.constant dense<0.000000e+00> : tensor<1x1536xf32>
    %9 = tosa.const_shape  {values = dense<[1, 1536]> : tensor<2xindex>} : () -> !tosa.shape<2>
    %10 = tosa.const_shape  {values = dense<[1, 1, 1536]> : tensor<3xindex>} : () -> !tosa.shape<3>
    %cst_13 = arith.constant dense<9.99999997E-7> : tensor<1x1x1xf32>
    %c2_i32 = arith.constant 2 : i32
    %cst_14 = arith.constant dense<0> : tensor<1xi8>
    %11 = tosa.const_shape  {values = dense<[1, 1, 128]> : tensor<3xindex>} : () -> !tosa.shape<3>
    %cst_15 = arith.constant dense<0.000000e+00> : tensor<1x1x2x64xf32>
    %12 = tosa.const_shape  {values = dense<[1, 1, 1, 64]> : tensor<4xindex>} : () -> !tosa.shape<4>
    %cst_16 = arith.constant dense<0.000000e+00> : tensor<1xf32>
    %13 = tosa.const_shape  {values = dense<1> : tensor<3xindex>} : () -> !tosa.shape<3>
    %14 = tosa.const_shape  {values = dense<[1, 64, 1]> : tensor<3xindex>} : () -> !tosa.shape<3>
    %15 = tosa.const_shape  {values = dense<1> : tensor<2xindex>} : () -> !tosa.shape<2>
    %16 = tosa.const_shape  {values = dense<[1, 151936, 1536]> : tensor<3xindex>} : () -> !tosa.shape<3>
    %17 = tensor.empty() : tensor<1x1xi32>
    %18 = linalg.generic {indexing_maps = [#map, #map], iterator_types = ["parallel", "parallel"]} ins(%arg1 : tensor<1x1xi64>) outs(%17 : tensor<1x1xi32>) {
    ^bb0(%in: i64, %out: i32):
      %2454 = arith.trunci %in : i64 to i32
      linalg.yield %2454 : i32
    } -> tensor<1x1xi32>
    %expanded = tensor.expand_shape %arg0 [[0, 1], [2]] output_shape [1, 151936, 1536] : tensor<151936x1536xf32> into tensor<1x151936x1536xf32>
    %19 = tensor.empty() : tensor<1x1x1536xf32>
    %20 = linalg.generic {indexing_maps = [#map1, #map2], iterator_types = ["parallel", "parallel", "parallel"]} ins(%18 : tensor<1x1xi32>) outs(%19 : tensor<1x1x1536xf32>) {
    ^bb0(%in: i32, %out: f32):
      %c0_1172 = arith.constant 0 : index
      %2454 = arith.index_cast %in : i32 to index
      %2455 = linalg.index 2 : index
      %extracted = tensor.extract %expanded[%c0_1172, %2454, %2455] : tensor<1x151936x1536xf32>
      linalg.yield %extracted : f32
    } -> tensor<1x1x1536xf32>
    %expanded_17 = tensor.expand_shape %arg3 [[0, 1]] output_shape [1, 1] : tensor<1xi64> into tensor<1x1xi64>
    %21 = tensor.empty() : tensor<1x1024xi1>
    %22 = linalg.generic {indexing_maps = [#map3, #map, #map], iterator_types = ["parallel", "parallel"]} ins(%expanded_17, %cst_3 : tensor<1x1xi64>, tensor<1x1024xi64>) outs(%21 : tensor<1x1024xi1>) {
    ^bb0(%in: i64, %in_1172: i64, %out: i1):
      %2454 = arith.cmpi sge, %in, %in_1172 : i64
      linalg.yield %2454 : i1
    } -> tensor<1x1024xi1>
    %expanded_18 = tensor.expand_shape %arg4 [[0, 1, 2]] output_shape [1, 64, 1] : tensor<64xf32> into tensor<1x64x1xf32>
    %expanded_19 = tensor.expand_shape %arg3 [[0, 1, 2]] output_shape [1, 1, 1] : tensor<1xi64> into tensor<1x1x1xi64>
    %23 = tensor.empty() : tensor<1x1x1xf32>
    %24 = linalg.generic {indexing_maps = [#map2, #map2], iterator_types = ["parallel", "parallel", "parallel"]} ins(%expanded_19 : tensor<1x1x1xi64>) outs(%23 : tensor<1x1x1xf32>) {
    ^bb0(%in: i64, %out: f32):
      %2454 = arith.sitofp %in : i64 to f32
      linalg.yield %2454 : f32
    } -> tensor<1x1x1xf32>
    %25 = tensor.empty() : tensor<1x64x1xf32>
    %26 = linalg.generic {indexing_maps = [#map2, #map4, #map2], iterator_types = ["parallel", "parallel", "parallel"]} ins(%expanded_18, %24 : tensor<1x64x1xf32>, tensor<1x1x1xf32>) outs(%25 : tensor<1x64x1xf32>) {
    ^bb0(%in: f32, %in_1172: f32, %out: f32):
      %2454 = arith.mulf %in, %in_1172 : f32
      linalg.yield %2454 : f32
    } -> tensor<1x64x1xf32>
    %collapsed = tensor.collapse_shape %26 [[0], [1, 2]] : tensor<1x64x1xf32> into tensor<1x64xf32>
    %expanded_20 = tensor.expand_shape %collapsed [[0, 1, 2], [3]] output_shape [1, 1, 1, 64] : tensor<1x64xf32> into tensor<1x1x1x64xf32>
    %27 = tensor.empty() : tensor<1x1x2x64xf32>
    %28 = linalg.generic {indexing_maps = [#map5, #map6, #map6], iterator_types = ["parallel", "parallel", "parallel", "parallel"]} ins(%expanded_20, %cst_15 : tensor<1x1x1x64xf32>, tensor<1x1x2x64xf32>) outs(%27 : tensor<1x1x2x64xf32>) {
    ^bb0(%in: f32, %in_1172: f32, %out: f32):
      %2454 = arith.addf %in, %in_1172 : f32
      linalg.yield %2454 : f32
    } -> tensor<1x1x2x64xf32>
    %collapsed_21 = tensor.collapse_shape %28 [[0], [1], [2, 3]] : tensor<1x1x2x64xf32> into tensor<1x1x128xf32>
    %29 = math.cos %collapsed_21 : tensor<1x1x128xf32>
    %30 = math.sin %collapsed_21 : tensor<1x1x128xf32>
    %31 = tensor.empty() : tensor<1x1x1536xf32>
    %32 = linalg.generic {indexing_maps = [#map2, #map2], iterator_types = ["parallel", "parallel", "parallel"]} ins(%20 : tensor<1x1x1536xf32>) outs(%31 : tensor<1x1x1536xf32>) {
    ^bb0(%in: f32, %out: f32):
      %2454 = math.fpowi %in, %c2_i32 : f32, i32
      linalg.yield %2454 : f32
    } -> tensor<1x1x1536xf32>
    %33 = tensor.empty() : tensor<1x1xf32>
    %cst_22 = arith.constant 0.000000e+00 : f32
    %34 = linalg.fill ins(%cst_22 : f32) outs(%33 : tensor<1x1xf32>) -> tensor<1x1xf32>
    %reduced = linalg.reduce ins(%32 : tensor<1x1x1536xf32>) outs(%34 : tensor<1x1xf32>) dimensions = [2]
      (%in: f32, %init: f32) {
        %2454 = arith.addf %in, %init : f32
        linalg.yield %2454 : f32
      }
    %expanded_23 = tensor.expand_shape %reduced [[0], [1, 2]] output_shape [1, 1, 1] : tensor<1x1xf32> into tensor<1x1x1xf32>
    %35 = tensor.empty() : tensor<1x1x1xf32>
    %36 = linalg.generic {indexing_maps = [#map2, #map2, #map2], iterator_types = ["parallel", "parallel", "parallel"]} ins(%expanded_23, %cst_2 : tensor<1x1x1xf32>, tensor<1x1x1xf32>) outs(%35 : tensor<1x1x1xf32>) {
    ^bb0(%in: f32, %in_1172: f32, %out: f32):
      %2454 = arith.mulf %in, %in_1172 : f32
      linalg.yield %2454 : f32
    } -> tensor<1x1x1xf32>
    %37 = tensor.empty() : tensor<1x1x1xf32>
    %38 = linalg.generic {indexing_maps = [#map2, #map2, #map2], iterator_types = ["parallel", "parallel", "parallel"]} ins(%36, %cst_13 : tensor<1x1x1xf32>, tensor<1x1x1xf32>) outs(%37 : tensor<1x1x1xf32>) {
    ^bb0(%in: f32, %in_1172: f32, %out: f32):
      %2454 = arith.addf %in, %in_1172 : f32
      linalg.yield %2454 : f32
    } -> tensor<1x1x1xf32>
    %39 = tensor.empty() : tensor<1x1x1xf32>
    %40 = linalg.generic {indexing_maps = [#map2, #map2], iterator_types = ["parallel", "parallel", "parallel"]} ins(%38 : tensor<1x1x1xf32>) outs(%39 : tensor<1x1x1xf32>) {
    ^bb0(%in: f32, %out: f32):
      %2454 = math.rsqrt %in : f32
      linalg.yield %2454 : f32
    } -> tensor<1x1x1xf32>
    %41 = tensor.empty() : tensor<1x1x1536xf32>
    %42 = linalg.generic {indexing_maps = [#map2, #map7, #map2], iterator_types = ["parallel", "parallel", "parallel"]} ins(%20, %40 : tensor<1x1x1536xf32>, tensor<1x1x1xf32>) outs(%41 : tensor<1x1x1536xf32>) {
    ^bb0(%in: f32, %in_1172: f32, %out: f32):
      %2454 = arith.mulf %in, %in_1172 : f32
      linalg.yield %2454 : f32
    } -> tensor<1x1x1536xf32>
    %expanded_24 = tensor.expand_shape %arg5 [[0, 1, 2]] output_shape [1, 1, 1536] : tensor<1536xf32> into tensor<1x1x1536xf32>
    %43 = tensor.empty() : tensor<1x1x1536xf32>
    %44 = linalg.generic {indexing_maps = [#map2, #map2, #map2], iterator_types = ["parallel", "parallel", "parallel"]} ins(%expanded_24, %42 : tensor<1x1x1536xf32>, tensor<1x1x1536xf32>) outs(%43 : tensor<1x1x1536xf32>) {
    ^bb0(%in: f32, %in_1172: f32, %out: f32):
      %2454 = arith.mulf %in, %in_1172 : f32
      linalg.yield %2454 : f32
    } -> tensor<1x1x1536xf32>
    %collapsed_25 = tensor.collapse_shape %44 [[0, 1], [2]] : tensor<1x1x1536xf32> into tensor<1x1536xf32>
    %45 = linalg.matmul {cast = #linalg.type_fn<cast_signed>} ins(%collapsed_25, %arg7 : tensor<1x1536xf32>, tensor<1536x1536xf32>) outs(%cst_12 : tensor<1x1536xf32>) -> tensor<1x1536xf32>
    %expanded_26 = tensor.expand_shape %arg6 [[0, 1]] output_shape [1, 1536] : tensor<1536xf32> into tensor<1x1536xf32>
    %46 = tensor.empty() : tensor<1x1536xf32>
    %47 = linalg.generic {indexing_maps = [#map, #map, #map], iterator_types = ["parallel", "parallel"]} ins(%expanded_26, %45 : tensor<1x1536xf32>, tensor<1x1536xf32>) outs(%46 : tensor<1x1536xf32>) {
    ^bb0(%in: f32, %in_1172: f32, %out: f32):
      %2454 = arith.addf %in, %in_1172 : f32
      linalg.yield %2454 : f32
    } -> tensor<1x1536xf32>
    %expanded_27 = tensor.expand_shape %47 [[0], [1, 2, 3]] output_shape [1, 12, 1, 128] : tensor<1x1536xf32> into tensor<1x12x1x128xf32>
    %collapsed_28 = tensor.collapse_shape %44 [[0, 1], [2]] : tensor<1x1x1536xf32> into tensor<1x1536xf32>
    %48 = linalg.matmul {cast = #linalg.type_fn<cast_signed>} ins(%collapsed_28, %arg9 : tensor<1x1536xf32>, tensor<1536x256xf32>) outs(%cst_11 : tensor<1x256xf32>) -> tensor<1x256xf32>
    %expanded_29 = tensor.expand_shape %arg8 [[0, 1]] output_shape [1, 256] : tensor<256xf32> into tensor<1x256xf32>
    %49 = tensor.empty() : tensor<1x256xf32>
    %50 = linalg.generic {indexing_maps = [#map, #map, #map], iterator_types = ["parallel", "parallel"]} ins(%expanded_29, %48 : tensor<1x256xf32>, tensor<1x256xf32>) outs(%49 : tensor<1x256xf32>) {
    ^bb0(%in: f32, %in_1172: f32, %out: f32):
      %2454 = arith.addf %in, %in_1172 : f32
      linalg.yield %2454 : f32
    } -> tensor<1x256xf32>
    %expanded_30 = tensor.expand_shape %50 [[0], [1, 2, 3]] output_shape [1, 2, 1, 128] : tensor<1x256xf32> into tensor<1x2x1x128xf32>
    %collapsed_31 = tensor.collapse_shape %44 [[0, 1], [2]] : tensor<1x1x1536xf32> into tensor<1x1536xf32>
    %51 = linalg.matmul {cast = #linalg.type_fn<cast_signed>} ins(%collapsed_31, %arg11 : tensor<1x1536xf32>, tensor<1536x256xf32>) outs(%cst_11 : tensor<1x256xf32>) -> tensor<1x256xf32>
    %expanded_32 = tensor.expand_shape %arg10 [[0, 1]] output_shape [1, 256] : tensor<256xf32> into tensor<1x256xf32>
    %52 = tensor.empty() : tensor<1x256xf32>
    %53 = linalg.generic {indexing_maps = [#map, #map, #map], iterator_types = ["parallel", "parallel"]} ins(%expanded_32, %51 : tensor<1x256xf32>, tensor<1x256xf32>) outs(%52 : tensor<1x256xf32>) {
    ^bb0(%in: f32, %in_1172: f32, %out: f32):
      %2454 = arith.addf %in, %in_1172 : f32
      linalg.yield %2454 : f32
    } -> tensor<1x256xf32>
    %expanded_33 = tensor.expand_shape %53 [[0], [1, 2, 3]] output_shape [1, 2, 1, 128] : tensor<1x256xf32> into tensor<1x2x1x128xf32>
    %expanded_34 = tensor.expand_shape %29 [[0], [1, 2], [3]] output_shape [1, 1, 1, 128] : tensor<1x1x128xf32> into tensor<1x1x1x128xf32>
    %expanded_35 = tensor.expand_shape %30 [[0], [1, 2], [3]] output_shape [1, 1, 1, 128] : tensor<1x1x128xf32> into tensor<1x1x1x128xf32>
    %54 = tensor.empty() : tensor<1x12x1x128xf32>
    %55 = linalg.generic {indexing_maps = [#map6, #map8, #map6], iterator_types = ["parallel", "parallel", "parallel", "parallel"]} ins(%expanded_27, %expanded_34 : tensor<1x12x1x128xf32>, tensor<1x1x1x128xf32>) outs(%54 : tensor<1x12x1x128xf32>) {
    ^bb0(%in: f32, %in_1172: f32, %out: f32):
      %2454 = arith.mulf %in, %in_1172 : f32
      linalg.yield %2454 : f32
    } -> tensor<1x12x1x128xf32>
    %extracted_slice = tensor.extract_slice %expanded_27[0, 0, 0, 0] [1, 12, 1, 64] [1, 1, 1, 1] : tensor<1x12x1x128xf32> to tensor<1x12x1x64xf32>
    %extracted_slice_36 = tensor.extract_slice %expanded_27[0, 0, 0, 64] [1, 12, 1, 64] [1, 1, 1, 1] : tensor<1x12x1x128xf32> to tensor<1x12x1x64xf32>
    %56 = tensor.empty() : tensor<1x12x1x64xf32>
    %57 = linalg.generic {indexing_maps = [#map6, #map6], iterator_types = ["parallel", "parallel", "parallel", "parallel"]} ins(%extracted_slice_36 : tensor<1x12x1x64xf32>) outs(%56 : tensor<1x12x1x64xf32>) {
    ^bb0(%in: f32, %out: f32):
      %2454 = arith.negf %in : f32
      linalg.yield %2454 : f32
    } -> tensor<1x12x1x64xf32>
    %58 = tensor.empty() : tensor<1x12x1x128xf32>
    %inserted_slice = tensor.insert_slice %57 into %58[0, 0, 0, 0] [1, 12, 1, 64] [1, 1, 1, 1] : tensor<1x12x1x64xf32> into tensor<1x12x1x128xf32>
    %inserted_slice_37 = tensor.insert_slice %extracted_slice into %inserted_slice[0, 0, 0, 64] [1, 12, 1, 64] [1, 1, 1, 1] : tensor<1x12x1x64xf32> into tensor<1x12x1x128xf32>
    %59 = tensor.empty() : tensor<1x12x1x128xf32>
    %60 = linalg.generic {indexing_maps = [#map6, #map8, #map6], iterator_types = ["parallel", "parallel", "parallel", "parallel"]} ins(%inserted_slice_37, %expanded_35 : tensor<1x12x1x128xf32>, tensor<1x1x1x128xf32>) outs(%59 : tensor<1x12x1x128xf32>) {
    ^bb0(%in: f32, %in_1172: f32, %out: f32):
      %2454 = arith.mulf %in, %in_1172 : f32
      linalg.yield %2454 : f32
    } -> tensor<1x12x1x128xf32>
    %61 = tensor.empty() : tensor<1x12x1x128xf32>
    %62 = linalg.generic {indexing_maps = [#map6, #map6, #map6], iterator_types = ["parallel", "parallel", "parallel", "parallel"]} ins(%55, %60 : tensor<1x12x1x128xf32>, tensor<1x12x1x128xf32>) outs(%61 : tensor<1x12x1x128xf32>) {
    ^bb0(%in: f32, %in_1172: f32, %out: f32):
      %2454 = arith.addf %in, %in_1172 : f32
      linalg.yield %2454 : f32
    } -> tensor<1x12x1x128xf32>
    %63 = tensor.empty() : tensor<1x2x1x128xf32>
    %64 = linalg.generic {indexing_maps = [#map6, #map8, #map6], iterator_types = ["parallel", "parallel", "parallel", "parallel"]} ins(%expanded_30, %expanded_34 : tensor<1x2x1x128xf32>, tensor<1x1x1x128xf32>) outs(%63 : tensor<1x2x1x128xf32>) {
    ^bb0(%in: f32, %in_1172: f32, %out: f32):
      %2454 = arith.mulf %in, %in_1172 : f32
      linalg.yield %2454 : f32
    } -> tensor<1x2x1x128xf32>
    %extracted_slice_38 = tensor.extract_slice %expanded_30[0, 0, 0, 0] [1, 2, 1, 64] [1, 1, 1, 1] : tensor<1x2x1x128xf32> to tensor<1x2x1x64xf32>
    %extracted_slice_39 = tensor.extract_slice %expanded_30[0, 0, 0, 64] [1, 2, 1, 64] [1, 1, 1, 1] : tensor<1x2x1x128xf32> to tensor<1x2x1x64xf32>
    %65 = tensor.empty() : tensor<1x2x1x64xf32>
    %66 = linalg.generic {indexing_maps = [#map6, #map6], iterator_types = ["parallel", "parallel", "parallel", "parallel"]} ins(%extracted_slice_39 : tensor<1x2x1x64xf32>) outs(%65 : tensor<1x2x1x64xf32>) {
    ^bb0(%in: f32, %out: f32):
      %2454 = arith.negf %in : f32
      linalg.yield %2454 : f32
    } -> tensor<1x2x1x64xf32>
    %67 = tensor.empty() : tensor<1x2x1x128xf32>
    %inserted_slice_40 = tensor.insert_slice %66 into %67[0, 0, 0, 0] [1, 2, 1, 64] [1, 1, 1, 1] : tensor<1x2x1x64xf32> into tensor<1x2x1x128xf32>
    %inserted_slice_41 = tensor.insert_slice %extracted_slice_38 into %inserted_slice_40[0, 0, 0, 64] [1, 2, 1, 64] [1, 1, 1, 1] : tensor<1x2x1x64xf32> into tensor<1x2x1x128xf32>
    %68 = tensor.empty() : tensor<1x2x1x128xf32>
    %69 = linalg.generic {indexing_maps = [#map6, #map8, #map6], iterator_types = ["parallel", "parallel", "parallel", "parallel"]} ins(%inserted_slice_41, %expanded_35 : tensor<1x2x1x128xf32>, tensor<1x1x1x128xf32>) outs(%68 : tensor<1x2x1x128xf32>) {
    ^bb0(%in: f32, %in_1172: f32, %out: f32):
      %2454 = arith.mulf %in, %in_1172 : f32
      linalg.yield %2454 : f32
    } -> tensor<1x2x1x128xf32>
    %70 = tensor.empty() : tensor<1x2x1x128xf32>
    %71 = linalg.generic {indexing_maps = [#map6, #map6, #map6], iterator_types = ["parallel", "parallel", "parallel", "parallel"]} ins(%64, %69 : tensor<1x2x1x128xf32>, tensor<1x2x1x128xf32>) outs(%70 : tensor<1x2x1x128xf32>) {
    ^bb0(%in: f32, %in_1172: f32, %out: f32):
      %2454 = arith.addf %in, %in_1172 : f32
      linalg.yield %2454 : f32
    } -> tensor<1x2x1x128xf32>
    %72 = bufferization.to_buffer %arg12 : tensor<1x2x1024x128xf32> to memref<1x2x1024x128xf32>
    %expanded_42 = tensor.expand_shape %arg3 [[0, 1, 2, 3]] output_shape [1, 1, 1, 1] : tensor<1xi64> into tensor<1x1x1x1xi64>
    %73 = tensor.empty() : tensor<1x2x1x128xi64>
    %74 = linalg.generic {indexing_maps = [#map9, #map6, #map6], iterator_types = ["parallel", "parallel", "parallel", "parallel"]} ins(%expanded_42, %cst_10 : tensor<1x1x1x1xi64>, tensor<1x2x1x128xi64>) outs(%73 : tensor<1x2x1x128xi64>) {
    ^bb0(%in: i64, %in_1172: i64, %out: i64):
      %2454 = arith.addi %in, %in_1172 : i64
      linalg.yield %2454 : i64
    } -> tensor<1x2x1x128xi64>
    %75 = bufferization.to_buffer %74 : tensor<1x2x1x128xi64> to memref<1x2x1x128xi64>
    %76 = bufferization.to_buffer %71 : tensor<1x2x1x128xf32> to memref<1x2x1x128xf32>
    scf.for %arg399 = %c0 to %c1 step %c1 {
      scf.for %arg400 = %c0 to %c2 step %c1 {
        scf.for %arg401 = %c0 to %c1 step %c1 {
          scf.for %arg402 = %c0 to %c128 step %c1 {
            %2454 = memref.load %76[%arg399, %arg400, %arg401, %arg402] : memref<1x2x1x128xf32>
            %2455 = memref.load %75[%arg399, %arg400, %arg401, %arg402] : memref<1x2x1x128xi64>
            %2456 = arith.index_cast %2455 : i64 to index
            memref.store %2454, %72[%arg399, %arg400, %2456, %arg402] : memref<1x2x1024x128xf32>
          }
        }
      }
    }
    %77 = bufferization.to_tensor %72 restrict : memref<1x2x1024x128xf32> to tensor<1x2x1024x128xf32>
    %78 = bufferization.to_buffer %arg13 : tensor<1x2x1024x128xf32> to memref<1x2x1024x128xf32>
    %expanded_43 = tensor.expand_shape %arg3 [[0, 1, 2, 3]] output_shape [1, 1, 1, 1] : tensor<1xi64> into tensor<1x1x1x1xi64>
    %79 = tensor.empty() : tensor<1x2x1x128xi64>
    %80 = linalg.generic {indexing_maps = [#map9, #map6, #map6], iterator_types = ["parallel", "parallel", "parallel", "parallel"]} ins(%expanded_43, %cst_10 : tensor<1x1x1x1xi64>, tensor<1x2x1x128xi64>) outs(%79 : tensor<1x2x1x128xi64>) {
    ^bb0(%in: i64, %in_1172: i64, %out: i64):
      %2454 = arith.addi %in, %in_1172 : i64
      linalg.yield %2454 : i64
    } -> tensor<1x2x1x128xi64>
    %81 = bufferization.to_buffer %80 : tensor<1x2x1x128xi64> to memref<1x2x1x128xi64>
    %82 = bufferization.to_buffer %expanded_33 : tensor<1x2x1x128xf32> to memref<1x2x1x128xf32>
    scf.for %arg399 = %c0 to %c1 step %c1 {
      scf.for %arg400 = %c0 to %c2 step %c1 {
        scf.for %arg401 = %c0 to %c1 step %c1 {
          scf.for %arg402 = %c0 to %c128 step %c1 {
            %2454 = memref.load %82[%arg399, %arg400, %arg401, %arg402] : memref<1x2x1x128xf32>
            %2455 = memref.load %81[%arg399, %arg400, %arg401, %arg402] : memref<1x2x1x128xi64>
            %2456 = arith.index_cast %2455 : i64 to index
            memref.store %2454, %78[%arg399, %arg400, %2456, %arg402] : memref<1x2x1024x128xf32>
          }
        }
      }
    }
    %83 = bufferization.to_tensor %78 restrict : memref<1x2x1024x128xf32> to tensor<1x2x1024x128xf32>
    %expanded_44 = tensor.expand_shape %22 [[0, 1, 2], [3]] output_shape [1, 1, 1, 1024] : tensor<1x1024xi1> into tensor<1x1x1x1024xi1>
    %84 = tensor.empty() : tensor<1x1x1x1024xf32>
    %85 = linalg.generic {indexing_maps = [#map6, #map6, #map6, #map6], iterator_types = ["parallel", "parallel", "parallel", "parallel"]} ins(%expanded_44, %cst_1, %cst_0 : tensor<1x1x1x1024xi1>, tensor<1x1x1x1024xf32>, tensor<1x1x1x1024xf32>) outs(%84 : tensor<1x1x1x1024xf32>) {
    ^bb0(%in: i1, %in_1172: f32, %in_1173: f32, %out: f32):
      %2454 = arith.select %in, %in_1172, %in_1173 : f32
      linalg.yield %2454 : f32
    } -> tensor<1x1x1x1024xf32>
    %86 = bufferization.to_buffer %62 : tensor<1x12x1x128xf32> to memref<1x12x1x128xf32>
    %87 = bufferization.to_buffer %85 : tensor<1x1x1x1024xf32> to memref<1x1x1x1024xf32>
    %alloc = memref.alloc() : memref<1x12x1x128xf32>
    %alloc_45 = memref.alloc() : memref<1x12x1xf32>
    %alloc_46 = memref.alloc() : memref<128xf32>
    affine.for %arg399 = 0 to 1 {
      affine.for %arg400 = 0 to 12 {
        %2454 = arith.divsi %arg400, %c6 : index
        affine.for %arg401 = 0 to 1 {
          affine.for %arg402 = 0 to 128 {
            memref.store %cst_9, %alloc_46[%arg402] : memref<128xf32>
          }
          %2455:2 = affine.for %arg402 = 0 to 1024 iter_args(%arg403 = %cst_6, %arg404 = %cst_9) -> (f32, f32) {
            %2456 = affine.for %arg405 = 0 to 128 step 16 iter_args(%arg406 = %cst) -> (vector<16xf32>) {
              %2471 = vector.load %86[%arg399, %arg400, %arg401, %arg405] : memref<1x12x1x128xf32>, vector<16xf32>
              %2472 = vector.load %72[%arg399, %2454, %arg402, %arg405] : memref<1x2x1024x128xf32>, vector<16xf32>
              %2473 = vector.fma %2471, %2472, %arg406 : vector<16xf32>
              affine.yield %2473 : vector<16xf32>
            }
            %2457 = vector.reduction <add>, %2456 : vector<16xf32> into f32
            %2458 = arith.mulf %2457, %cst_7 : f32
            %2459 = memref.load %87[%arg399, %c0, %arg401, %arg402] : memref<1x1x1x1024xf32>
            %2460 = arith.addf %2458, %2459 : f32
            %2461 = arith.cmpf ogt, %2460, %arg403 : f32
            %2462 = arith.select %2461, %2460, %arg403 : f32
            %2463 = arith.subf %arg403, %2460 : f32
            %2464 = math.exp %2463 : f32
            %2465 = arith.mulf %2464, %arg404 : f32
            %2466 = arith.addf %2465, %cst_8 : f32
            %2467 = arith.subf %2460, %arg403 : f32
            %2468 = math.exp %2467 : f32
            %2469 = arith.addf %arg404, %2468 : f32
            %2470 = arith.select %2461, %2466, %2469 : f32
            affine.for %arg405 = 0 to 128 {
              %2471 = memref.load %78[%arg399, %2454, %arg402, %arg405] : memref<1x2x1024x128xf32>
              %2472 = memref.load %alloc_46[%arg405] : memref<128xf32>
              %2473 = arith.mulf %2472, %2464 : f32
              %2474 = arith.addf %2473, %2471 : f32
              %2475 = arith.mulf %2468, %2471 : f32
              %2476 = arith.addf %2475, %2472 : f32
              %2477 = arith.select %2461, %2474, %2476 : f32
              memref.store %2477, %alloc_46[%arg405] : memref<128xf32>
            }
            affine.yield %2462, %2470 : f32, f32
          }
          memref.store %2455#1, %alloc_45[%arg399, %arg400, %arg401] : memref<1x12x1xf32>
          affine.for %arg402 = 0 to 128 {
            %2456 = memref.load %alloc_46[%arg402] : memref<128xf32>
            %2457 = arith.divf %2456, %2455#1 : f32
            memref.store %2457, %alloc[%arg399, %arg400, %arg401, %arg402] : memref<1x12x1x128xf32>
          }
        }
      }
    }
    %88 = bufferization.to_tensor %alloc restrict : memref<1x12x1x128xf32> to tensor<1x12x1x128xf32>
    %collapsed_47 = tensor.collapse_shape %88 [[0], [1, 2, 3]] : tensor<1x12x1x128xf32> into tensor<1x1536xf32>
    %89 = linalg.matmul {cast = #linalg.type_fn<cast_signed>} ins(%collapsed_47, %arg14 : tensor<1x1536xf32>, tensor<1536x1536xf32>) outs(%cst_12 : tensor<1x1536xf32>) -> tensor<1x1536xf32>
    %expanded_48 = tensor.expand_shape %89 [[0, 1], [2]] output_shape [1, 1, 1536] : tensor<1x1536xf32> into tensor<1x1x1536xf32>
    %90 = tensor.empty() : tensor<1x1x1536xf32>
    %91 = linalg.generic {indexing_maps = [#map2, #map2, #map2], iterator_types = ["parallel", "parallel", "parallel"]} ins(%20, %expanded_48 : tensor<1x1x1536xf32>, tensor<1x1x1536xf32>) outs(%90 : tensor<1x1x1536xf32>) {
    ^bb0(%in: f32, %in_1172: f32, %out: f32):
      %2454 = arith.addf %in, %in_1172 : f32
      linalg.yield %2454 : f32
    } -> tensor<1x1x1536xf32>
    %92 = tensor.empty() : tensor<1x1x1536xf32>
    %93 = linalg.generic {indexing_maps = [#map2, #map2], iterator_types = ["parallel", "parallel", "parallel"]} ins(%91 : tensor<1x1x1536xf32>) outs(%92 : tensor<1x1x1536xf32>) {
    ^bb0(%in: f32, %out: f32):
      %2454 = math.fpowi %in, %c2_i32 : f32, i32
      linalg.yield %2454 : f32
    } -> tensor<1x1x1536xf32>
    %94 = tensor.empty() : tensor<1x1xf32>
    %cst_49 = arith.constant 0.000000e+00 : f32
    %95 = linalg.fill ins(%cst_49 : f32) outs(%94 : tensor<1x1xf32>) -> tensor<1x1xf32>
    %reduced_50 = linalg.reduce ins(%93 : tensor<1x1x1536xf32>) outs(%95 : tensor<1x1xf32>) dimensions = [2]
      (%in: f32, %init: f32) {
        %2454 = arith.addf %in, %init : f32
        linalg.yield %2454 : f32
      }
    %expanded_51 = tensor.expand_shape %reduced_50 [[0], [1, 2]] output_shape [1, 1, 1] : tensor<1x1xf32> into tensor<1x1x1xf32>
    %96 = tensor.empty() : tensor<1x1x1xf32>
    %97 = linalg.generic {indexing_maps = [#map2, #map2, #map2], iterator_types = ["parallel", "parallel", "parallel"]} ins(%expanded_51, %cst_2 : tensor<1x1x1xf32>, tensor<1x1x1xf32>) outs(%96 : tensor<1x1x1xf32>) {
    ^bb0(%in: f32, %in_1172: f32, %out: f32):
      %2454 = arith.mulf %in, %in_1172 : f32
      linalg.yield %2454 : f32
    } -> tensor<1x1x1xf32>
    %98 = tensor.empty() : tensor<1x1x1xf32>
    %99 = linalg.generic {indexing_maps = [#map2, #map2, #map2], iterator_types = ["parallel", "parallel", "parallel"]} ins(%97, %cst_13 : tensor<1x1x1xf32>, tensor<1x1x1xf32>) outs(%98 : tensor<1x1x1xf32>) {
    ^bb0(%in: f32, %in_1172: f32, %out: f32):
      %2454 = arith.addf %in, %in_1172 : f32
      linalg.yield %2454 : f32
    } -> tensor<1x1x1xf32>
    %100 = tensor.empty() : tensor<1x1x1xf32>
    %101 = linalg.generic {indexing_maps = [#map2, #map2], iterator_types = ["parallel", "parallel", "parallel"]} ins(%99 : tensor<1x1x1xf32>) outs(%100 : tensor<1x1x1xf32>) {
    ^bb0(%in: f32, %out: f32):
      %2454 = math.rsqrt %in : f32
      linalg.yield %2454 : f32
    } -> tensor<1x1x1xf32>
    %102 = tensor.empty() : tensor<1x1x1536xf32>
    %103 = linalg.generic {indexing_maps = [#map2, #map7, #map2], iterator_types = ["parallel", "parallel", "parallel"]} ins(%91, %101 : tensor<1x1x1536xf32>, tensor<1x1x1xf32>) outs(%102 : tensor<1x1x1536xf32>) {
    ^bb0(%in: f32, %in_1172: f32, %out: f32):
      %2454 = arith.mulf %in, %in_1172 : f32
      linalg.yield %2454 : f32
    } -> tensor<1x1x1536xf32>
    %expanded_52 = tensor.expand_shape %arg15 [[0, 1, 2]] output_shape [1, 1, 1536] : tensor<1536xf32> into tensor<1x1x1536xf32>
    %104 = tensor.empty() : tensor<1x1x1536xf32>
    %105 = linalg.generic {indexing_maps = [#map2, #map2, #map2], iterator_types = ["parallel", "parallel", "parallel"]} ins(%expanded_52, %103 : tensor<1x1x1536xf32>, tensor<1x1x1536xf32>) outs(%104 : tensor<1x1x1536xf32>) {
    ^bb0(%in: f32, %in_1172: f32, %out: f32):
      %2454 = arith.mulf %in, %in_1172 : f32
      linalg.yield %2454 : f32
    } -> tensor<1x1x1536xf32>
    %collapsed_53 = tensor.collapse_shape %105 [[0, 1], [2]] : tensor<1x1x1536xf32> into tensor<1x1536xf32>
    %106 = linalg.matmul {cast = #linalg.type_fn<cast_signed>} ins(%collapsed_53, %arg16 : tensor<1x1536xf32>, tensor<1536x8960xf32>) outs(%cst_5 : tensor<1x8960xf32>) -> tensor<1x8960xf32>
    %expanded_54 = tensor.expand_shape %106 [[0, 1], [2]] output_shape [1, 1, 8960] : tensor<1x8960xf32> into tensor<1x1x8960xf32>
    %107 = tensor.empty() : tensor<1x1x8960xf32>
    %108 = linalg.generic {indexing_maps = [#map2, #map2], iterator_types = ["parallel", "parallel", "parallel"]} ins(%expanded_54 : tensor<1x1x8960xf32>) outs(%107 : tensor<1x1x8960xf32>) {
    ^bb0(%in: f32, %out: f32):
      %cst_1172 = arith.constant 1.000000e+00 : f32
      %2454 = arith.negf %in : f32
      %2455 = math.exp %2454 : f32
      %2456 = arith.addf %2455, %cst_1172 : f32
      %2457 = arith.divf %cst_1172, %2456 : f32
      linalg.yield %2457 : f32
    } -> tensor<1x1x8960xf32>
    %109 = tensor.empty() : tensor<1x1x8960xf32>
    %110 = linalg.generic {indexing_maps = [#map2, #map2, #map2], iterator_types = ["parallel", "parallel", "parallel"]} ins(%expanded_54, %108 : tensor<1x1x8960xf32>, tensor<1x1x8960xf32>) outs(%109 : tensor<1x1x8960xf32>) {
    ^bb0(%in: f32, %in_1172: f32, %out: f32):
      %2454 = arith.mulf %in, %in_1172 : f32
      linalg.yield %2454 : f32
    } -> tensor<1x1x8960xf32>
    %collapsed_55 = tensor.collapse_shape %105 [[0, 1], [2]] : tensor<1x1x1536xf32> into tensor<1x1536xf32>
    %111 = linalg.matmul {cast = #linalg.type_fn<cast_signed>} ins(%collapsed_55, %arg17 : tensor<1x1536xf32>, tensor<1536x8960xf32>) outs(%cst_5 : tensor<1x8960xf32>) -> tensor<1x8960xf32>
    %expanded_56 = tensor.expand_shape %111 [[0, 1], [2]] output_shape [1, 1, 8960] : tensor<1x8960xf32> into tensor<1x1x8960xf32>
    %112 = tensor.empty() : tensor<1x1x8960xf32>
    %113 = linalg.generic {indexing_maps = [#map2, #map2, #map2], iterator_types = ["parallel", "parallel", "parallel"]} ins(%110, %expanded_56 : tensor<1x1x8960xf32>, tensor<1x1x8960xf32>) outs(%112 : tensor<1x1x8960xf32>) {
    ^bb0(%in: f32, %in_1172: f32, %out: f32):
      %2454 = arith.mulf %in, %in_1172 : f32
      linalg.yield %2454 : f32
    } -> tensor<1x1x8960xf32>
    %collapsed_57 = tensor.collapse_shape %113 [[0, 1], [2]] : tensor<1x1x8960xf32> into tensor<1x8960xf32>
    %114 = linalg.matmul {cast = #linalg.type_fn<cast_signed>} ins(%collapsed_57, %arg18 : tensor<1x8960xf32>, tensor<8960x1536xf32>) outs(%cst_12 : tensor<1x1536xf32>) -> tensor<1x1536xf32>
    %expanded_58 = tensor.expand_shape %114 [[0, 1], [2]] output_shape [1, 1, 1536] : tensor<1x1536xf32> into tensor<1x1x1536xf32>
    %115 = tensor.empty() : tensor<1x1x1536xf32>
    %116 = linalg.generic {indexing_maps = [#map2, #map2, #map2], iterator_types = ["parallel", "parallel", "parallel"]} ins(%91, %expanded_58 : tensor<1x1x1536xf32>, tensor<1x1x1536xf32>) outs(%115 : tensor<1x1x1536xf32>) {
    ^bb0(%in: f32, %in_1172: f32, %out: f32):
      %2454 = arith.addf %in, %in_1172 : f32
      linalg.yield %2454 : f32
    } -> tensor<1x1x1536xf32>
    %117 = tensor.empty() : tensor<1x1x1536xf32>
    %118 = linalg.generic {indexing_maps = [#map2, #map2], iterator_types = ["parallel", "parallel", "parallel"]} ins(%116 : tensor<1x1x1536xf32>) outs(%117 : tensor<1x1x1536xf32>) {
    ^bb0(%in: f32, %out: f32):
      %2454 = math.fpowi %in, %c2_i32 : f32, i32
      linalg.yield %2454 : f32
    } -> tensor<1x1x1536xf32>
    %119 = tensor.empty() : tensor<1x1xf32>
    %cst_59 = arith.constant 0.000000e+00 : f32
    %120 = linalg.fill ins(%cst_59 : f32) outs(%119 : tensor<1x1xf32>) -> tensor<1x1xf32>
    %reduced_60 = linalg.reduce ins(%118 : tensor<1x1x1536xf32>) outs(%120 : tensor<1x1xf32>) dimensions = [2]
      (%in: f32, %init: f32) {
        %2454 = arith.addf %in, %init : f32
        linalg.yield %2454 : f32
      }
    %expanded_61 = tensor.expand_shape %reduced_60 [[0], [1, 2]] output_shape [1, 1, 1] : tensor<1x1xf32> into tensor<1x1x1xf32>
    %121 = tensor.empty() : tensor<1x1x1xf32>
    %122 = linalg.generic {indexing_maps = [#map2, #map2, #map2], iterator_types = ["parallel", "parallel", "parallel"]} ins(%expanded_61, %cst_2 : tensor<1x1x1xf32>, tensor<1x1x1xf32>) outs(%121 : tensor<1x1x1xf32>) {
    ^bb0(%in: f32, %in_1172: f32, %out: f32):
      %2454 = arith.mulf %in, %in_1172 : f32
      linalg.yield %2454 : f32
    } -> tensor<1x1x1xf32>
    %123 = tensor.empty() : tensor<1x1x1xf32>
    %124 = linalg.generic {indexing_maps = [#map2, #map2, #map2], iterator_types = ["parallel", "parallel", "parallel"]} ins(%122, %cst_13 : tensor<1x1x1xf32>, tensor<1x1x1xf32>) outs(%123 : tensor<1x1x1xf32>) {
    ^bb0(%in: f32, %in_1172: f32, %out: f32):
      %2454 = arith.addf %in, %in_1172 : f32
      linalg.yield %2454 : f32
    } -> tensor<1x1x1xf32>
    %125 = tensor.empty() : tensor<1x1x1xf32>
    %126 = linalg.generic {indexing_maps = [#map2, #map2], iterator_types = ["parallel", "parallel", "parallel"]} ins(%124 : tensor<1x1x1xf32>) outs(%125 : tensor<1x1x1xf32>) {
    ^bb0(%in: f32, %out: f32):
      %2454 = math.rsqrt %in : f32
      linalg.yield %2454 : f32
    } -> tensor<1x1x1xf32>
    %127 = tensor.empty() : tensor<1x1x1536xf32>
    %128 = linalg.generic {indexing_maps = [#map2, #map7, #map2], iterator_types = ["parallel", "parallel", "parallel"]} ins(%116, %126 : tensor<1x1x1536xf32>, tensor<1x1x1xf32>) outs(%127 : tensor<1x1x1536xf32>) {
    ^bb0(%in: f32, %in_1172: f32, %out: f32):
      %2454 = arith.mulf %in, %in_1172 : f32
      linalg.yield %2454 : f32
    } -> tensor<1x1x1536xf32>
    %expanded_62 = tensor.expand_shape %arg19 [[0, 1, 2]] output_shape [1, 1, 1536] : tensor<1536xf32> into tensor<1x1x1536xf32>
    %129 = tensor.empty() : tensor<1x1x1536xf32>
    %130 = linalg.generic {indexing_maps = [#map2, #map2, #map2], iterator_types = ["parallel", "parallel", "parallel"]} ins(%expanded_62, %128 : tensor<1x1x1536xf32>, tensor<1x1x1536xf32>) outs(%129 : tensor<1x1x1536xf32>) {
    ^bb0(%in: f32, %in_1172: f32, %out: f32):
      %2454 = arith.mulf %in, %in_1172 : f32
      linalg.yield %2454 : f32
    } -> tensor<1x1x1536xf32>
    %collapsed_63 = tensor.collapse_shape %130 [[0, 1], [2]] : tensor<1x1x1536xf32> into tensor<1x1536xf32>
    %131 = linalg.matmul {cast = #linalg.type_fn<cast_signed>} ins(%collapsed_63, %arg21 : tensor<1x1536xf32>, tensor<1536x1536xf32>) outs(%cst_12 : tensor<1x1536xf32>) -> tensor<1x1536xf32>
    %expanded_64 = tensor.expand_shape %arg20 [[0, 1]] output_shape [1, 1536] : tensor<1536xf32> into tensor<1x1536xf32>
    %132 = tensor.empty() : tensor<1x1536xf32>
    %133 = linalg.generic {indexing_maps = [#map, #map, #map], iterator_types = ["parallel", "parallel"]} ins(%expanded_64, %131 : tensor<1x1536xf32>, tensor<1x1536xf32>) outs(%132 : tensor<1x1536xf32>) {
    ^bb0(%in: f32, %in_1172: f32, %out: f32):
      %2454 = arith.addf %in, %in_1172 : f32
      linalg.yield %2454 : f32
    } -> tensor<1x1536xf32>
    %expanded_65 = tensor.expand_shape %133 [[0], [1, 2, 3]] output_shape [1, 12, 1, 128] : tensor<1x1536xf32> into tensor<1x12x1x128xf32>
    %collapsed_66 = tensor.collapse_shape %130 [[0, 1], [2]] : tensor<1x1x1536xf32> into tensor<1x1536xf32>
    %134 = linalg.matmul {cast = #linalg.type_fn<cast_signed>} ins(%collapsed_66, %arg23 : tensor<1x1536xf32>, tensor<1536x256xf32>) outs(%cst_11 : tensor<1x256xf32>) -> tensor<1x256xf32>
    %expanded_67 = tensor.expand_shape %arg22 [[0, 1]] output_shape [1, 256] : tensor<256xf32> into tensor<1x256xf32>
    %135 = tensor.empty() : tensor<1x256xf32>
    %136 = linalg.generic {indexing_maps = [#map, #map, #map], iterator_types = ["parallel", "parallel"]} ins(%expanded_67, %134 : tensor<1x256xf32>, tensor<1x256xf32>) outs(%135 : tensor<1x256xf32>) {
    ^bb0(%in: f32, %in_1172: f32, %out: f32):
      %2454 = arith.addf %in, %in_1172 : f32
      linalg.yield %2454 : f32
    } -> tensor<1x256xf32>
    %expanded_68 = tensor.expand_shape %136 [[0], [1, 2, 3]] output_shape [1, 2, 1, 128] : tensor<1x256xf32> into tensor<1x2x1x128xf32>
    %collapsed_69 = tensor.collapse_shape %130 [[0, 1], [2]] : tensor<1x1x1536xf32> into tensor<1x1536xf32>
    %137 = linalg.matmul {cast = #linalg.type_fn<cast_signed>} ins(%collapsed_69, %arg25 : tensor<1x1536xf32>, tensor<1536x256xf32>) outs(%cst_11 : tensor<1x256xf32>) -> tensor<1x256xf32>
    %expanded_70 = tensor.expand_shape %arg24 [[0, 1]] output_shape [1, 256] : tensor<256xf32> into tensor<1x256xf32>
    %138 = tensor.empty() : tensor<1x256xf32>
    %139 = linalg.generic {indexing_maps = [#map, #map, #map], iterator_types = ["parallel", "parallel"]} ins(%expanded_70, %137 : tensor<1x256xf32>, tensor<1x256xf32>) outs(%138 : tensor<1x256xf32>) {
    ^bb0(%in: f32, %in_1172: f32, %out: f32):
      %2454 = arith.addf %in, %in_1172 : f32
      linalg.yield %2454 : f32
    } -> tensor<1x256xf32>
    %expanded_71 = tensor.expand_shape %139 [[0], [1, 2, 3]] output_shape [1, 2, 1, 128] : tensor<1x256xf32> into tensor<1x2x1x128xf32>
    %expanded_72 = tensor.expand_shape %29 [[0], [1, 2], [3]] output_shape [1, 1, 1, 128] : tensor<1x1x128xf32> into tensor<1x1x1x128xf32>
    %expanded_73 = tensor.expand_shape %30 [[0], [1, 2], [3]] output_shape [1, 1, 1, 128] : tensor<1x1x128xf32> into tensor<1x1x1x128xf32>
    %140 = tensor.empty() : tensor<1x12x1x128xf32>
    %141 = linalg.generic {indexing_maps = [#map6, #map8, #map6], iterator_types = ["parallel", "parallel", "parallel", "parallel"]} ins(%expanded_65, %expanded_72 : tensor<1x12x1x128xf32>, tensor<1x1x1x128xf32>) outs(%140 : tensor<1x12x1x128xf32>) {
    ^bb0(%in: f32, %in_1172: f32, %out: f32):
      %2454 = arith.mulf %in, %in_1172 : f32
      linalg.yield %2454 : f32
    } -> tensor<1x12x1x128xf32>
    %extracted_slice_74 = tensor.extract_slice %expanded_65[0, 0, 0, 0] [1, 12, 1, 64] [1, 1, 1, 1] : tensor<1x12x1x128xf32> to tensor<1x12x1x64xf32>
    %extracted_slice_75 = tensor.extract_slice %expanded_65[0, 0, 0, 64] [1, 12, 1, 64] [1, 1, 1, 1] : tensor<1x12x1x128xf32> to tensor<1x12x1x64xf32>
    %142 = tensor.empty() : tensor<1x12x1x64xf32>
    %143 = linalg.generic {indexing_maps = [#map6, #map6], iterator_types = ["parallel", "parallel", "parallel", "parallel"]} ins(%extracted_slice_75 : tensor<1x12x1x64xf32>) outs(%142 : tensor<1x12x1x64xf32>) {
    ^bb0(%in: f32, %out: f32):
      %2454 = arith.negf %in : f32
      linalg.yield %2454 : f32
    } -> tensor<1x12x1x64xf32>
    %144 = tensor.empty() : tensor<1x12x1x128xf32>
    %inserted_slice_76 = tensor.insert_slice %143 into %144[0, 0, 0, 0] [1, 12, 1, 64] [1, 1, 1, 1] : tensor<1x12x1x64xf32> into tensor<1x12x1x128xf32>
    %inserted_slice_77 = tensor.insert_slice %extracted_slice_74 into %inserted_slice_76[0, 0, 0, 64] [1, 12, 1, 64] [1, 1, 1, 1] : tensor<1x12x1x64xf32> into tensor<1x12x1x128xf32>
    %145 = tensor.empty() : tensor<1x12x1x128xf32>
    %146 = linalg.generic {indexing_maps = [#map6, #map8, #map6], iterator_types = ["parallel", "parallel", "parallel", "parallel"]} ins(%inserted_slice_77, %expanded_73 : tensor<1x12x1x128xf32>, tensor<1x1x1x128xf32>) outs(%145 : tensor<1x12x1x128xf32>) {
    ^bb0(%in: f32, %in_1172: f32, %out: f32):
      %2454 = arith.mulf %in, %in_1172 : f32
      linalg.yield %2454 : f32
    } -> tensor<1x12x1x128xf32>
    %147 = tensor.empty() : tensor<1x12x1x128xf32>
    %148 = linalg.generic {indexing_maps = [#map6, #map6, #map6], iterator_types = ["parallel", "parallel", "parallel", "parallel"]} ins(%141, %146 : tensor<1x12x1x128xf32>, tensor<1x12x1x128xf32>) outs(%147 : tensor<1x12x1x128xf32>) {
    ^bb0(%in: f32, %in_1172: f32, %out: f32):
      %2454 = arith.addf %in, %in_1172 : f32
      linalg.yield %2454 : f32
    } -> tensor<1x12x1x128xf32>
    %149 = tensor.empty() : tensor<1x2x1x128xf32>
    %150 = linalg.generic {indexing_maps = [#map6, #map8, #map6], iterator_types = ["parallel", "parallel", "parallel", "parallel"]} ins(%expanded_68, %expanded_72 : tensor<1x2x1x128xf32>, tensor<1x1x1x128xf32>) outs(%149 : tensor<1x2x1x128xf32>) {
    ^bb0(%in: f32, %in_1172: f32, %out: f32):
      %2454 = arith.mulf %in, %in_1172 : f32
      linalg.yield %2454 : f32
    } -> tensor<1x2x1x128xf32>
    %extracted_slice_78 = tensor.extract_slice %expanded_68[0, 0, 0, 0] [1, 2, 1, 64] [1, 1, 1, 1] : tensor<1x2x1x128xf32> to tensor<1x2x1x64xf32>
    %extracted_slice_79 = tensor.extract_slice %expanded_68[0, 0, 0, 64] [1, 2, 1, 64] [1, 1, 1, 1] : tensor<1x2x1x128xf32> to tensor<1x2x1x64xf32>
    %151 = tensor.empty() : tensor<1x2x1x64xf32>
    %152 = linalg.generic {indexing_maps = [#map6, #map6], iterator_types = ["parallel", "parallel", "parallel", "parallel"]} ins(%extracted_slice_79 : tensor<1x2x1x64xf32>) outs(%151 : tensor<1x2x1x64xf32>) {
    ^bb0(%in: f32, %out: f32):
      %2454 = arith.negf %in : f32
      linalg.yield %2454 : f32
    } -> tensor<1x2x1x64xf32>
    %153 = tensor.empty() : tensor<1x2x1x128xf32>
    %inserted_slice_80 = tensor.insert_slice %152 into %153[0, 0, 0, 0] [1, 2, 1, 64] [1, 1, 1, 1] : tensor<1x2x1x64xf32> into tensor<1x2x1x128xf32>
    %inserted_slice_81 = tensor.insert_slice %extracted_slice_78 into %inserted_slice_80[0, 0, 0, 64] [1, 2, 1, 64] [1, 1, 1, 1] : tensor<1x2x1x64xf32> into tensor<1x2x1x128xf32>
    %154 = tensor.empty() : tensor<1x2x1x128xf32>
    %155 = linalg.generic {indexing_maps = [#map6, #map8, #map6], iterator_types = ["parallel", "parallel", "parallel", "parallel"]} ins(%inserted_slice_81, %expanded_73 : tensor<1x2x1x128xf32>, tensor<1x1x1x128xf32>) outs(%154 : tensor<1x2x1x128xf32>) {
    ^bb0(%in: f32, %in_1172: f32, %out: f32):
      %2454 = arith.mulf %in, %in_1172 : f32
      linalg.yield %2454 : f32
    } -> tensor<1x2x1x128xf32>
    %156 = tensor.empty() : tensor<1x2x1x128xf32>
    %157 = linalg.generic {indexing_maps = [#map6, #map6, #map6], iterator_types = ["parallel", "parallel", "parallel", "parallel"]} ins(%150, %155 : tensor<1x2x1x128xf32>, tensor<1x2x1x128xf32>) outs(%156 : tensor<1x2x1x128xf32>) {
    ^bb0(%in: f32, %in_1172: f32, %out: f32):
      %2454 = arith.addf %in, %in_1172 : f32
      linalg.yield %2454 : f32
    } -> tensor<1x2x1x128xf32>
    %158 = bufferization.to_buffer %arg26 : tensor<1x2x1024x128xf32> to memref<1x2x1024x128xf32>
    %expanded_82 = tensor.expand_shape %arg3 [[0, 1, 2, 3]] output_shape [1, 1, 1, 1] : tensor<1xi64> into tensor<1x1x1x1xi64>
    %159 = tensor.empty() : tensor<1x2x1x128xi64>
    %160 = linalg.generic {indexing_maps = [#map9, #map6, #map6], iterator_types = ["parallel", "parallel", "parallel", "parallel"]} ins(%expanded_82, %cst_10 : tensor<1x1x1x1xi64>, tensor<1x2x1x128xi64>) outs(%159 : tensor<1x2x1x128xi64>) {
    ^bb0(%in: i64, %in_1172: i64, %out: i64):
      %2454 = arith.addi %in, %in_1172 : i64
      linalg.yield %2454 : i64
    } -> tensor<1x2x1x128xi64>
    %161 = bufferization.to_buffer %160 : tensor<1x2x1x128xi64> to memref<1x2x1x128xi64>
    %162 = bufferization.to_buffer %157 : tensor<1x2x1x128xf32> to memref<1x2x1x128xf32>
    scf.for %arg399 = %c0 to %c1 step %c1 {
      scf.for %arg400 = %c0 to %c2 step %c1 {
        scf.for %arg401 = %c0 to %c1 step %c1 {
          scf.for %arg402 = %c0 to %c128 step %c1 {
            %2454 = memref.load %162[%arg399, %arg400, %arg401, %arg402] : memref<1x2x1x128xf32>
            %2455 = memref.load %161[%arg399, %arg400, %arg401, %arg402] : memref<1x2x1x128xi64>
            %2456 = arith.index_cast %2455 : i64 to index
            memref.store %2454, %158[%arg399, %arg400, %2456, %arg402] : memref<1x2x1024x128xf32>
          }
        }
      }
    }
    %163 = bufferization.to_tensor %158 restrict : memref<1x2x1024x128xf32> to tensor<1x2x1024x128xf32>
    %164 = bufferization.to_buffer %arg27 : tensor<1x2x1024x128xf32> to memref<1x2x1024x128xf32>
    %expanded_83 = tensor.expand_shape %arg3 [[0, 1, 2, 3]] output_shape [1, 1, 1, 1] : tensor<1xi64> into tensor<1x1x1x1xi64>
    %165 = tensor.empty() : tensor<1x2x1x128xi64>
    %166 = linalg.generic {indexing_maps = [#map9, #map6, #map6], iterator_types = ["parallel", "parallel", "parallel", "parallel"]} ins(%expanded_83, %cst_10 : tensor<1x1x1x1xi64>, tensor<1x2x1x128xi64>) outs(%165 : tensor<1x2x1x128xi64>) {
    ^bb0(%in: i64, %in_1172: i64, %out: i64):
      %2454 = arith.addi %in, %in_1172 : i64
      linalg.yield %2454 : i64
    } -> tensor<1x2x1x128xi64>
    %167 = bufferization.to_buffer %166 : tensor<1x2x1x128xi64> to memref<1x2x1x128xi64>
    %168 = bufferization.to_buffer %expanded_71 : tensor<1x2x1x128xf32> to memref<1x2x1x128xf32>
    scf.for %arg399 = %c0 to %c1 step %c1 {
      scf.for %arg400 = %c0 to %c2 step %c1 {
        scf.for %arg401 = %c0 to %c1 step %c1 {
          scf.for %arg402 = %c0 to %c128 step %c1 {
            %2454 = memref.load %168[%arg399, %arg400, %arg401, %arg402] : memref<1x2x1x128xf32>
            %2455 = memref.load %167[%arg399, %arg400, %arg401, %arg402] : memref<1x2x1x128xi64>
            %2456 = arith.index_cast %2455 : i64 to index
            memref.store %2454, %164[%arg399, %arg400, %2456, %arg402] : memref<1x2x1024x128xf32>
          }
        }
      }
    }
    %169 = bufferization.to_tensor %164 restrict : memref<1x2x1024x128xf32> to tensor<1x2x1024x128xf32>
    %expanded_84 = tensor.expand_shape %22 [[0, 1, 2], [3]] output_shape [1, 1, 1, 1024] : tensor<1x1024xi1> into tensor<1x1x1x1024xi1>
    %170 = tensor.empty() : tensor<1x1x1x1024xf32>
    %171 = linalg.generic {indexing_maps = [#map6, #map6, #map6, #map6], iterator_types = ["parallel", "parallel", "parallel", "parallel"]} ins(%expanded_84, %cst_1, %cst_0 : tensor<1x1x1x1024xi1>, tensor<1x1x1x1024xf32>, tensor<1x1x1x1024xf32>) outs(%170 : tensor<1x1x1x1024xf32>) {
    ^bb0(%in: i1, %in_1172: f32, %in_1173: f32, %out: f32):
      %2454 = arith.select %in, %in_1172, %in_1173 : f32
      linalg.yield %2454 : f32
    } -> tensor<1x1x1x1024xf32>
    %172 = bufferization.to_buffer %148 : tensor<1x12x1x128xf32> to memref<1x12x1x128xf32>
    %173 = bufferization.to_buffer %171 : tensor<1x1x1x1024xf32> to memref<1x1x1x1024xf32>
    %alloc_85 = memref.alloc() : memref<1x12x1x128xf32>
    %alloc_86 = memref.alloc() : memref<1x12x1xf32>
    %alloc_87 = memref.alloc() : memref<128xf32>
    affine.for %arg399 = 0 to 1 {
      affine.for %arg400 = 0 to 12 {
        %2454 = arith.divsi %arg400, %c6 : index
        affine.for %arg401 = 0 to 1 {
          affine.for %arg402 = 0 to 128 {
            memref.store %cst_9, %alloc_87[%arg402] : memref<128xf32>
          }
          %2455:2 = affine.for %arg402 = 0 to 1024 iter_args(%arg403 = %cst_6, %arg404 = %cst_9) -> (f32, f32) {
            %2456 = affine.for %arg405 = 0 to 128 step 16 iter_args(%arg406 = %cst) -> (vector<16xf32>) {
              %2471 = vector.load %172[%arg399, %arg400, %arg401, %arg405] : memref<1x12x1x128xf32>, vector<16xf32>
              %2472 = vector.load %158[%arg399, %2454, %arg402, %arg405] : memref<1x2x1024x128xf32>, vector<16xf32>
              %2473 = vector.fma %2471, %2472, %arg406 : vector<16xf32>
              affine.yield %2473 : vector<16xf32>
            }
            %2457 = vector.reduction <add>, %2456 : vector<16xf32> into f32
            %2458 = arith.mulf %2457, %cst_7 : f32
            %2459 = memref.load %173[%arg399, %c0, %arg401, %arg402] : memref<1x1x1x1024xf32>
            %2460 = arith.addf %2458, %2459 : f32
            %2461 = arith.cmpf ogt, %2460, %arg403 : f32
            %2462 = arith.select %2461, %2460, %arg403 : f32
            %2463 = arith.subf %arg403, %2460 : f32
            %2464 = math.exp %2463 : f32
            %2465 = arith.mulf %2464, %arg404 : f32
            %2466 = arith.addf %2465, %cst_8 : f32
            %2467 = arith.subf %2460, %arg403 : f32
            %2468 = math.exp %2467 : f32
            %2469 = arith.addf %arg404, %2468 : f32
            %2470 = arith.select %2461, %2466, %2469 : f32
            affine.for %arg405 = 0 to 128 {
              %2471 = memref.load %164[%arg399, %2454, %arg402, %arg405] : memref<1x2x1024x128xf32>
              %2472 = memref.load %alloc_87[%arg405] : memref<128xf32>
              %2473 = arith.mulf %2472, %2464 : f32
              %2474 = arith.addf %2473, %2471 : f32
              %2475 = arith.mulf %2468, %2471 : f32
              %2476 = arith.addf %2475, %2472 : f32
              %2477 = arith.select %2461, %2474, %2476 : f32
              memref.store %2477, %alloc_87[%arg405] : memref<128xf32>
            }
            affine.yield %2462, %2470 : f32, f32
          }
          memref.store %2455#1, %alloc_86[%arg399, %arg400, %arg401] : memref<1x12x1xf32>
          affine.for %arg402 = 0 to 128 {
            %2456 = memref.load %alloc_87[%arg402] : memref<128xf32>
            %2457 = arith.divf %2456, %2455#1 : f32
            memref.store %2457, %alloc_85[%arg399, %arg400, %arg401, %arg402] : memref<1x12x1x128xf32>
          }
        }
      }
    }
    %174 = bufferization.to_tensor %alloc_85 restrict : memref<1x12x1x128xf32> to tensor<1x12x1x128xf32>
    %collapsed_88 = tensor.collapse_shape %174 [[0], [1, 2, 3]] : tensor<1x12x1x128xf32> into tensor<1x1536xf32>
    %175 = linalg.matmul {cast = #linalg.type_fn<cast_signed>} ins(%collapsed_88, %arg28 : tensor<1x1536xf32>, tensor<1536x1536xf32>) outs(%cst_12 : tensor<1x1536xf32>) -> tensor<1x1536xf32>
    %expanded_89 = tensor.expand_shape %175 [[0, 1], [2]] output_shape [1, 1, 1536] : tensor<1x1536xf32> into tensor<1x1x1536xf32>
    %176 = tensor.empty() : tensor<1x1x1536xf32>
    %177 = linalg.generic {indexing_maps = [#map2, #map2, #map2], iterator_types = ["parallel", "parallel", "parallel"]} ins(%116, %expanded_89 : tensor<1x1x1536xf32>, tensor<1x1x1536xf32>) outs(%176 : tensor<1x1x1536xf32>) {
    ^bb0(%in: f32, %in_1172: f32, %out: f32):
      %2454 = arith.addf %in, %in_1172 : f32
      linalg.yield %2454 : f32
    } -> tensor<1x1x1536xf32>
    %178 = tensor.empty() : tensor<1x1x1536xf32>
    %179 = linalg.generic {indexing_maps = [#map2, #map2], iterator_types = ["parallel", "parallel", "parallel"]} ins(%177 : tensor<1x1x1536xf32>) outs(%178 : tensor<1x1x1536xf32>) {
    ^bb0(%in: f32, %out: f32):
      %2454 = math.fpowi %in, %c2_i32 : f32, i32
      linalg.yield %2454 : f32
    } -> tensor<1x1x1536xf32>
    %180 = tensor.empty() : tensor<1x1xf32>
    %cst_90 = arith.constant 0.000000e+00 : f32
    %181 = linalg.fill ins(%cst_90 : f32) outs(%180 : tensor<1x1xf32>) -> tensor<1x1xf32>
    %reduced_91 = linalg.reduce ins(%179 : tensor<1x1x1536xf32>) outs(%181 : tensor<1x1xf32>) dimensions = [2]
      (%in: f32, %init: f32) {
        %2454 = arith.addf %in, %init : f32
        linalg.yield %2454 : f32
      }
    %expanded_92 = tensor.expand_shape %reduced_91 [[0], [1, 2]] output_shape [1, 1, 1] : tensor<1x1xf32> into tensor<1x1x1xf32>
    %182 = tensor.empty() : tensor<1x1x1xf32>
    %183 = linalg.generic {indexing_maps = [#map2, #map2, #map2], iterator_types = ["parallel", "parallel", "parallel"]} ins(%expanded_92, %cst_2 : tensor<1x1x1xf32>, tensor<1x1x1xf32>) outs(%182 : tensor<1x1x1xf32>) {
    ^bb0(%in: f32, %in_1172: f32, %out: f32):
      %2454 = arith.mulf %in, %in_1172 : f32
      linalg.yield %2454 : f32
    } -> tensor<1x1x1xf32>
    %184 = tensor.empty() : tensor<1x1x1xf32>
    %185 = linalg.generic {indexing_maps = [#map2, #map2, #map2], iterator_types = ["parallel", "parallel", "parallel"]} ins(%183, %cst_13 : tensor<1x1x1xf32>, tensor<1x1x1xf32>) outs(%184 : tensor<1x1x1xf32>) {
    ^bb0(%in: f32, %in_1172: f32, %out: f32):
      %2454 = arith.addf %in, %in_1172 : f32
      linalg.yield %2454 : f32
    } -> tensor<1x1x1xf32>
    %186 = tensor.empty() : tensor<1x1x1xf32>
    %187 = linalg.generic {indexing_maps = [#map2, #map2], iterator_types = ["parallel", "parallel", "parallel"]} ins(%185 : tensor<1x1x1xf32>) outs(%186 : tensor<1x1x1xf32>) {
    ^bb0(%in: f32, %out: f32):
      %2454 = math.rsqrt %in : f32
      linalg.yield %2454 : f32
    } -> tensor<1x1x1xf32>
    %188 = tensor.empty() : tensor<1x1x1536xf32>
    %189 = linalg.generic {indexing_maps = [#map2, #map7, #map2], iterator_types = ["parallel", "parallel", "parallel"]} ins(%177, %187 : tensor<1x1x1536xf32>, tensor<1x1x1xf32>) outs(%188 : tensor<1x1x1536xf32>) {
    ^bb0(%in: f32, %in_1172: f32, %out: f32):
      %2454 = arith.mulf %in, %in_1172 : f32
      linalg.yield %2454 : f32
    } -> tensor<1x1x1536xf32>
    %expanded_93 = tensor.expand_shape %arg29 [[0, 1, 2]] output_shape [1, 1, 1536] : tensor<1536xf32> into tensor<1x1x1536xf32>
    %190 = tensor.empty() : tensor<1x1x1536xf32>
    %191 = linalg.generic {indexing_maps = [#map2, #map2, #map2], iterator_types = ["parallel", "parallel", "parallel"]} ins(%expanded_93, %189 : tensor<1x1x1536xf32>, tensor<1x1x1536xf32>) outs(%190 : tensor<1x1x1536xf32>) {
    ^bb0(%in: f32, %in_1172: f32, %out: f32):
      %2454 = arith.mulf %in, %in_1172 : f32
      linalg.yield %2454 : f32
    } -> tensor<1x1x1536xf32>
    %collapsed_94 = tensor.collapse_shape %191 [[0, 1], [2]] : tensor<1x1x1536xf32> into tensor<1x1536xf32>
    %192 = linalg.matmul {cast = #linalg.type_fn<cast_signed>} ins(%collapsed_94, %arg30 : tensor<1x1536xf32>, tensor<1536x8960xf32>) outs(%cst_5 : tensor<1x8960xf32>) -> tensor<1x8960xf32>
    %expanded_95 = tensor.expand_shape %192 [[0, 1], [2]] output_shape [1, 1, 8960] : tensor<1x8960xf32> into tensor<1x1x8960xf32>
    %193 = tensor.empty() : tensor<1x1x8960xf32>
    %194 = linalg.generic {indexing_maps = [#map2, #map2], iterator_types = ["parallel", "parallel", "parallel"]} ins(%expanded_95 : tensor<1x1x8960xf32>) outs(%193 : tensor<1x1x8960xf32>) {
    ^bb0(%in: f32, %out: f32):
      %cst_1172 = arith.constant 1.000000e+00 : f32
      %2454 = arith.negf %in : f32
      %2455 = math.exp %2454 : f32
      %2456 = arith.addf %2455, %cst_1172 : f32
      %2457 = arith.divf %cst_1172, %2456 : f32
      linalg.yield %2457 : f32
    } -> tensor<1x1x8960xf32>
    %195 = tensor.empty() : tensor<1x1x8960xf32>
    %196 = linalg.generic {indexing_maps = [#map2, #map2, #map2], iterator_types = ["parallel", "parallel", "parallel"]} ins(%expanded_95, %194 : tensor<1x1x8960xf32>, tensor<1x1x8960xf32>) outs(%195 : tensor<1x1x8960xf32>) {
    ^bb0(%in: f32, %in_1172: f32, %out: f32):
      %2454 = arith.mulf %in, %in_1172 : f32
      linalg.yield %2454 : f32
    } -> tensor<1x1x8960xf32>
    %collapsed_96 = tensor.collapse_shape %191 [[0, 1], [2]] : tensor<1x1x1536xf32> into tensor<1x1536xf32>
    %197 = linalg.matmul {cast = #linalg.type_fn<cast_signed>} ins(%collapsed_96, %arg31 : tensor<1x1536xf32>, tensor<1536x8960xf32>) outs(%cst_5 : tensor<1x8960xf32>) -> tensor<1x8960xf32>
    %expanded_97 = tensor.expand_shape %197 [[0, 1], [2]] output_shape [1, 1, 8960] : tensor<1x8960xf32> into tensor<1x1x8960xf32>
    %198 = tensor.empty() : tensor<1x1x8960xf32>
    %199 = linalg.generic {indexing_maps = [#map2, #map2, #map2], iterator_types = ["parallel", "parallel", "parallel"]} ins(%196, %expanded_97 : tensor<1x1x8960xf32>, tensor<1x1x8960xf32>) outs(%198 : tensor<1x1x8960xf32>) {
    ^bb0(%in: f32, %in_1172: f32, %out: f32):
      %2454 = arith.mulf %in, %in_1172 : f32
      linalg.yield %2454 : f32
    } -> tensor<1x1x8960xf32>
    %collapsed_98 = tensor.collapse_shape %199 [[0, 1], [2]] : tensor<1x1x8960xf32> into tensor<1x8960xf32>
    %200 = linalg.matmul {cast = #linalg.type_fn<cast_signed>} ins(%collapsed_98, %arg32 : tensor<1x8960xf32>, tensor<8960x1536xf32>) outs(%cst_12 : tensor<1x1536xf32>) -> tensor<1x1536xf32>
    %expanded_99 = tensor.expand_shape %200 [[0, 1], [2]] output_shape [1, 1, 1536] : tensor<1x1536xf32> into tensor<1x1x1536xf32>
    %201 = tensor.empty() : tensor<1x1x1536xf32>
    %202 = linalg.generic {indexing_maps = [#map2, #map2, #map2], iterator_types = ["parallel", "parallel", "parallel"]} ins(%177, %expanded_99 : tensor<1x1x1536xf32>, tensor<1x1x1536xf32>) outs(%201 : tensor<1x1x1536xf32>) {
    ^bb0(%in: f32, %in_1172: f32, %out: f32):
      %2454 = arith.addf %in, %in_1172 : f32
      linalg.yield %2454 : f32
    } -> tensor<1x1x1536xf32>
    %203 = tensor.empty() : tensor<1x1x1536xf32>
    %204 = linalg.generic {indexing_maps = [#map2, #map2], iterator_types = ["parallel", "parallel", "parallel"]} ins(%202 : tensor<1x1x1536xf32>) outs(%203 : tensor<1x1x1536xf32>) {
    ^bb0(%in: f32, %out: f32):
      %2454 = math.fpowi %in, %c2_i32 : f32, i32
      linalg.yield %2454 : f32
    } -> tensor<1x1x1536xf32>
    %205 = tensor.empty() : tensor<1x1xf32>
    %cst_100 = arith.constant 0.000000e+00 : f32
    %206 = linalg.fill ins(%cst_100 : f32) outs(%205 : tensor<1x1xf32>) -> tensor<1x1xf32>
    %reduced_101 = linalg.reduce ins(%204 : tensor<1x1x1536xf32>) outs(%206 : tensor<1x1xf32>) dimensions = [2]
      (%in: f32, %init: f32) {
        %2454 = arith.addf %in, %init : f32
        linalg.yield %2454 : f32
      }
    %expanded_102 = tensor.expand_shape %reduced_101 [[0], [1, 2]] output_shape [1, 1, 1] : tensor<1x1xf32> into tensor<1x1x1xf32>
    %207 = tensor.empty() : tensor<1x1x1xf32>
    %208 = linalg.generic {indexing_maps = [#map2, #map2, #map2], iterator_types = ["parallel", "parallel", "parallel"]} ins(%expanded_102, %cst_2 : tensor<1x1x1xf32>, tensor<1x1x1xf32>) outs(%207 : tensor<1x1x1xf32>) {
    ^bb0(%in: f32, %in_1172: f32, %out: f32):
      %2454 = arith.mulf %in, %in_1172 : f32
      linalg.yield %2454 : f32
    } -> tensor<1x1x1xf32>
    %209 = tensor.empty() : tensor<1x1x1xf32>
    %210 = linalg.generic {indexing_maps = [#map2, #map2, #map2], iterator_types = ["parallel", "parallel", "parallel"]} ins(%208, %cst_13 : tensor<1x1x1xf32>, tensor<1x1x1xf32>) outs(%209 : tensor<1x1x1xf32>) {
    ^bb0(%in: f32, %in_1172: f32, %out: f32):
      %2454 = arith.addf %in, %in_1172 : f32
      linalg.yield %2454 : f32
    } -> tensor<1x1x1xf32>
    %211 = tensor.empty() : tensor<1x1x1xf32>
    %212 = linalg.generic {indexing_maps = [#map2, #map2], iterator_types = ["parallel", "parallel", "parallel"]} ins(%210 : tensor<1x1x1xf32>) outs(%211 : tensor<1x1x1xf32>) {
    ^bb0(%in: f32, %out: f32):
      %2454 = math.rsqrt %in : f32
      linalg.yield %2454 : f32
    } -> tensor<1x1x1xf32>
    %213 = tensor.empty() : tensor<1x1x1536xf32>
    %214 = linalg.generic {indexing_maps = [#map2, #map7, #map2], iterator_types = ["parallel", "parallel", "parallel"]} ins(%202, %212 : tensor<1x1x1536xf32>, tensor<1x1x1xf32>) outs(%213 : tensor<1x1x1536xf32>) {
    ^bb0(%in: f32, %in_1172: f32, %out: f32):
      %2454 = arith.mulf %in, %in_1172 : f32
      linalg.yield %2454 : f32
    } -> tensor<1x1x1536xf32>
    %expanded_103 = tensor.expand_shape %arg33 [[0, 1, 2]] output_shape [1, 1, 1536] : tensor<1536xf32> into tensor<1x1x1536xf32>
    %215 = tensor.empty() : tensor<1x1x1536xf32>
    %216 = linalg.generic {indexing_maps = [#map2, #map2, #map2], iterator_types = ["parallel", "parallel", "parallel"]} ins(%expanded_103, %214 : tensor<1x1x1536xf32>, tensor<1x1x1536xf32>) outs(%215 : tensor<1x1x1536xf32>) {
    ^bb0(%in: f32, %in_1172: f32, %out: f32):
      %2454 = arith.mulf %in, %in_1172 : f32
      linalg.yield %2454 : f32
    } -> tensor<1x1x1536xf32>
    %collapsed_104 = tensor.collapse_shape %216 [[0, 1], [2]] : tensor<1x1x1536xf32> into tensor<1x1536xf32>
    %217 = linalg.matmul {cast = #linalg.type_fn<cast_signed>} ins(%collapsed_104, %arg35 : tensor<1x1536xf32>, tensor<1536x1536xf32>) outs(%cst_12 : tensor<1x1536xf32>) -> tensor<1x1536xf32>
    %expanded_105 = tensor.expand_shape %arg34 [[0, 1]] output_shape [1, 1536] : tensor<1536xf32> into tensor<1x1536xf32>
    %218 = tensor.empty() : tensor<1x1536xf32>
    %219 = linalg.generic {indexing_maps = [#map, #map, #map], iterator_types = ["parallel", "parallel"]} ins(%expanded_105, %217 : tensor<1x1536xf32>, tensor<1x1536xf32>) outs(%218 : tensor<1x1536xf32>) {
    ^bb0(%in: f32, %in_1172: f32, %out: f32):
      %2454 = arith.addf %in, %in_1172 : f32
      linalg.yield %2454 : f32
    } -> tensor<1x1536xf32>
    %expanded_106 = tensor.expand_shape %219 [[0], [1, 2, 3]] output_shape [1, 12, 1, 128] : tensor<1x1536xf32> into tensor<1x12x1x128xf32>
    %collapsed_107 = tensor.collapse_shape %216 [[0, 1], [2]] : tensor<1x1x1536xf32> into tensor<1x1536xf32>
    %220 = linalg.matmul {cast = #linalg.type_fn<cast_signed>} ins(%collapsed_107, %arg37 : tensor<1x1536xf32>, tensor<1536x256xf32>) outs(%cst_11 : tensor<1x256xf32>) -> tensor<1x256xf32>
    %expanded_108 = tensor.expand_shape %arg36 [[0, 1]] output_shape [1, 256] : tensor<256xf32> into tensor<1x256xf32>
    %221 = tensor.empty() : tensor<1x256xf32>
    %222 = linalg.generic {indexing_maps = [#map, #map, #map], iterator_types = ["parallel", "parallel"]} ins(%expanded_108, %220 : tensor<1x256xf32>, tensor<1x256xf32>) outs(%221 : tensor<1x256xf32>) {
    ^bb0(%in: f32, %in_1172: f32, %out: f32):
      %2454 = arith.addf %in, %in_1172 : f32
      linalg.yield %2454 : f32
    } -> tensor<1x256xf32>
    %expanded_109 = tensor.expand_shape %222 [[0], [1, 2, 3]] output_shape [1, 2, 1, 128] : tensor<1x256xf32> into tensor<1x2x1x128xf32>
    %collapsed_110 = tensor.collapse_shape %216 [[0, 1], [2]] : tensor<1x1x1536xf32> into tensor<1x1536xf32>
    %223 = linalg.matmul {cast = #linalg.type_fn<cast_signed>} ins(%collapsed_110, %arg39 : tensor<1x1536xf32>, tensor<1536x256xf32>) outs(%cst_11 : tensor<1x256xf32>) -> tensor<1x256xf32>
    %expanded_111 = tensor.expand_shape %arg38 [[0, 1]] output_shape [1, 256] : tensor<256xf32> into tensor<1x256xf32>
    %224 = tensor.empty() : tensor<1x256xf32>
    %225 = linalg.generic {indexing_maps = [#map, #map, #map], iterator_types = ["parallel", "parallel"]} ins(%expanded_111, %223 : tensor<1x256xf32>, tensor<1x256xf32>) outs(%224 : tensor<1x256xf32>) {
    ^bb0(%in: f32, %in_1172: f32, %out: f32):
      %2454 = arith.addf %in, %in_1172 : f32
      linalg.yield %2454 : f32
    } -> tensor<1x256xf32>
    %expanded_112 = tensor.expand_shape %225 [[0], [1, 2, 3]] output_shape [1, 2, 1, 128] : tensor<1x256xf32> into tensor<1x2x1x128xf32>
    %expanded_113 = tensor.expand_shape %29 [[0], [1, 2], [3]] output_shape [1, 1, 1, 128] : tensor<1x1x128xf32> into tensor<1x1x1x128xf32>
    %expanded_114 = tensor.expand_shape %30 [[0], [1, 2], [3]] output_shape [1, 1, 1, 128] : tensor<1x1x128xf32> into tensor<1x1x1x128xf32>
    %226 = tensor.empty() : tensor<1x12x1x128xf32>
    %227 = linalg.generic {indexing_maps = [#map6, #map8, #map6], iterator_types = ["parallel", "parallel", "parallel", "parallel"]} ins(%expanded_106, %expanded_113 : tensor<1x12x1x128xf32>, tensor<1x1x1x128xf32>) outs(%226 : tensor<1x12x1x128xf32>) {
    ^bb0(%in: f32, %in_1172: f32, %out: f32):
      %2454 = arith.mulf %in, %in_1172 : f32
      linalg.yield %2454 : f32
    } -> tensor<1x12x1x128xf32>
    %extracted_slice_115 = tensor.extract_slice %expanded_106[0, 0, 0, 0] [1, 12, 1, 64] [1, 1, 1, 1] : tensor<1x12x1x128xf32> to tensor<1x12x1x64xf32>
    %extracted_slice_116 = tensor.extract_slice %expanded_106[0, 0, 0, 64] [1, 12, 1, 64] [1, 1, 1, 1] : tensor<1x12x1x128xf32> to tensor<1x12x1x64xf32>
    %228 = tensor.empty() : tensor<1x12x1x64xf32>
    %229 = linalg.generic {indexing_maps = [#map6, #map6], iterator_types = ["parallel", "parallel", "parallel", "parallel"]} ins(%extracted_slice_116 : tensor<1x12x1x64xf32>) outs(%228 : tensor<1x12x1x64xf32>) {
    ^bb0(%in: f32, %out: f32):
      %2454 = arith.negf %in : f32
      linalg.yield %2454 : f32
    } -> tensor<1x12x1x64xf32>
    %230 = tensor.empty() : tensor<1x12x1x128xf32>
    %inserted_slice_117 = tensor.insert_slice %229 into %230[0, 0, 0, 0] [1, 12, 1, 64] [1, 1, 1, 1] : tensor<1x12x1x64xf32> into tensor<1x12x1x128xf32>
    %inserted_slice_118 = tensor.insert_slice %extracted_slice_115 into %inserted_slice_117[0, 0, 0, 64] [1, 12, 1, 64] [1, 1, 1, 1] : tensor<1x12x1x64xf32> into tensor<1x12x1x128xf32>
    %231 = tensor.empty() : tensor<1x12x1x128xf32>
    %232 = linalg.generic {indexing_maps = [#map6, #map8, #map6], iterator_types = ["parallel", "parallel", "parallel", "parallel"]} ins(%inserted_slice_118, %expanded_114 : tensor<1x12x1x128xf32>, tensor<1x1x1x128xf32>) outs(%231 : tensor<1x12x1x128xf32>) {
    ^bb0(%in: f32, %in_1172: f32, %out: f32):
      %2454 = arith.mulf %in, %in_1172 : f32
      linalg.yield %2454 : f32
    } -> tensor<1x12x1x128xf32>
    %233 = tensor.empty() : tensor<1x12x1x128xf32>
    %234 = linalg.generic {indexing_maps = [#map6, #map6, #map6], iterator_types = ["parallel", "parallel", "parallel", "parallel"]} ins(%227, %232 : tensor<1x12x1x128xf32>, tensor<1x12x1x128xf32>) outs(%233 : tensor<1x12x1x128xf32>) {
    ^bb0(%in: f32, %in_1172: f32, %out: f32):
      %2454 = arith.addf %in, %in_1172 : f32
      linalg.yield %2454 : f32
    } -> tensor<1x12x1x128xf32>
    %235 = tensor.empty() : tensor<1x2x1x128xf32>
    %236 = linalg.generic {indexing_maps = [#map6, #map8, #map6], iterator_types = ["parallel", "parallel", "parallel", "parallel"]} ins(%expanded_109, %expanded_113 : tensor<1x2x1x128xf32>, tensor<1x1x1x128xf32>) outs(%235 : tensor<1x2x1x128xf32>) {
    ^bb0(%in: f32, %in_1172: f32, %out: f32):
      %2454 = arith.mulf %in, %in_1172 : f32
      linalg.yield %2454 : f32
    } -> tensor<1x2x1x128xf32>
    %extracted_slice_119 = tensor.extract_slice %expanded_109[0, 0, 0, 0] [1, 2, 1, 64] [1, 1, 1, 1] : tensor<1x2x1x128xf32> to tensor<1x2x1x64xf32>
    %extracted_slice_120 = tensor.extract_slice %expanded_109[0, 0, 0, 64] [1, 2, 1, 64] [1, 1, 1, 1] : tensor<1x2x1x128xf32> to tensor<1x2x1x64xf32>
    %237 = tensor.empty() : tensor<1x2x1x64xf32>
    %238 = linalg.generic {indexing_maps = [#map6, #map6], iterator_types = ["parallel", "parallel", "parallel", "parallel"]} ins(%extracted_slice_120 : tensor<1x2x1x64xf32>) outs(%237 : tensor<1x2x1x64xf32>) {
    ^bb0(%in: f32, %out: f32):
      %2454 = arith.negf %in : f32
      linalg.yield %2454 : f32
    } -> tensor<1x2x1x64xf32>
    %239 = tensor.empty() : tensor<1x2x1x128xf32>
    %inserted_slice_121 = tensor.insert_slice %238 into %239[0, 0, 0, 0] [1, 2, 1, 64] [1, 1, 1, 1] : tensor<1x2x1x64xf32> into tensor<1x2x1x128xf32>
    %inserted_slice_122 = tensor.insert_slice %extracted_slice_119 into %inserted_slice_121[0, 0, 0, 64] [1, 2, 1, 64] [1, 1, 1, 1] : tensor<1x2x1x64xf32> into tensor<1x2x1x128xf32>
    %240 = tensor.empty() : tensor<1x2x1x128xf32>
    %241 = linalg.generic {indexing_maps = [#map6, #map8, #map6], iterator_types = ["parallel", "parallel", "parallel", "parallel"]} ins(%inserted_slice_122, %expanded_114 : tensor<1x2x1x128xf32>, tensor<1x1x1x128xf32>) outs(%240 : tensor<1x2x1x128xf32>) {
    ^bb0(%in: f32, %in_1172: f32, %out: f32):
      %2454 = arith.mulf %in, %in_1172 : f32
      linalg.yield %2454 : f32
    } -> tensor<1x2x1x128xf32>
    %242 = tensor.empty() : tensor<1x2x1x128xf32>
    %243 = linalg.generic {indexing_maps = [#map6, #map6, #map6], iterator_types = ["parallel", "parallel", "parallel", "parallel"]} ins(%236, %241 : tensor<1x2x1x128xf32>, tensor<1x2x1x128xf32>) outs(%242 : tensor<1x2x1x128xf32>) {
    ^bb0(%in: f32, %in_1172: f32, %out: f32):
      %2454 = arith.addf %in, %in_1172 : f32
      linalg.yield %2454 : f32
    } -> tensor<1x2x1x128xf32>
    %244 = bufferization.to_buffer %arg40 : tensor<1x2x1024x128xf32> to memref<1x2x1024x128xf32>
    %expanded_123 = tensor.expand_shape %arg3 [[0, 1, 2, 3]] output_shape [1, 1, 1, 1] : tensor<1xi64> into tensor<1x1x1x1xi64>
    %245 = tensor.empty() : tensor<1x2x1x128xi64>
    %246 = linalg.generic {indexing_maps = [#map9, #map6, #map6], iterator_types = ["parallel", "parallel", "parallel", "parallel"]} ins(%expanded_123, %cst_10 : tensor<1x1x1x1xi64>, tensor<1x2x1x128xi64>) outs(%245 : tensor<1x2x1x128xi64>) {
    ^bb0(%in: i64, %in_1172: i64, %out: i64):
      %2454 = arith.addi %in, %in_1172 : i64
      linalg.yield %2454 : i64
    } -> tensor<1x2x1x128xi64>
    %247 = bufferization.to_buffer %246 : tensor<1x2x1x128xi64> to memref<1x2x1x128xi64>
    %248 = bufferization.to_buffer %243 : tensor<1x2x1x128xf32> to memref<1x2x1x128xf32>
    scf.for %arg399 = %c0 to %c1 step %c1 {
      scf.for %arg400 = %c0 to %c2 step %c1 {
        scf.for %arg401 = %c0 to %c1 step %c1 {
          scf.for %arg402 = %c0 to %c128 step %c1 {
            %2454 = memref.load %248[%arg399, %arg400, %arg401, %arg402] : memref<1x2x1x128xf32>
            %2455 = memref.load %247[%arg399, %arg400, %arg401, %arg402] : memref<1x2x1x128xi64>
            %2456 = arith.index_cast %2455 : i64 to index
            memref.store %2454, %244[%arg399, %arg400, %2456, %arg402] : memref<1x2x1024x128xf32>
          }
        }
      }
    }
    %249 = bufferization.to_tensor %244 restrict : memref<1x2x1024x128xf32> to tensor<1x2x1024x128xf32>
    %250 = bufferization.to_buffer %arg41 : tensor<1x2x1024x128xf32> to memref<1x2x1024x128xf32>
    %expanded_124 = tensor.expand_shape %arg3 [[0, 1, 2, 3]] output_shape [1, 1, 1, 1] : tensor<1xi64> into tensor<1x1x1x1xi64>
    %251 = tensor.empty() : tensor<1x2x1x128xi64>
    %252 = linalg.generic {indexing_maps = [#map9, #map6, #map6], iterator_types = ["parallel", "parallel", "parallel", "parallel"]} ins(%expanded_124, %cst_10 : tensor<1x1x1x1xi64>, tensor<1x2x1x128xi64>) outs(%251 : tensor<1x2x1x128xi64>) {
    ^bb0(%in: i64, %in_1172: i64, %out: i64):
      %2454 = arith.addi %in, %in_1172 : i64
      linalg.yield %2454 : i64
    } -> tensor<1x2x1x128xi64>
    %253 = bufferization.to_buffer %252 : tensor<1x2x1x128xi64> to memref<1x2x1x128xi64>
    %254 = bufferization.to_buffer %expanded_112 : tensor<1x2x1x128xf32> to memref<1x2x1x128xf32>
    scf.for %arg399 = %c0 to %c1 step %c1 {
      scf.for %arg400 = %c0 to %c2 step %c1 {
