<pad>
<unk>
<s>
</s>
<0x00>
<0x01>
<0x02>
<0x03>
<0x04>
<0x05>
<0x06>
<0x07>
<0x08>
<0x09>
<0x0A>
<0x0B>
<0x0C>
<0x0D>
<0x0E>
<0x0F>
<0x10>
<0x11>
<0x12>
<0x13>
<0x14>
<0x15>
<0x16>
<0x17>
<0x18>
<0x19>
<0x1A>
<0x1B>
<0x1C>
<0x1D>
<0x1E>
<0x1F>
<0x20>
<0x21>
<0x22>
<0x23>
<0x24>
<0x25>
<0x26>
<0x27>
<0x28>
<0x29>
<0x2A>
<0x2B>
<0x2C>
<0x2D>
<0x2E>
<0x2F>
<0x30>
<0x31>
<0x32>
<0x33>
<0x34>
<0x35>
<0x36>
<0x37>
<0x38>
<0x39>
<0x3A>
<0x3B>
<0x3C>
<0x3D>
<0x3E>
<0x3F>
<0x40>
<0x41>
<0x42>
<0x43>
<0x44>
<0x45>
<0x46>
<0x47>
<0x48>
<0x49>
<0x4A>
<0x4B>
<0x4C>
<0x4D>
<0x4E>
<0x4F>
<0x50>
<0x51>
<0x52>
<0x53>
<0x54>
<0x55>
<0x56>
<0x57>
<0x58>
<0x59>
<0x5A>
<0x5B>
<0x5C>
<0x5D>
<0x5E>
<0x5F>
<0x60>
<0x61>
<0x62>
<0x63>
<0x64>
<0x65>
<0x66>
<0x67>
<0x68>
<0x69>
<0x6A>
<0x6B>
<0x6C>
<0x6D>
<0x6E>
<0x6F>
<0x70>
<0x71>
<0x72>
<0x73>
<0x74>
<0x75>
<0x76>
<0x77>
<0x78>
<0x79>
<0x7A>
<0x7B>
<0x7C>
<0x7D>
<0x7E>
<0x7F>
<0x80>
<0x81>
<0x82>
<0x83>
<0x84>
<0x85>
<0x86>
<0x87>
<0x88>
<0x89>
<0x8A>
<0x8B>
<0x8C>
<0x8D>
<0x8E>
<0x8F>
<0x90>
<0x91>
<0x92>
<0x93>
<0x94>
<0x95>
<0x96>
<0x97>
<0x98>
<0x99>
<0x9A>
<0x9B>
<0x9C>
<0x9D>
<0x9E>
<0x9F>
<0xA0>
<0xA1>
<0xA2>
<0xA3>
<0xA4>
<0xA5>
<0xA6>
<0xA7>
<0xA8>
<0xA9>
<0xAA>
<0xAB>
<0xAC>
<0xAD>
<0xAE>
<0xAF>
<0xB0>
<0xB1>
<0xB2>
<0xB3>
<0xB4>
<0xB5>
<0xB6>
<0xB7>
<0xB8>
<0xB9>
<0xBA>
<0xBB>
<0xBC>
<0xBD>
<0xBE>
<0xBF>
<0xC0>
<0xC1>
<0xC2>
<0xC3>
<0xC4>
<0xC5>
<0xC6>
<0xC7>
<0xC8>
<0xC9>
<0xCA>
<0xCB>
<0xCC>
<0xCD>
<0xCE>
<0xCF>
<0xD0>
<0xD1>
<0xD2>
<0xD3>
<0xD4>
<0xD5>
<0xD6>
<0xD7>
<0xD8>
<0xD9>
<0xDA>
<0xDB>
<0xDC>
<0xDD>
<0xDE>
<0xDF>
<0xE0>
<0xE1>
<0xE2>
<0xE3>
<0xE4>
<0xE5>
<0xE6>
<0xE7>
<0xE8>
<0xE9>
<0xEA>
<0xEB>
<0xEC>
<0xED>
<0xEE>
<0xEF>
<0xF0>
<0xF1>
<0xF2>
<0xF3>
<0xF4>
<0xF5>
<0xF6>
<0xF7>
<0xF8>
<0xF9>
<0xFA>
<0xFB>
<0xFC>
<0xFD>
<0xFE>
<0xFF>
▁
.
1
,
0
2
▁the
9
▁of
▁in
▁and
5
s
3
▁(
8
6
4
7
)
▁a
▁to
▁inches
°
-
F
▁at
▁was
▁for
▁precipitation
▁The
:
'
▁on
▁is
▁from
▁average
▁as
▁mean
▁by
▁In
▁with
▁an
C
▁during
▁snow
▁"
▁had
▁that
"
▁total
▁high
▁show
▁records
▁low
Daily
▁GHCN
▁data
▁Historical
▁station
▁his
▁or
▁January
▁shows
▁December
▁February
▁March
–
▁he
▁November
▁daily
▁New
▁April
▁received
),
▁depth
▁October
▁were
▁May
▁||
▁are
▁September
▁which
▁August
▁June
▁near
▁July
ing
▁He
▁it
▁also
e
▁averaged
▁–
ed
).
▁temperature
▁A
▁logged
▁lows
▁highs
▁be
a
▁water
▁|
▁totaled
th
▁Total
▁Ap
d
▁has
▁Dakota
▁first
▁rain
▁equivalent
;
▁recorded
▁their
▁S
▁measured
▁Rainfall
▁It
▁its
▁snowfall
▁N
▁one
▁not
▁but
▁who
/
er
▁North
y
S
▁During
▁two
▁W
▁her
▁have
▁E
▁American
t
▁this
▁References
o
▁York
i
▁For
▁been
▁Virginia
▁South
▁range
n
▁City
▁after
ly
▁maximum
▁minimum
▁observed
▁ranging
▁into
▁temperatures
▁United
▁other
 
▁they
in
▁I
▁West
▁time
▁Snow
▁over
▁de
▁Lake
▁people
▁players
▁University
▁all
▁Ne
▁links
es
▁when
▁Se
New
▁External
▁On
al
▁she
▁years
▁more
▁would
▁California
▁only
▁U
▁This
▁new
▁States
▁between
▁where
▁up
▁out
▁season
▁three
▁National
▁Idaho
▁St
▁Carolina
▁him
▁about
A
▁B
▁Sw
▁can
="
▁World
▁Washington
▁Utah
▁later
▁used
E
▁part
▁most
st
▁School
▁throughout
▁then
▁Montana
▁County
▁Alaska
▁made
▁team
m
▁under
▁State
man
▁than
▁became
▁Mean
%
▁such
r
▁through
▁year
▁D
▁known
an
▁Hampshire
▁being
en
▁&
▁John
on
▁M
▁film
▁Nw
▁Dam
▁well
▁|-
▁K
▁G
▁P
▁some
▁before
▁state
▁She
▁school
▁second
▁there
▁including
▁War
▁Mexico
▁Jersey
▁against
▁Creek
North
▁while
▁(-
▁series
▁until
▁After
▁many
▁As
=
▁area
▁T
▁Wyoming
▁Oregon
▁L
▁no
▁re
▁Nevada
▁played
▁both
born
▁Iowa
▁Michigan
▁name
us
▁British
D
k
▁them
W
▁League
▁Park
▁album
▁fell
▁brought
▁Pennsylvania
or
g
",
▁work
▁Nne
▁Island
▁Sse
▁O
▁number
b
▁River
▁four
▁game
▁J
▁mph
▁See
▁won
▁H
▁R
▁Oklahoma
▁Snowfall
".
▁released
▁Wisconsin
▁English
▁Co
The
c
▁football
ers
▁several
I
▁family
▁At
▁Ohio
▁former
B
u
re
to
century
▁Kansas
▁same
▁life
▁Kentucky
▁History
▁called
▁career
▁Nnw
▁Maine
▁No
▁early
▁Texas
▁wind
▁Wsw
▁so
▁Arkansas
▁Arizona
▁following
▁may
▁Mississippi
▁end
▁Valley
▁#
▁College
l
▁will
▁La
▁San
▁since
▁Missouri
▁Vermont
▁They
▁Massachusetts
▁found
the
▁these
▁His
▁births
▁—
▁men
▁Wnw
Idaho
South
▁use
▁city
▁accumulation
▁indicates
Montana
z
▁began
▁named
▁Maryland
."
▁back
▁group
▁speed
▁Illinois
▁established
▁Louisiana
na
▁music
▁Hawaii
Utah
▁Nebraska
▁Intl
▁home
▁Indiana
▁Ese
▁located
▁Georgia
ar
▁each
ton
▁films
▁based
▁place
le
▁games
▁government
▁London
▁member
h
de
N
▁class
▁song
▁along
▁House
▁All
▁Alabama
▁Hill
▁members
▁US
▁Colorado
▁De
▁system
▁Ssw
id
▁built
▁local
▁II
▁held
▁French
▁single
▁List
ta
▁Cup
▁There
▁around
▁served
▁company
▁However
▁Florida
▁did
’
▁set
▁East
▁due
▁took
▁line
▁International
land
▁band
Alaska
▁long
▁German
▁population
ic
▁High
el
▁An
▁public
▁now
▁club
▁Connecticut
Wyoming
ville
▁could
▁player
▁Springs
▁Ene
▁published
▁People
▁any
West
center
is
▁history
▁align
▁small
▁large
▁century
ia
▁Minnesota
ne
▁left
p
▁five
▁$
▁V
nd
▁England
ist
▁television
▁within
▁died
Washington
L
▁building
▁include
▁species
▁because
▁national
▁north
▁style
▁women
▁world
Iowa
T
▁final
▁last
te
▁off
▁town
▁day
as
M
▁service
▁included
son
▁Air
▁death
▁own
▁District
▁major
▁third
▁down
California
▁Al
▁record
ma
▁Re
▁Australia
▁Grand
P
▁play
f
▁George
▁Tennessee
▁original
R
ation
▁Street
▁To
▁another
▁moved
▁One
▁co
▁still
Nevada
▁like
▁said
▁Falls
▁main
▁Union
▁William
no
▁Australian
▁children
▁side
▁again
▁Road
K
ry
▁very
Oklahoma
▁village
▁James
▁district
▁Award
ch
able
▁south
▁do
▁Red
▁born
▁book
▁Church
ion
ley
▁country
▁Army
▁site
at
align
▁Muni
▁Rock
▁Me
▁late
▁White
▁if
▁Mc
▁son
▁Man
up
Arkansas
ism
Oregon
▁When
▁male
|
G
▁Center
▁non
▁un
▁title
▁different
▁led
▁form
▁short
ian
▁Division
▁those
▁King
▁Canada
Wisconsin
▁produced
▁Le
▁David
▁Association
ka
▁Living
▁just
▁often
▁million
Mississippi
▁war
Maine
Michigan
▁version
▁deaths
]
▁six
com
▁best
Pennsylvania
ity
▁head
▁per
▁Canadian
—
da
▁father
▁General
Kentucky
▁Music
O
▁order
▁period
▁El
▁community
▁power
▁France
Kansas
▁top
H
▁America
▁went
▁students
▁much
▁make
▁Club
▁Indian
▁came
▁Stn
▁Hall
▁European
▁Party
▁role
▁Bay
▁By
▁law
▁house
▁Paul
Vermont
▁support
▁Charles
▁Royal
ra
▁created
▁become
and
▁field
▁written
▁Black
▁given
▁India
▁Group
▁returned
▁what
▁opened
▁areas
Hawaii
▁From
Arizona
▁general
Missouri
▁started
▁next
la
Nebraska
▁development
it
▁age
▁First
▁Rgnl
▁international
um
rd
▁Council
▁among
co
▁various
age
▁win
▁using
▁These
▁having
▁east
▁bgcolor
▁Championship
▁production
▁region
▁Japan
Louisiana
ie
x
▁Thomas
▁even
▁military
▁Company
▁land
year
et
▁Ft
▁Rs
▁Robert
▁Records
▁video
▁Court
▁married
▁Germany
ine
▁Best
▁across
▁however
▁Wwtp
▁joined
ir
▁way
▁Saint
▁Great
▁Big
se
▁Green
▁With
▁take
ur
▁few
▁announced
▁run
▁Football
▁Department
ro
os
▁election
||
(
▁old
me
▁Japanese
▁songs
Ohio
▁albums
Alabama
▁program
▁works
w
▁p
▁continued
▁Press
▁without
▁times
▁road
Maryland
▁Dr
▁Michael
▁league
▁position
▁Art
▁political
▁round
▁Italian
▁professional
▁President
▁China
▁lost
▁church
▁described
▁worked
men
▁schools
am
▁full
▁Other
▁Year
▁point
j
▁lead
▁[
▁west
▁days
▁Chicago
Massachusetts
▁director
▁Central
den
▁Her
▁website
▁completed
ri
▁Pass
▁level
ti
▁Society
J
▁signed
ive
right
▁Columbia
▁Henry
by
▁radio
ner
▁UK
▁considered
ve
▁Kingdom
▁coach
▁education
▁Western
▁match
▁air
▁wrote
&
▁further
▁half
▁live
▁Radio
▁teams
Virginia
▁appeared
▁footballers
▁Act
▁stations
▁groups
▁Europe
▁official
one
▁control
▁business
▁research
time
▁Summer
ni
▁Olympics
▁African
▁TV
▁events
ment
▁Exp
▁founded
▁result
do
▁Pro
▁present
▁services
▁important
▁Games
▁story
▁Z
li
▁car
▁wife
▁formed
Indiana
ling
▁developed
▁Men
Connecticut
Illinois
▁addition
▁Smith
▁elected
▁Museum
▁right
▁track
▁Institute
▁Russian
Georgia
▁making
é
▁art
▁appointed
▁case
▁office
▁event
▁character
▁project
▁Los
▁debut
▁points
im
▁similar
ad
▁common
▁pre
▁=
ke
▁Mar
▁Little
▁Catholic
▁According
▁Roman
▁popular
▁himself
▁playing
ate
ya
▁Port
▁release
▁Order
▁sold
▁Academy
▁construction
ce
▁Film
▁Awards
ak
▁Peter
▁e
ge
▁Be
▁Martin
ca
▁Spanish
▁available
▁president
▁body
!
Colorado
▁Zealand
▁design
▁companies
▁alumni
▁black
▁While
▁surface
ko
▁Forest
▁You
▁together
▁current
▁Mountain
▁Ireland
▁Some
▁Public
▁Beach
▁Long
▁Republic
▁Railway
▁“
▁working
▁Force
▁route
▁never
▁although
▁Of
▁Route
▁mother
Texas
▁Mtn
▁post
▁Olympic
▁killed
▁others
▁Ar
▁away
▁Fort
▁directed
ter
wood
il
▁Blue
▁Africa
▁Two
▁free
▁months
▁Early
▁though
▁once
▁open
▁daughter
▁Sp
▁information
ha
▁Richard
▁X
▁special
lin
▁party
▁Rhode
▁Christian
▁man
▁includes
▁buildings
go
▁Mary
Ne
▁vocals
V
▁modern
un
▁list
▁taken
▁sub
▁example
▁fire
ness
left
ty
▁Old
wa
▁return
▁seven
v
▁every
▁white
▁process
ant
▁followed
▁young
▁Point
ov
est
▁la
▁performed
▁originally
▁establishments
▁episode
▁Love
▁race
▁My
▁change
▁human
▁help
▁social
be
▁Battle
▁does
▁Education
Sw
▁Ka
▁Historic
va
▁finished
▁Paris
▁Sir
▁reported
▁should
▁less
▁remained
▁largest
sa
▁Ridge
▁scored
▁language
▁training
▁Life
sh
▁di
mo
▁Chinese
▁guitar
▁Mark
em
ki
▁Law
▁Ben
line
▁books
▁Go
▁rock
▁conditions
ized
▁brother
▁how
▁aircraft
▁Minister
der
▁Star
▁eight
field
▁Delaware
▁above
▁Louis
▁eventually
▁private
ja
▁Town
▁Super
▁Bar
▁seen
▁Home
▁features
▁Rch
▁mid
▁goal
Minnesota
▁term
▁Con
▁Fire
▁Fld
▁Day
ba
ga
▁must
▁performance
▁stage
▁Du
ul
▁Ha
▁Ma
▁gave
Tennessee
▁contract
▁great
km
▁Notes
▁So
way
less
▁go
▁Soviet
▁Angeles
▁close
▁d
▁Major
ham
▁Joseph
American
▁Women
▁Y
▁featured
▁Farm
▁replaced
▁Is
▁Camp
▁Most
▁media
▁designed
mer
rs
▁involved
bo
▁leading
▁river
▁Peak
▁Government
▁Mt
▁Although
▁Northern
▁we
▁Service
"|
▁f
▁Di
▁forces
▁study
ies
▁countries
▁Since
ary
▁Police
▁added
▁court
▁reached
▁Line
ina
▁sent
▁introduced
sen
▁central
▁con
▁police
▁good
▁Car
day
▁southern
▁least
ous
▁either
▁politician
▁Second
▁ground
▁runs
ler
▁awarded
▁ten
▁college
▁sea
▁you
▁get
▁Festival
▁Irish
▁put
▁northern
▁m
▁novel
▁Sea
▁Don
▁provided
▁front
he
ger
▁Navy
di
▁Santa
mi
▁section
▁Wales
▁Arts
▁Italy
▁Tom
▁attack
▁via
▁light
▁Brown
▁Castle
▁singer
▁author
▁currently
▁railway
▁usually
▁artists
▁c
▁Lee
▁previous
▁campaign
▁Official
▁FC
tra
▁hit
▁upon
per
ji
▁competition
ey
que
▁summer
▁Mo
Nw
▁Do
▁model
side
▁Cross
▁Grove
▁Plt
▁provide
▁fourth
of
▁start
▁closed
▁placed
▁Committee
▁Science
▁Van
ization
▁Ko
▁Pacific
▁rights
▁Rvr
▁Water
▁Greek
za
old
▁staff
▁basketball
ting
▁highway
▁ship
▁winning
▁Newport
▁saw
▁space
ac
▁changed
▁female
▁Board
▁Films
▁primary
▁states
▁writer
▁sports
Z
▁Station
▁night
Se
▁Mount
ent
▁Pre
▁seasons
▁Bill
Y
▁Its
▁results
▁board
▁action
ard
▁Johnson
ah
▁Championships
ek
▁able
mm
background
▁outside
▁Series
based
ally
:#
▁decided
▁Edward
▁artist
▁Prince
▁Jack
▁gold
▁Sun
▁Southern
ts
▁person
▁hand
ish
▁listed
▁units
lo
ted
ford
▁type
▁health
▁CD
ng
▁instead
▁Greenville
▁parts
▁almost
Florida
);
▁ex
?
▁owned
les
off
ana
▁goals
▁operations
▁Boston
▁Rsvr
▁Jackson
▁center
▁manager
▁characters
▁whose
▁defeated
▁success
▁anti
▁Li
▁Sa
▁active
▁systems
▁industry
▁al
▁degree
▁Pa
▁reading
▁see
chi
▁park
▁previously
▁Basin
▁successful
▁organization
▁rather
U
▁Mr
▁rest
▁base
out
▁structure
▁Sports
▁writers
▁producer
io
▁beginning
con
▁Top
▁Lincoln
▁Francisco
▁unit
▁lower
▁Later
In
▁stated
▁culture
▁Berlin
▁km
▁allowed
▁regular
▁Oak
▁musical
▁Frank
▁magazine
note
▁Per
▁Team
▁real
han
▁force
▁tournament
ol
▁western
▁possible
▁Times
▁Jones
▁interest
=#
▁significant
▁edition
▁Un
▁Research
▁SR
▁Scott
▁Following
▁dis
▁Theatre
▁behind
▁ended
▁association
▁caused
▁division
▁living
▁studio
▁capital
▁Russia
▁Pan
▁island
▁Post
▁soon
▁God
▁far
text
▁cover
ated
▁Congress
▁collection
▁Career
ho
▁Tri
▁Commission
ang
▁attended
▁places
all
▁network
▁Taylor
▁past
ten
▁Office
▁ever
▁red
▁Chi
▁leader
▁Military
▁championship
▁singles
▁approximately
▁Many
▁commercial
▁Empire
▁Portland
▁loss
▁additional
▁Mill
▁actor
▁Ho
▁Scottish
▁come
▁natural
▁location
▁birth
▁food
▁access
so
▁Tour
▁pro
mar
▁movement
▁child
▁Or
▁Conference
▁strong
▁contains
”
▁little
▁Canyon
▁highest
▁Wind
▁required
▁higher
▁Franklin
▁Highway
▁plant
▁towards
▁Avenue
▁municipality
▁itself
▁spent
ig
▁Lord
▁whom
▁Jewish
with
▁independent
▁Dutch
▁Su
▁market
au
▁opening
▁v
led
▁me
▁Lebanon
▁future
▁running
▁Sam
▁operated
▁property
▁III
▁Britain
▁wide
pa
▁victory
▁Ctr
▁move
▁Po
ny
ze
▁trade
▁Young
▁Civil
▁Spain
▁Parliament
▁Madison
▁Bo
▁Te
▁taking
▁week
▁student
▁appearance
▁Dan
▁month
▁Democratic
▁eastern
ship
▁Middle
▁studies
▁Ontario
▁met
house
▁Area
ster
▁money
▁We
▁especially
▁Fe
well
fer
▁award
▁Eastern
▁shot
lu
▁science
qui
▁increased
TV
▁Township
ver
ance
▁plan
▁retired
gen
▁find
▁length
▁Lu
▁annual
▁entire
▁Register
▁But
▁activities
▁Cleveland
▁Philadelphia
▁Silver
▁Further
▁practice
▁officer
▁numerous
▁Over
▁love
▁individual
▁battle
▁Williams
▁Joe
▁winds
▁Live
▁ran
idae
▁score
▁Land
▁issues
▁Gold
▁Track
ber
ius
▁Bank
▁Jo
▁Rose
▁Under
▁senior
▁Polish
ik
▁related
▁thus
▁self
▁management
▁date
▁earlier
ut
ll
▁generally
ium
▁Scotland
▁status
▁associated
▁baseball
vi
▁Afb
▁Baseball
▁course
kin
▁Winter
▁writing
▁Places
X
▁federal
si
▁programs
;"
▁tour
▁changes
▁fact
ful
pe
▁Time
▁traditional
▁Poland
ex
▁woman
▁becoming
▁That
▁issue
▁matches
):
ite
ney
▁bridge
end
▁material
▁Three
▁sometimes
▁Members
▁Open
▁Queen
▁Band
▁Province
▁Assembly
▁Twp
▁below
min
▁too
▁according
▁Israel
▁Television
▁size
▁serving
je
▁thought
▁complete
▁limited
▁bass
▁mostly
for
don
▁Vol
▁Can
▁Book
▁represented
▁indicate
ino
▁launched
▁energy
dy
▁Hospital
ran
▁Ca
▁Development
▁majority
▁Library
language
▁Cape
om
pur
▁decision
▁already
▁army
▁lived
▁county
▁legal
▁economic
▁selected
▁forced
▁Game
▁cost
ists
▁Asia
▁footballer
▁noted
jo
cha
▁Mac
▁multiple
▁nine
▁Show
▁drama
▁Health
▁Bi
▁Their
▁Morgan
▁remains
▁need
▁Special
▁tracks
▁turn
▁call
ft
ata
▁passed
▁Jr
▁hours
▁leaving
▁minor
▁Night
▁Ke
ier
▁Rome
▁Run
▁Jan
▁Jim
▁Head
▁feature
ating
▁names
▁ships
▁cases
▁command
▁structures
▁Marion
▁terms
▁entered
▁heavy
▁standard
▁If
sch
▁rate
lan
▁report
red
▁Coast
ck
▁increase
▁Daniel
ung
▁Jean
▁n
▁Wood
▁seat
▁uses
▁Centre
town
▁Mike
ot
▁Detroit
▁appearances
▁Song
▁evidence
▁Republican
▁centre
▁shown
▁communities
▁clubs
gar
▁ice
▁Bob
▁Ba
▁r
▁Ver
▁lines
▁hockey
▁En
du
▁sister
▁religious
▁appears
ski
▁Bridge
▁separate
▁Field
▁Del
▁initially
▁!
▁give
▁complex
▁prior
▁famous
▁Lo
ru
▁recording
▁Maria
▁border
▁Asian
▁overall
▁better
▁Foundation
▁relationship
ab
▁expatriate
▁Na
▁Chief
▁plays
uk
▁medal
▁longer
yard
▁Am
á
▁chief
▁Cambridge
▁Governor
▁department
▁personnel
now
▁minutes
+
▁Da
Re
▁remaining
▁extended
▁going
ure
▁meeting
▁native
▁Victoria
▁create
burg
ap
ology
▁effect
port
▁my
bi
▁medical
▁Director
▁Elizabeth
▁weeks
▁Squadron
▁larger
▁et
▁Power
▁engine
▁subsequently
▁policy
che
▁Spring
▁Ten
▁university
▁today
▁du
▁Free
▁Alexander
▁room
▁cast
Q
▁format
▁l
▁troops
▁claimed
▁Davis
▁Hot
▁friend
▁certain
▁BBC
▁acquired
▁deal
▁oil
▁care
▁takes
▁personal
▁Corps
")
▁actors
▁cross
▁Gar
▁key
berg
ker
▁Cedar
://
▁assistant
ven
▁Mon
▁damage
▁carried
▁officers
▁houses
▁professor
▁historical
▁failed
▁storm
▁mainly
▁Family
▁Latin
▁middle
▁Senate
▁Four
í
▁Tu
▁variety
▁technology
▁Earth
▁Chris
▁particularly
▁hard
▁cities
▁organizations
like
▁starting
▁Both
▁broadcast
ci
▁financial
▁helped
▁got
▁Personal
fa
▁earned
▁Manchester
mann
▁turned
▁Ocean
su
▁Village
▁Oxford
▁climate
▁Ku
▁coast
▁Medal
▁nearby
▁offered
▁Baltimore
▁presented
▁union
▁Marshall
▁train
▁marriage
▁operation
%)
▁provides
po
▁response
▁Har
▁Despite
tu
tic
▁supported
▁missing
▁source
▁covered
▁here
▁proposed
▁sound
▁civil
▁comedy
▁nearly
▁Kong
▁themselves
▁fight
▁Steve
ns
▁believed
▁And
▁Fish
▁word
▁pass
▁Ray
▁Regiment
▁referred
▁en
▁face
ial
▁subject
▁particular
back
▁Nas
▁studied
if
▁inter
▁Premier
▁Bishop
▁Walter
car
hi
▁renamed
▁actress
▁Up
ella
▁residents
▁foreign
▁latter
▁continues
▁Inc
▁responsible
▁cut
▁Mi
▁Biography
▁USA
▁attempt
▁fall
▁Federal
▁Supreme
▁Sha
▁raised
▁Gallery
ura
▁transferred
▁forms
▁cause
▁van
▁Secretary
▁act
▁@
▁recent
▁Las
▁serve
▁More
▁Final
tro
▁Books
▁Anderson
mon
▁Junction
▁finally
▁issued
▁review
▁movie
era
▁Airport
▁Sydney
▁Upper
▁parents
head
▁always
▁Summit
▁Songs
▁Good
▁lack
Delaware
▁Hong
▁leave
gan
▁Islands
state
▁consists
▁composed
▁Media
q
Rhode
▁Lewis
▁levels
▁Bell
▁hospital
▁del
▁metal
▁constructed
▁specific
▁descent
▁£
ren
▁Wilson
ini
▁regional
▁plans
ica
▁Atlantic
▁double
▁managed
▁test
▁Inter
▁done
▁Lady
▁Grant
ara
▁Wtp
▁Community
▁silver
sky
▁article
▁Fox
а
▁Journal
▁makes
yl
▁pressure
▁medalists
gi
▁refer
▁Toronto
▁direct
▁products
▁Another
▁awards
▁Desert
▁Prize
sk
▁editor
ram
▁Video
ong
▁problems
▁Houston
Nnw
▁semi
▁Harbor
▁husband
▁directly
▁Par
▁census
▁Howard
▁Ch
▁Salt
▁Arthur
▁Main
 –
▁despite
▁Hamilton
▁News
▁Justice
▁Ti
▁experience
nes
▁treatment
▁primarily
▁enough
▁multi
dale
har
▁Swedish
▁news
▁vote
▁episodes
▁destroyed
ju
▁allow
▁Clinton
▁Ken
▁Project
van
▁online
▁soldiers
▁theory
▁Business
ou
ach
▁upper
▁assigned
▁chart
▁heart
▁Nations
we
tes
▁Golden
▁families
▁society
org
vo
▁pay
▁Duke
▁divided
▁influence
ita
▁build
vin
▁becomes
▁function
▁winner
▁Out
▁Ya
▁might
pp
▁newspaper
▁branch
▁Brazil
▁Des
▁Ta
ator
▁host
▁Hills
▁label
Ene
ron
tor
ud
▁discovered
net
▁likely
▁mission
▁background
▁Death
tz
▁Transportation
▁End
▁towns
▁Also
▁arrived
▁von
▁Ford
ens
war
▁Network
▁Social
▁Master
▁council
▁removed
▁voice
▁Douglas
▁facilities
▁star
▁Hu
▁Rsch
▁Che
▁province
▁fifth
▁told
▁tropical
▁yards
op
▁Stadium
▁Adams
▁continue
▁growth
▁Corporation
sville
▁executive
ee
▁featuring
▁politicians
▁Logan
▁listing
▁Salem
more
▁Korea
ola
▁king
▁crew
▁promoted
▁Light
▁mountain
▁Yu
▁transport
▁distance
▁System
▁articles
▁whole
▁pp
о
▁("
▁Columbus
▁musicians
tr
ell
▁Country
row
▁Ni
▁Technology
▁numbers
▁purchased
▁piano
▁Pt
cy
▁Brian
▁activity
class
▁equipment
▁Fa
▁Springfield
▁prison
▁era
▁gas
▁capacity
▁nature
ray
▁dance
my
ev
▁quickly
▁travel
tion
air
let
▁Tim
▁Glen
hu
▁Human
▁Notable
▁individuals
▁relations
▁youth
ors
▁effects
ward
▁projects
▁Memorial
▁begins
▁Francis
▁des
▁defeat
▁administration
▁produce
▁stories
▁leaves
▁appear
▁cultural
▁traffic
bar
▁asked
▁Junior
▁meaning
ow
▁Pakistan
▁Fairfield
▁Branch
▁Netherlands
▁channel
ette
▁academic
La
▁MD
▁Tony
ez
ised
▁Ra
▁parish
▁ancient
▁lives
▁estimated
▁Ga
▁Stanley
▁elements
▁Anthony
▁Andrew
▁direction
ec
▁Si
▁Naval
▁genus
▁cell
▁Representatives
use
▁immediately
▁Jefferson
▁surrounding
▁champion
sha
▁friends
▁smaller
▁security
▁initial
▁Part
▁scene
▁elections
▁Ja
▁amount
▁split
▁plants
▁value
lon
nt
▁notable
▁passes
▁blue
▁our
▁camp
▁moving
▁officially
▁view
▁Ad
▁solo
▁Captain
▁computer
disambiguation
▁portion
▁conducted
▁candidate
▁Mission
▁potential
▁fish
▁wanted
▁g
▁secondary
▁Boy
▁Phoenix
▁page
▁rugby
▁Ed
▁Atlanta
▁Storm
zi
ries
▁forest
▁join
▁comes
и
▁dedicated
▁Temple
▁workers
▁sites
▁Cast
▁Studies
▁Far
▁disease
. 
▁Ph
▁inside
ise
▁stop
▁sources
kar
light
▁Trail
▁basis
▁Stephen
gu
▁graduated
▁Class
fi
▁distribution
▁Mass
▁Butte
▁sign
▁alongside
▁whether
▁unknown
ani
ox
▁reach
▁Lodge
▁text
▁Region
▁Op
▁Ministry
▁bank
▁floor
▁Sunday
▁territory
▁master
▁Er
▁Medical
▁Sal
▁green
▁Orleans
▁settlement
▁institutions
▁Ro
▁Cha
▁saying
▁winter
▁Miller
▁Geography
▁Clark
▁Pat
▁highly
ay
▁rule
▁Fame
▁Liberty
▁percent
▁poor
▁titles
ku
ring
▁Professor
▁Hartford
▁words
ada
▁leaders
ped
www
▁meet
▁follows
tal
▁tree
▁Mexican
▁managers
▁NFL
▁operating
▁designated
▁vs
▁prominent
▁Round
▁Miami
▁competed
▁Korean
▁Marine
▁Kent
▁coaches
▁Prime
▁cancer
▁cars
▁Peru
▁Carl
▁planned
▁paper
▁ranked
▁b
▁older
▁respectively
▁spring
ich
▁yet
▁Melbourne
▁bar
▁Col
▁firm
ities
▁rules
▁revealed
▁museum
▁charge
▁needed
Le
▁miles
▁Richmond
▁Pu
▁winners
▁method
oc
▁Moscow
▁flight
▁ability
▁Ban
▁Rochester
ide
▁Simon
▁combined
▁occurred
▁Norwegian
stone
▁rural
art
▁historic
Ssw
▁theatre
▁engineer
▁Q
ence
▁efforts
▁Mel
style
▁types
▁Mountains
US
▁Earl
▁Works
▁parties
▁Base
▁typically
▁literature
▁owner
▁murder
▁Average
▁mixed
▁letter
ken
▁estate
▁ordered
ii
ice
▁Bend
▁keep
cher
▁districts
▁Albert
▁Athens
▁Engineering
▁captain
▁Sweden
▁Foreign
▁intended
ena
▁idea
ett
▁scoring
▁Before
▁trial
▁serves
ano
▁suffered
▁poet
▁job
▁Bre
▁Ge
St
▁hosted
▁drums
see
illa
▁novels
▁Sky
▁remain
▁Like
▁Brook
ric
▁transfer
▁mass
▁fellow
▁reduced
▁recently
▁store
ari
ick
▁Born
▁quarter
▁giving
ula
▁Val
▁interview
▁Management
▁models
gon
▁mentioned
▁Sources
▁weather
▁architecture
▁expanded
▁grew
▁Each
▁Pi
▁Bradford
▁campus
▁engineering
▁Will
▁captured
▁Sri
▁Univ
▁Season
over
▁rail
▁Mal
▁trains
ning
▁BC
▁Bowl
▁gun
▁forward
▁Kings
fe
▁Monroe
▁code
yn
▁quality
ize
▁agreement
▁Bu
▁stone
▁programming
▁offers
▁Holy
▁urban
▁analysis
ix
▁Walker
▁Sciences
track
▁commonly
▁der
ensis
▁cells
▁Pe
▁declared
▁Rapids
▁Han
▁resulted
▁languages
▁account
▁Political
▁Rugby
▁agreed
▁adopted
▁Miss
▁participated
▁twice
▁birds
ston
▁Review
▁Plymouth
▁software
▁figure
▁Beaver
▁coming
▁organized
▁focus
ever
wing
present
yan
▁lies
▁NY
▁Matt
▁hold
▁Natural
▁Brunswick
▁facility
▁etc
▁Modern
▁table
▁Jews
▁resulting
▁Cal
▁presence
▁break
▁Horse
▁defense
tri
▁Cave
▁feet
▁Regional
▁Jordan
ins
▁losing
▁attention
▁Mad
▁Lock
▁bronze
tel
▁Hart
▁prevent
▁northeast
▁largely
▁newly
▁principal
tan
▁problem
▁street
▁block
▁Independence
▁physical
▁injury
cho
low
▁draft
▁Christ
dar
mel
ero
▁difficult
▁documentary
▁Culture
▁clear
ā
▁Wayne
▁Dallas
▁dead
▁Dale
her
▁Bibliography
▁Wells
▁Channel
▁lake
▁Newcastle
▁Ex
▁Albany
▁except
▁Pittsburgh
▁regions
▁Za
▁recognized
▁Guard
▁Emperor
▁Down
▁expected
▁Sound
bu
▁Superior
▁Billy
▁Harry
▁press
ane
▁crime
▁Bur
▁Vi
▁trees
law
▁Ki
▁Haven
▁conference
▁promotion
water
▁Lawrence
▁Diego
▁Short
▁founder
▁governor
ase
▁approach
án
▁therefore
▁compared
which
▁Warren
▁Story
▁officials
nie
▁Willow
▁protein
▁ball
▁actually
▁Philippines
▁Ali
FM
▁Services
▁Greece
▁color
▁Newark
val
▁Hal
▁Champions
▁deep
▁vehicles
▁gained
▁Durham
ala
▁widely
▁creation
od
▁Former
▁finish
▁Eagle
▁Due
▁positive
▁formerly
▁pop
▁Ham
▁identified
▁Way
▁Sub
▁Sch
hill
▁chairman
▁Petersburg
▁Webster
pre
ile
▁library
▁digital
▁exchange
ative
▁accepted
▁faculty
▁Norway
ó
▁blood
yo
▁Infantry
▁Back
▁Ann
▁probably
▁teacher
tus
▁Cheyenne
ping
ris
▁beat
▁share
▁Ag
▁sector
▁Israeli
▁intersection
▁risk
▁impact
▁environment
▁Your
ding
▁Not
▁providing
▁Design
▁product
▁couple
ser
▁nation
▁Professional
▁stand
▁unique
▁connected
▁onto
▁Salisbury
▁follow
▁Ice
▁Mesonet
▁positions
▁Alan
not
▁platform
▁Garden
▁Thompson
▁villages
▁minister
▁contemporary
▁formation
▁Antonio
▁dark
▁Allen
▁kept
▁Building
▁authorities
▁sales
▁composer
▁greater
▁titled
zo
▁wins
king
▁Cor
▁concept
▁attacks
▁Place
Ma
▁Pond
▁Bush
▁Heart
▁committee
▁knowledge
▁Iran
▁Ash
▁concert
▁bus
▁Sar
can
dra
▁Gu
rum
▁Birmingham
▁reports
▁Stone
▁tax
▁Children
▁wall
▁granted
▁Billboard
▁profile
▁goes
▁Between
▁Shi
▁Eric
▁Christmas
▁content
▁Ball
▁leadership
▁safety
▁Ross
▁buried
▁journalist
nan
▁classical
▁situated
board
▁Fair
▁tower
med
▁Freedom
▁Magazine
ea
▁Ber
▁tells
▁acting
ph
▁Vernon
▁Wall
▁paid
og
▁Clayton
▁Battalion
▁Quebec
▁Tre
▁industrial
also
▁protection
len
▁Alberta
▁versions
▁passing
▁Collins
▁Railroad
▁notes
▁Pine
▁Real
▁sportspeople
▁global
▁Member
▁Moore
▁Philip
▁politics
▁Stewart
▁taught
▁receive
down
▁visit
▁develop
▁true
▁alternative
▁Cat
▁super
▁Space
▁Hockey
▁Fall
▁search
band
▁big
ions
▁Norman
▁Mu
▁Switzerland
▁Today
▁draw
ros
▁Cook
ep
▁Turkey
▁Among
▁cannot
died
▁purpose
▁growing
▁Juan
top
▁Czech
▁racing
▁Boise
▁origin
▁effort
▁animals
del
▁Arab
▁+
▁agent
▁twenty
▁Liberal
="#
▁Mem
▁Mills
De
burn
▁arts
▁expansion
▁Federation
▁marked
istic
▁resources
tre
lie
▁Glasgow
▁Heritage
▁protect
▁morning
▁Brazilian
▁allowing
▁stock
▁claims
▁completely
▁nominated
▁Medicine
▁Va
▁castle
cu
▁Bal
ria
▁Harvard
▁offer
ky
▁Adam
▁farm
▁housing
▁festival
vis
ery
▁supply
▁commander
▁performances
▁DVD
▁classes
wan
▁square
▁Vietnam
▁Dar
▁Affairs
▁volume
▁Frederick
▁Expatriate
▁Ve
▁drive
▁Reno
▁arms
▁Ci
gate
▁existing
▁Pen
ida
▁image
▁Khan
▁gives
▁critical
▁Max
▁Production
▁electric
▁Campbell
▁Dover
▁adult
▁Austria
lic
▁younger
gy
▁Schools
▁Senior
▁girls
▁Ram
ag
▁Swiss
▁yellow
ible
▁Rocky
▁Kim
▁Sand
▁Kingston
▁tried
▁Twr
▁Tar
▁und
▁Argentina
▁temple
▁Basketball
▁Dublin
▁Anna
▁honor
tin
▁Because
▁educated
▁Gordon
ight
nia
▁returning
▁Nick
▁arrested
▁relatively
▁fiction
▁vehicle
▁horse
aka
▁oldest
▁administrative
▁Kar
▁Wright
▁know
▁crossing
▁roles
dia
Al
point
▁terminus
ple
▁conflict
▁joint
▁extra
▁stay
▁Tokyo
▁bought
ok
▁Third
▁fuel
▁Bureau
▁Cemetery
▁Patrick
▁fully
adr
▁Iron
aw
ub
pi
▁Information
▁Entertainment
We
pin
▁dropped
▁allows
▁airport
lane
▁weight
▁applied
▁situation
▁Comics
hr
▁Mer
▁Dave
▁charts
▁suggested
▁Seattle
▁Lead
▁IV
ability
▁Reserve
▁Bel
▁Ron
res
san
ore
▁Orchestra
ble
▁Lexington
▁Administration
▁Mor
▁Nashville
▁box
▁hurricane
ón
ff
bel
▁Several
▁backing
▁combat
▁Brigade
▁Albums
▁Week
▁Gray
▁Ju
▁says
▁port
▁homes
▁Jeff
ama
▁Anne
▁Wfo
▁Spencer
▁Cumberland
▁Player
▁Sidney
▁Test
▁Program
bra
▁MP
▁Bear
ō
mat
known
▁obtained
No
▁stadium
▁pair
▁covers
▁stars
▁sex
▁fighting
▁FM
ical
▁compilation
▁Age
▁spread
shi
▁opera
▁figures
▁retirement
qua
▁bring
▁partner
▁Turkish
▁heat
▁necessary
▁Wilmington
▁begin
▁Ab
▁properties
ks
▁wine
▁approved
▁corner
▁Kevin
gal
▁Five
iz
▁Wa
▁sixth
▁Musical
▁claim
*
▁scientific
▁succeeded
▁converted
▁Socorro
▁Vo
tis
▁headquarters
▁environmental
▁Doctor
▁Gor
▁Hotel
▁holding
▁Portuguese
star
▁Belle
▁Singapore
▁sexual
▁Princeton
▁Win
▁Isle
▁Divide
▁felt
million
▁Gary
▁Ger
▁killing
▁Guide
▁wing
▁Bus
oma
▁Moon
▁Donald
▁simply
▁materials
▁settled
▁Hudson
▁roof
▁Commonwealth
▁Fu
▁reference
▁Mitchell
▁kind
season
▁squad
▁turns
▁Metro
▁citizens
▁Transport
west
▁merged
▁votes
▁defined
▁height
▁look
▁Internet
▁things
ale
▁Who
▁authority
▁fans
▁unable
▁perform
▁extension
color
▁Forks
▁effective
▁Welsh
▁Mrs
▁Cooper
▁Montreal
▁normal
▁Sol
▁Ltd
oli
▁judge
▁bio
▁Kelly
▁mayor
Mo
▁Florence
▁habitat
▁Independent
▁Revolution
▁Sioux
▁employed
▁musician
▁consecutive
▁guest
▁aired
ai
eg
▁subsequent
▁extensive
▁confirmed
cer
▁teaching
▁girl
▁domestic
▁pilot
▁publication
▁sides
▁Ly
▁Toledo
▁ending
▁dry
▁theme
pu
▁memory
▁Murray
▁entrance
ert
▁Danish
▁Singles
▁Anti
▁northwest
▁Local
▁passenger
▁tradition
▁Play
dan
long
▁creating
▁showed
vel
▁Last
▁boat
▁refused
▁gene
▁reason
▁Perry
▁lyrics
kan
▁Buildings
ese
▁Baron
▁Lieutenant
▁bi
▁ends
▁Samuel
▁causing
▁Security
▁Wild
▁achieved
▁hall
▁opposition
ye
▁southeast
ip
▁mis
mus
▁broke
▁inhabitants
din
▁Flat
ew
▁Ward
level
▁Wing
pt
▁failure
▁Forces
▁secret
▁locations
▁Bristol
▁Plot
▁Boys
▁sense
▁da
▁jazz
sta
▁fields
fn
▁Only
▁poly
▁chosen
▁frequently
▁Somerset
▁Buffalo
lis
▁Die
▁letters
▁attempts
dal
▁Plan
▁hands
▁straight
▁Milford
▁entry
▁seats
▁drug
par
wi
mes
rie
▁Gra
▁Girl
▁machine
It
▁Austin
▁Opera
key
ika
▁Square
▁Sport
▁reviews
izing
▁attempted
▁Bad
ants
▁Command
▁Anchorage
▁Kan
▁advanced
▁...
▁enemy
ious
ps
bit
▁iron
▁Commander
▁Dis
▁aid
▁Morris
▁visited
▁methods
▁occupied
aya
stra
from
az
zu
our
▁Pole
sy
▁Cho
▁brand
▁agricultural
▁Queensland
sey
▁Trust
▁read
ther
▁PA
▁bill
▁reaching
▁NCAA
mont
▁Agency
▁Ted
▁Tor
▁brothers
▁holds
▁Ur
▁Labour
cus
▁web
▁Dean
▁occur
▁equal
▁nuclear
bert
▁painting
▁soccer
▁roads
SR
▁Pope
▁Prior
ae
▁races
ax
▁economy
ture
▁Jay
▁billion
▁Price
▁entitled
▁Alex
uri
▁increasing
▁performing
▁How
▁phase
ct
▁Note
▁simple
▁Para
▁Delta
▁Kal
▁Crystal
dis
▁Ryan
fo
work
pro
iya
▁Now
▁Trans
▁Heights
▁Hope
▁Trade
▁LINEAR
▁question
▁attacked
▁actions
▁Providence
▁Sportspeople
▁steel
▁consisted
ington
▁permanent
▁flat
▁grand
▁opposed
▁functions
▁Mason
▁Hay
▁offices
▁Pop
▁shortly
▁Rio
▁rank
▁Georgetown
▁card
▁commissioned
▁income
ua
▁toward
view
▁abandoned
▁Meadows
▁Roger
▁statistics
▁choice
▁Puerto
▁vice
▁fought
▁Bor
▁grade
▁avoid
▁recognition
▁Stuart
▁technical
uch
▁Powell
▁painter
▁sons
▁leg
▁audience
▁parallel
▁Champion
uncredited
▁slightly
▁piece
▁shared
▁Rob
▁Hi
▁monitoring
▁Hurricane
▁About
▁View
▁Upon
▁Cu
Star
▁Pierce
des
bro
ological
▁Energy
▁Randolph
▁incident
ction
▁copies
tur
▁session
▁Native
▁competitions
▁Phil
ret
ug
▁Abbey
▁occurs
▁flag
▁Karl
▁laws
▁Fred
▁Aberdeen
oni
▁scale
▁Mag
▁Work
▁metres
▁powerful
▁architect
▁ultimately
▁Global
▁Austrian
▁Bra
▁lot
▁acts
▁Athletic
sis
tar
▁containing
▁counter
sson
▁inspired
▁Bruce
iv
▁Hungarian
lar
▁Belgium
▁Reading
▁planning
▁contact
▁Tr
▁Harris
ban
ations
▁sets
▁Les
▁Background
▁Sta
▁condition
▁routes
ona
▁foot
sel
▁starring
▁Executive
elle
▁Non
▁something
▁beyond
▁Rev
ele
▁receiving
form
▁determined
die
▁Lakes
▁needs
▁improve
▁Ruth
▁hotel
Wnw
▁Yo
▁finds
▁description
▁map
▁Girls
▁Ru
▁application
▁damaged
▁heads
zy
▁rare
▁Egypt
▁religion
▁José
▁purchase
▁Pra
▁founding
▁enter
▁peak
Man
▁Henderson
▁Min
▁driver
▁Saturday
▁Com
▁Box
▁peace
bus
▁selection
▁signal
▁Nelson
▁Bismarck
▁Metropolitan
▁basic
▁hair
▁Dance
▁contained
gel
▁municipal
▁fine
▁maintained
▁zone
▁Son
▁Centerville
▁Publishing
▁Cole
▁EP
▁guns
▁Medford
▁Gulf
▁Sarah
▁target
▁exist
▁pieces
▁historian
$
ela
▁invasion
▁Hunter
bury
AM
▁Prix
▁Range
▁Monticello
▁Malaysia
▁rise
ball
▁Asos
▁motor
▁centuries
▁Denmark
▁Muslim
▁Gen
part
las
▁flow
▁matter
▁hired
▁Volume
▁Nova
▁connection
ado
▁ring
▁programme
▁loan
▁Page
▁screen
▁singers
▁Side
nik
▁sport
▁Gro
▁calls
▁Pleasant
▁Cap
lock
▁mine
▁weapons
▁Sterling
▁Russell
▁neighborhood
▁Louisville
▁Vice
▁animal
ben
▁What
▁escape
▁aged
▁Farms
▁setting
▁fleet
▁forests
▁Cincinnati
▁Chart
▁strength
▁Romanian
▁injured
▁faced
▁champions
▁Jesus
av
ians
aki
▁represent
▁junior
ato
▁identity
aria
rin
ib
▁Hatchery
▁*
▁valley
pan
olo
▁Il
ö
▁Devils
▁disc
▁Margaret
▁sought
▁Cultural
▁educational
▁behavior
▁introduction
▁interchange
ire
▁affected
▁Hollywood
vcard
▁Shin
▁Ski
▁rear
▁Record
ification
▁se
ned
▁Gas
▁Wolf
ska
▁recordings
▁heavily
▁sale
▁im
mark
▁patients
▁learning
▁Harrison
▁businesses
▁directors
▁Dead
▁script
▁tri
related
including
▁eye
▁Portugal
▁Just
▁Youth
▁brown
run
▁brief
bre
▁Dry
▁Victor
▁shape
▁Iraq
▁Kitt
ill
isation
Con
▁starts
▁Convention
▁Operation
▁boys
▁Ste
▁standards
▁Roy
ral
▁Dor
▁representative
▁royal
mor
ue
sol
▁Cascade
▁investigation
▁your
▁say
▁decades
▁Unit
▁herself
▁Training
ans
▁Mid
▁partnership
▁FA
▁resigned
▁display
worth
▁wood
▁Ferry
gh
▁defensive
▁want
▁Den
▁solid
▁try
PS
▁Ukraine
pha
stein
▁glass
▁Tan
▁funds
▁contributed
▁operate
Bo
▁Lane
▁laid
▁Colonel
▁Monthly
▁advantage
▁Brooklyn
▁developing
▁Locks
▁hits
▁Hol
▁generation
▁Parker
▁Worcester
▁Rangers
▁Dark
▁Male
▁sell
PA
cre
▁Dick
▁critics
▁derived
vent
▁para
▁Imperial
▁funding
▁Monte
▁Argentine
▁Vista
▁Ottoman
▁Conservative
▁severe
▁Greenfield
▁briefly
▁sp
term
▁Jane
SA
▁Studios
RA
book
living
oon
▁combination
▁respect
▁Athletics
▁alone
▁Milan
▁voted
bal
▁representing
are
▁edge
▁Model
▁Academic
ming
▁kill
ef
▁collected
▁Burlington
rate
dom
▁Our
▁entirely
▁Burke
▁installed
▁Once
▁contrast
▁finishing
ves
▁successfully
▁cricket
▁Brg
AP
▁bodies
He
▁photo
▁residential
▁expressed
uc
▁Jacksonville
▁replace
▁comic
▁Christopher
▁fashion
▁doing
cc
▁promote
▁compete
▁Personnel
eri
▁narrow
ade
bin
sburg
▁serious
▁Judge
▁reasons
room
▁plot
sur
▁contest
▁establishment
▁think
▁step
▁Reception
▁heard
▁Twin
▁Armenian
▁regarding
▁vol
▁specifically
▁southwest
▁internal
▁Hampton
▁Capital
rat
▁independence
▁Jason
▁trans
▁islands
▁Officer
ified
▁Seven
▁closely
▁passengers
▁path
ori
cent
TA
▁downtown
osa
▁supporting
▁resistance
▁incorporated
▁Mobile
▁Six
▁Ri
aj
▁Primary
▁bit
Sse
▁Key
▁fast
▁Description
▁speech
▁Jimmy
▁Nu
▁Hor
▁adjacent
lay
▁ethnic
CD
▁Enterprise
▁Knight
▁presidential
▁medium
los
▁Ze
▁Front
▁Defense
▁engaged
och
▁Jazz
▁Warsaw
▁Gr
mit
▁causes
▁Small
▁micro
▁Kin
▁Website
▁Mat
▁worldwide
▁bands
▁Indians
▁junction
fu
▁Diocese
▁Carter
win
▁Buck
▁Norfolk
▁Pierre
▁strike
▁exhibition
ons
elli
▁price
mic
▁Flora
▁Islamic
▁Charleston
▁actresses
▁Jose
MA
▁focused
▁Orange
▁Tigers
type
mir
▁Chelsea
▁agency
▁write
;"|
tern
▁Vienna
▁trying
▁AM
▁coastal
▁coal
▁poetry
▁violence
▁FIFA
▁Section
▁Honours
▁Though
▁Princess
▁Elementary
▁reserve
ole
▁carry
ration
lam
▁consisting
tha
▁Stevens
cal
▁Bird
▁Mansfield
rt
▁license
▁mix
set
rus
▁Angel
▁refers
▁quite
▁Ukrainian
ms
east
▁Bernard
▁boy
▁Villa
▁Stra
qu
▁tail
▁walls
Ha
▁Tur
▁DC
▁humans
▁Organization
▁commission
▁guard
▁Tamil
▁broad
▁literary
gun
▁contain
▁existence
non
▁Deer
▁believe
▁Bon
▁courses
▁Dun
▁squadron
▁Charlotte
▁Fork
▁franchise
▁railroad
▁category
▁Baker
wick
▁spot
▁prize
▁Pumping
▁Singh
▁core
▁producing
▁reduce
Pro
▁Indianapolis
▁Johnny
▁expression
ave
bach
▁Gregory
▁launch
▁techniques
▁MPs
▁factory
▁broken
▁powers
▁Weather
Pa
▁Alpine
▁Sen
bb
▁lawyer
bridge
ock
▁improved
▁Der
jan
▁Players
▁females
▁Rogers
▁Carlos
▁Robinson
▁scheduled
▁Var
▁twelve
but
▁Je
▁Geneva
meter
master
ash
lum
▁Cathedral
▁classic
▁Racing
č
▁Fayetteville
▁criminal
▁Brothers
▁foundation
▁Shah
▁Peace
eh
▁Constitution
▁sections
▁flying
▁proved
▁orchestra
▁attend
▁Liverpool
▁leads
cur
▁establish
▁Lower
▁collaboration
▁Gi
▁negative
Me
▁Then
▁acid
▁pick
▁Fargo
later
▁engines
▁mind
▁Platte
▁Ol
▁opportunity
▁regiment
▁Cold
▁Stan
▁translation
▁fan
nis
▁Denver
▁Soccer
▁AD
▁interior
▁Bern
▁org
▁chain
▁trip
▁orders
▁dates
▁Food
▁UN
▁Giants
▁Edition
▁joining
▁churches
rich
▁Mayor
▁meant
▁cap
▁Butler
š
▁Vancouver
▁employees
▁electronic
til
gg
▁Cornwall
▁cold
▁ceremony
▁gain
▁Fighter
af
▁commune
▁Footballers
▁Dream
▁Fund
▁distinct
▁Hy
▁invited
▁Ce
▁Bethel
To
▁capture
Be
hal
▁Lewiston
▁Palace
ved
▁landing
eng
▁edited
▁Here
ali
▁Oliver
▁Colombia
▁mill
Ra
▁Paradise
▁duty
fefefe
▁Kennedy
▁ways
▁Marie
▁Broadway
▁formal
▁applications
▁rivers
▁hot
▁struck
▁municipalities
▁agencies
▁Lac
▁stores
▁possibly
▁getting
▁folk
▁determine
▁Andy
▁Legislative
▁Alfred
▁Midland
▁offensive
▁Sur
▁Dayton
▁depend
▁Jon
mp
▁Ranch
▁Romania
ets
▁Construction
▁brain
ties
ory
BS
ava
▁Vegas
▁Hans
ić
▁Finland
▁factors
▁fishing
▁scenes
▁Medalists
▁graduate
▁Horn
round
▁Luis
▁Rights
▁soil
▁influenced
▁Chile
▁Father
▁importance
▁involving
iki
▁Crown
▁bishop
▁Grande
▁Orthodox
gra
▁greatest
▁advance
▁http
ova
kov
▁budget
▁Circle
▁championships
▁touchdown
▁Warner
▁Honor
▁Communist
▁sequence
▁bottom
▁Climate
▁Ana
▁Economic
ys
▁trained
final
▁ABC
▁easily
▁armed
atus
▁owners
▁Char
tte
ora
▁Staff
▁Np
▁Cam
▁Sacramento
▁restored
▁organ
▁Saints
▁ruled
hood
ene
▁x
▁skills
▁adapted
nce
?"
▁survived
▁gets
▁Belgian
nic
enberg
▁flood
▁maintain
▁Montpelier
▁Reservoir
▁pages
▁details
▁labor
▁Moose
▁Carr
▁scope
▁actual
▁Lt
mb
who
ä
▁Common
▁candidates
una
▁Lin
▁Charlie
▁Off
▁Call
ces
▁caught
▁NBA
ual
You
▁Swan
▁accident
▁decade
▁tornado
▁Mont
▁counties
▁justice
▁Writers
▁Disney
▁charges
▁offering
▁composition
▁Lab
fish
▁Fairbanks
▁costs
▁Blues
▁Alliance
▁Harvey
▁regularly
▁Years
▁paintings
▁registered
▁save
▁Indonesia
▁factor
▁reaction
▁hour
▁Tra
▁skin
▁Collection
IS
▁Manhattan
RS
▁stands
▁arrest
▁Magic
ami
▁Graham
▁meets
▁Market
Ro
pm
election
▁goods
▁Barry
▁fruit
chin
▁Mil
▁imp
▁Lang
▁Studio
▁grounds
BA
▁Are
▁Census
lor
▁visual
▁Control
▁Norton
▁translated
▁Canal
aga
▁DNA
▁Tournament
▁carbon
▁hill
▁Maple
▁stating
▁Race
▁DJ
▁distributed
▁membership
EC
▁CR
▁Rod
▁debate
cia
!"
▁controlled
▁RAF
▁Sox
gio
▁hundred
▁singing
▁Hebron
▁Senator
▁Farmington
▁medicine
▁Rick
▁statement
▁items
▁Yorkshire
▁Ian
▁Wellington
ila
▁Turner
▁Stage
▁Ob
▁Bangladesh
▁regarded
▁universities
▁Mud
▁tries
▁talk
▁Americans
▁operates
▁steam
▁Hastings
▁Guthrie
An
▁Kh
▁Report
▁Alumni
▁Ren
▁Tech
▁Cricket
▁Guinea
white
▁images
▁address
▁segment
mis
▁Euro
els
▁Child
▁replacement
get
lip
ess
▁defence
finals
cm
▁accused
▁chose
▁Thus
▁seems
▁chair
▁Bat
▁Raj
▁documents
▁occupation
▁bird
hand
▁Ak
▁Mas
▁Site
▁rich
▁lands
▁divisions
ei
▁Shu
▁conduct
▁garden
▁secretary
▁grow
▁Urban
mile
ira
▁Jacob
▁vocal
▁Challenge
▁contributions
▁prime
Mar
▁Essex
▁Porter
May
▁Arena
▁objects
▁typical
▁mouth
▁residence
hy
shan
▁duties
▁Hell
▁intelligence
▁interests
▁composers
OS
▁context
▁phone
▁expedition
▁Mur
lau
ose
▁Sin
▁Sim
▁motion
place
pen
▁animated
▁retained
▁Ye
▁Deep
▁chance
comb
hen
▁returns
lia
▁Lan
▁Cre
chen
vers
▁Deputy
▁arrival
▁values
▁Soul
▁wave
ović
▁crosses
▁Tower
▁UEFA
▁views
sal
▁Current
▁Trinidad
inch
▁describes
▁reform
▁really
awa
▁Arm
▁Albion
▁spin
ré
▁Bro
▁seventh
▁Authority
▁dynasty
▁tennis
adi
▁wild
▁Woman
▁Matthew
▁Motor
▁freedom
uck
▁Cherry
list
▁Drake
▁Faa
▁argued
DP
rid
▁assistance
▁Rail
▁measures
▁Aurora
▁Evans
▁ownership
▁Draft
▁Block
▁Sharon
▁Craig
tt
▁standing
▁legislation
▁Galena
▁Hungary
▁CA
▁brick
▁par
ates
▁Album
rk
var
ito
▁classification
▁Alexandria
▁soundtrack
▁opposite
▁committed
▁Savage
▁Wei
▁drivers
▁experienced
▁evening
ular
▁purposes
"),
▁pattern
under
▁Jerry
▁driving
▁Educational
▁Dennis
▁CEO
▁admitted
nch
nal
▁publications
▁Drive
▁Lost
▁Thailand
▁reception
▁domain
▁Robin
▁Rivers
eb
▁qualified
▁amateur
▁Gil
cut
▁charged
▁Larry
▁cycle
▁successor
lands
▁ensure
▁concluded
▁die
▁Rico
▁users
▁Tro
▁Labor
ugh
▁chemical
bor
▁Conservation
▁Guy
Po
ches
▁Bow
▁Mis
dor
▁Helen
▁Lancaster
▁Bas
▁Wil
▁circuit
▁Bull
▁Manuel
weight
▁Broadcasting
▁coverage
▁calling
▁demand
▁philosophy
▁Cities
▁priest
▁storage
▁Private
▁Liga
▁shop
▁classified
▁delivered
▁wounded
▁tied
▁venues
▁executed
▁Late
▁Wars
▁dam
▁rooms
▁link
▁Communications
▁Foster
tter
▁Em
▁reality
▁participate
mun
▁Nazi
lee
▁protected
▁require
[
▁SC
▁rescue
▁threat
▁banks
ridge
▁theater
▁device
▁significantly
pic
▁stopped
▁Trinity
▁Cuba
NA
nar
▁colleges
▁raise
▁entering
▁journal
▁shooting
▁Kon
chy
vas
▁prisoners
▁Tropical
▁earliest
▁learn
▁infrastructure
tch
▁survey
▁Moran
▁Number
sco
▁Additionally
▁Has
▁Through
▁degrees
▁threatened
▁Finnish
▁Sho
▁colonial
Li
MS
▁Troy
bed
ense
▁Rice
▁Digital
▁suit
▁nor
▁request
▁Populate
▁picture
▁critic
▁Bru
▁trail
▁elevation
▁Count
oo
▁producers
▁ahead
▁clean
▁organisation
most
ü
▁guitarist
▁Middletown
▁Bla
▁Taiwan
▁adaptation
fiction
▁rainfall
▁Au
▁Chairman
▁Classic
▁Dickinson
ister
anda
▁Century
▁door
▁males
▁stood
▁Im
▁didn
▁attached
▁assumed
▁Edinburgh
▁mo
▁persons
▁Trophy
▁rose
hall
▁Code
▁extremely
ima
web
▁policies
▁limit
▁nothing
play
▁Memphis
foot
▁instruments
mu
▁separated
ym
▁falls
▁Afghanistan
▁notably
▁Nature
such
▁Windows
col
ulf
▁why
▁criticism
▁user
▁Madrid
ways
IA
▁Cur
▁Pin
▁publishing
▁missions
▁mountains
▁Hamburg
▁patrol
▁credited
▁Whit
▁appointment
▁Theater
▁Carmel
▁object
▁dog
▁Minor
▁Politics
yu
▁journey
▁Caribbean
▁carrying
▁Os
ras
▁Signal
▁Even
▁headed
nu
▁Tampa
eva
ello
▁Steel
▁drawn
wer
ati
▁measure
MP
▁peaked
mate
▁favor
▁rejected
▁Yellow
boy
▁teachers
▁passage
▁Discography
▁Survey
▁Canaan
▁Fine
▁Munich
▁Elk
▁roughly
▁Gun
ments
▁praised
▁looking
▁plus
▁tall
pet
▁Hydro
▁Publications
▁Rat
▁Technical
▁w
ffbbbb
▁Conway
yne
▁challenge
fin
▁Winchester
▁Spirit
mal
▁Environmental
▁biggest
▁investment
▁Tai
▁Egyptian
arm
▁fired
▁Grace
▁slow
▁exit
▁jurisdiction
▁Jonathan
▁Clear
▁decline
▁arm
uff
▁don
▁Islam
▁Parsons
▁scholars
lov
▁requirements
▁Med
onia
▁Online
▁Shirley
agh
zer
sum
▁Results
▁Taxonomy
▁Zi
hour
▁Literature
▁Sh
▁Oakland
▁linked
▁attorney
▁Baronet
▁Prefecture
cin
ging
▁mining
▁victims
▁Wrestling
▁Pol
▁Virgin
▁magazines
▁Costa
▁Was
General
game
▁Had
▁designer
ien
▁Meadow
ç
Ho
▁Roosevelt
rant
ute
▁Fk
▁LGBT
▁Newton
▁manufacturing
▁Defence
▁percussion
aire
▁check
yer
gre
▁credit
life
▁Manor
▁stayed
▁defeating
▁Action
▁temporary
▁scheme
▁otherwise
▁Hero
▁Knoxville
tail
▁anniversary
▁Benjamin
uli
▁Sandy
▁selling
▁Representative
▁transportation
▁Ker
▁naval
▁fair
Do
br
▁Keith
aff
▁Rad
▁mode
ving
▁Benton
zz
▁Greater
cas
▁provincial
ged
▁constituency
▁signing
▁agriculture
▁Computer
▁Rain
▁Gilbert
▁Companies
ique
far
▁channels
▁k
▁Hard
▁Covington
▁transition
▁Around
▁coaching
▁Fleet
▁ca
▁Ay
▁eyes
kh
bri
▁Cy
▁Concord
cat
▁Case
▁Movement
▁arranged
▁Serbian
▁crowd
▁streets
▁Gene
▁h
▁capable
▁representation
▁fly
▁relative
▁ideas
▁difference
▁flows
▁Dubois
▁losses
▁Gay
▁Dept
▁Mun
▁dating
ille
▁covering
ack
II
met
▁Limited
rit
▁Chu
winning
▁Huntington
▁Auto
▁auto
▁Sulphur
▁SS
▁ago
▁vessels
matic
▁NC
▁Kra
▁frame
ech
▁Bobby
▁Mah
▁Language
▁thousands
▁Moses
▁stream
ili
▁enters
▁Sugar
▁document
▁Iranian
▁crisis
▁Colony
▁sand
▁Barbara
avi
▁courts
▁manga
▁Golf
maker
▁seed
▁am
uma
▁filled
rot
▁ad
LA
▁safe
▁Angola
▁cup
via
▁appeal
eo
▁Penn
▁references
▁processes
▁Profile
▁weekly
away
tone
VA
▁rates
▁Defunct
▁Serbia
▁Kirk
▁Gibson
▁task
▁audio
▁cousin
eta
NS
▁Cardinals
▁Beck
tain
▁element
▁runner
▁filed
▁beach
▁Preston
▁let
ET
rick
▁technique
▁Mediterranean
int
hang
▁Susan
▁Demographics
vy
▁marine
▁ha
▁accompanied
▁Weekly
▁Zone
fl
shire
▁Mir
Vi
▁Cherokee
▁Secondary
▁emergency
une
▁Electric
▁Symphony
▁disestablished
▁Kil
▁Fer
▁achieve
▁stages
▁Fri
▁Cameron
▁boundary
▁Ground
▁mobile
March
▁Cer
▁examples
▁swimming
▁Territory
▁maintenance
▁prepared
▁Borough
▁conservation
▁communication
▁Marc
▁Walla
▁Stars
▁Secret
CA
▁ratio
▁annually
▁Let
▁understanding
▁Dragon
▁constant
bon
▁penalty
▁hosts
▁guide
ME
▁PC
▁replacing
box
▁criticized
▁Pwr
▁formally
▁sun
▁completion
▁Terry
eli
core
▁starred
▁showing
▁painted
ars
rian
▁Cabinet
ante
ín
▁clan
vol
▁string
mount
▁Bible
▁wooden
▁NHL
▁Brighton
▁solution
▁Ty
ably
sley
▁fictional
▁Ros
Ta
▁tape
▁Clay
▁newspapers
▁Express
etti
▁responsibility
▁reign
▁manner
▁Gre
▁Crow
▁Leon
rah
▁Lloyd
▁designs
▁cards
▁broadcasting
▁components
ean
▁Municipal
▁injuries
▁restaurant
nai
ern
▁bat
▁Apple
▁gay
▁continuing
ER
▁Grade
▁poll
▁Originally
▁turning
gro
▁Assistant
▁Web
▁eliminated
My
Wsw
▁minute
▁Card
▁Hand
▁differences
▁bad
▁frequency
SU
story
▁Roads
▁surname
▁Grundy
▁Performance
▁collections
▁relief
▁scientists
▁institution
▁Mother
▁Darlington
bat
LP
▁Jam
▁Holly
dle
▁Systems
▁painters
scale
hol
▁lieutenant
ere
▁meters
▁requires
▁Carson
▁progress
take
dic
ign
▁judges
▁Wu
brook
▁Standard
▁suggests
▁benefit
▁Bulgarian
▁chapel
▁perhaps
▁earth
sin
▁heritage
mas
▁Holland
▁Reform
ob
▁Vincent
▁practices
▁Stock
dig
▁Operations
▁concrete
▁ski
itz
unk
▁virus
▁Nar
▁Mus
uz
▁Dixon
IC
▁Prospect
▁mono
▁fixed
▁cable
▁Beijing
fra
ult
some
▁Future
▁Plains
▁branches
▁Lima
▁Gal
ago
▁helping
▁businessman
▁mark
▁suicide
▁Br
▁traded
▁keyboards
AA
vid
▁learned
▁plane
▁romantic
▁lay
▁ocean
▁schedule
▁assault
bur
▁Pet
▁Pri
SP
▁Woodward
▁strategy
▁Dal
ologist
▁Qu
▁Luke
▁depression
▁CE
▁represents
▁Low
▁window
▁symbol
mond
▁Jerusalem
▁Ring
▁Tribune
▁Milwaukee
▁concerns
▁watch
▁Eddie
▁VI
▁filmed
è
▁convicted
▁cited
▁Wang
▁choose
Ka
▁acoustic
▁Nicholas
▁devices
▁flooding
▁buy
▁Ottawa
▁rapid
▁locomotives
log
▁Steven
▁surrounded
▁Victorian
rod
▁equipped
▁abuse
▁Hunt
▁Ashland
▁Cruz
▁rating
▁Groton
gue
▁ill
▁opinion
▁resolution
GA
rell
DA
▁gang
▁affairs
▁Ac
▁stable
▁aspects
ED
cri
▁Data
▁Ter
SE
▁medals
▁Population
▁Greg
▁demolished
▁Chapter
tle
▁Blood
▁Brad
▁appearing
▁declined
cker
▁Critical
El
▁controversy
aceae
▁designation
▁Alice
chan
▁Universal
▁Mine
▁illegal
All
▁households
▁le
▁Train
▁existed
▁Kir
▁Parish
▁drop
▁Elkins
▁flowers
iana
vor
▁colour
▁option
put
▁proper
Nne
▁transmission
▁Delhi
▁print
lle
▁Buddhist
city
▁soft
▁Philippine
▁Fr
▁Peninsula
▁involvement
▁Tam
▁interested
profit
▁Palm
▁Lou
▁Municipality
▁remainder
▁seconds
nor
EP
ites
▁protest
▁somewhat
▁Chan
▁questions
▁Chapel
▁Bio
▁arch
▁weekend
ced
▁Wallace
▁testing
▁outbreak
▁Fi
▁premiered
▁Hanover
▁sort
▁daughters
▁hip
▁bridges
▁Archbishop
illo
▁vision
▁Th
pal
aro
▁grown
▁activist
▁modified
▁Friday
hn
▁proposal
▁Aviation
▁Meanwhile
lit
").
▁Venezuela
▁Gill
SD
▁papers
▁forming
▁fund
▁regime
IM
▁popularity
num
▁Augusta
▁Nine
oh
had
▁Hardy
▁Ancient
▁Northwest
▁column
▁Fan
BC
Ar
▁Yale
wen
▁Machine
▁celebrated
▁subjects
State
plo
▁reputation
▁Contemporary
making
▁Rec
act
▁Lions
▁Arc
▁Walnut
▁accept
▁medieval
▁longest
▁Montgomery
called
AT
berry
▁Ivan
▁belonged
▁debuted
▁Boulevard
▁Kur
▁str
▁fear
▁innings
▁Simpson
▁Baptist
AR
▁occasionally
▁adding
mad
▁rival
ace
▁huge
▁Roberts
▁visitors
lat
cle
▁terminal
Sa
py
▁thick
▁Kai
▁denied
▁portrayed
▁Sierra
▁Pla
▁secure
▁Raleigh
▁CBS
▁Nation
▁Brooks
▁Micro
▁Refuge
▁Protestant
▁Birds
amp
aries
▁nations
▁Artists
ichi
▁athletes
bank
▁Flight
▁suspended
zen
▁chapter
▁Take
ui
▁playoffs
▁sentenced
▁centers
▁shares
▁Westminster
spect
▁Attorney
▁lasted
formerly
▁tie
▁Norwich
▁Within
ux
▁Rutland
This
▁kick
▁alleged
▁authors
rig
▁hearing
▁vessel
xi
▁Confederate
▁lists
▁Grey
lla
▁jobs
Na
▁household
tti
▁controversial
▁Williamson
▁Scotia
▁competitive
▁boats
ith
sar
AD
▁Charts
▁township
▁Original
shaped
▁Laramie
power
▁Dane
ids
▁camera
wo
▁serial
▁Interstate
▁Leeds
▁frequent
▁Industrial
▁Faculty
▁Nan
▁characteristics
▁Rich
dell
▁eleven
On
▁Marvel
▁Bachelor
▁entertainment
▁Lanka
▁Days
ido
▁Darwin
owned
▁intention
HS
▁Tucson
▁finals
▁Palmer
▁finding
▁Hector
▁repair
▁none
▁Sheffield
▁file
▁percentage
▁artistic
▁dated
gle
▁instrumental
▁wings
▁Millinocket
▁restoration
sto
gli
▁cinema
ters
▁diameter
gin
jun
▁Sheldon
▁Guitar
▁Architecture
▁reaches
▁Get
▁deputy
▁horror
▁Lisbon
▁Bass
ography
▁soldier
hara
cul
yama
▁poem
▁Phillips
▁Mile
▁earning
▁Artist
▁Boulder
▁satellite
▁Eu
OR
▁warm
▁Commissioner
Don
ome
bbffbb
▁rebuilt
▁definition
▁Cass
▁nomination
▁fighter
▁Economy
▁Mars
▁drummer
▁Shaw
▁pitched
▁participation
▁extreme
▁windows
▁summit
▁kingdom
▁Kenai
▁memorial
AC
▁qualifying
▁Chamber
▁worth
▁Ry
▁merger
▁crash
eau
TC
▁childhood
▁Depot
▁underground
▁changing
das
Or
ł
tens
▁Kay
▁Priest
▁Coach
▁Pictures
▁departure
tric
minute
▁Bou
hor
▁volumes
▁Hon
fold
▁shift
▁Alma
▁external
▁landscape
aba
▁strongly
▁Support
▁Yan
▁pool
▁Double
▁Knights
▁speak
▁Jar
▁Care
▁territories
▁indicated
▁artillery
▁bringing
▁Harold
▁rapidly
▁operational
▁employment
▁someone
▁journalists
▁basin
▁Fisher
gram
▁considerable
▁tenure
▁Genus
▁scholar
▁missed
▁Pur
▁Kor
▁Article
RO
▁Mala
feld
▁relocated
▁Mix
▁Berkeley
▁Ser
▁Friends
▁appropriate
▁Hooker
▁Winners
▁Murphy
▁pitcher
▁Lander
▁Vas
▁assist
▁Sci
▁Hindu
▁correct
▁concern
▁density
▁Fo
rag
▁Herbert
▁copy
duc
leg
▁reduction
jar
▁prince
▁NBC
▁seek
▁Regulations
Gu
▁Brand
▁Wildlife
sie
▁pi
▁Release
▁Bomb
▁remove
ware
▁violin
▁poets
IT
rn
▁Hancock
▁Single
▁Ober
▁Neu
▁Ralph
▁videos
▁tank
▁Leonard
bl
▁Soon
pol
oy
▁massive
▁quarterback
IP
pel
▁salt
ides
▁genetic
▁Planet
▁message
RT
▁canal
▁Cork
▁Cow
▁grant
bas
▁bid
ators
▁Saudi
▁tell
▁crimes
uf
▁venture
▁wedding
▁accounts
▁Derby
▁https
Co
▁Ji
▁convention
▁visible
▁posted
▁Coventry
▁obtain
▁widespread
▁alternate
▁Hugh
▁sessions
▁Say
▁walk
▁Happy
▁Croatian
hl
▁Tel
rock
▁personality
▁stress
▁movements
▁effectively
umi
▁bomb
▁Leo
▁associate
▁Unlike
▁Edwards
ij
▁output
▁drafted
kg
▁Pearl
▁honour
▁traveled
▁Vis
hon
film
▁Alta
AL
Br
Port
▁whereas
ough
▁Treaty
eus
▁greatly
▁Copper
▁Drama
inger
▁Comp
▁uncle
▁Cinema
▁Curtis
▁giant
▁instance
izer
hua
.”
▁cat
igan
▁playoff
▁feed
▁Tal
▁Wal
▁ideal
▁Barr
▁happened
▁Mina
▁enzyme
▁liquid
▁Ghost
Lo
▁publisher
ste
rea
try
▁legs
SI
▁Tang
▁increasingly
▁platforms
▁Tommy
▁Powder
▁Industry
▁Barnes
▁conversion
ender
▁tend
▁feel
▁fill
thy
▁approval
gas
kha
▁anything
▁moment
▁Circuit
▁Female
rite
uni
▁printed
▁licensed
▁Mesa
TS
▁Clo
▁preserved
▁Statistics
▁blocks
▁mental
▁visiting
▁competing
▁limits
▁Hat
ld
▁parliament
▁Student
▁duo
▁donated
▁parks
▁Morning
▁Jamestown
ów
▁Bedford
read
▁Campaign
▁Todd
▁Pal
▁populations
nell
▁Dame
▁Travel
tia
▁spirit
▁genera
nica
▁understand
▁Por
action
▁margin
▁Crime
▁Ny
ema
ico
▁Az
▁Policy
▁Mall
▁Beat
ges
▁absence
▁credits
▁whilst
▁Gang
▁Sad
▁opportunities
▁trading
PI
MC
bird
▁gender
▁thirty
▁cargo
▁representatives
▁soul
▁supplies
▁Hagerstown
ear
Mi
its
▁tools
▁Dog
▁Individual
▁gradually
▁Poly
▁Google
▁Legacy
▁strip
▁experimental
▁treated
▁Resources
▁Sullivan
▁Neil
▁tunnel
▁influential
▁ranking
▁Croatia
▁Chang
▁chamber
Go
▁Marsh
een
As
▁fur
▁Muhammad
▁Agriculture
▁Portsmouth
▁photography
▁Nor
anti
▁Landing
▁Kane
lot
▁Protection
▁doctor
▁Reed
▁planet
▁count
▁crown
card
▁explained
▁friendly
▁Tele
▁Knob
ía
Ese
kel
▁Lind
▁Quincy
▁historians
▁poems
▁markets
▁connecting
oku
▁USS
▁anime
▁Crawford
▁Watson
▁Gabriel
▁Sara
TE
▁Anglo
▁fit
hole
itt
▁immigrants
▁Milton
▁recommended
▁Catherine
▁Chester
▁Until
▁tribe
▁LP
▁Movie
▁Olive
▁Full
▁panel
▁Torrington
▁Lar
▁ruling
▁Watertown
▁agents
▁wear
▁Selected
▁Type
▁CO
zon
stall
▁Notch
▁resident
▁Amherst
▁desert
▁constitution
▁experiences
▁mall
▁recovered
▁Vel
▁processing
▁settlements
tty
▁Pete
heim
▁ride
▁emigrants
▁Atkinson
▁patient
▁hundreds
▁net
▁Ames
▁Rosa
▁Livingston
▁Stein
▁Kerr
hur
sp
▁Arabic
▁select
▁enjoy
▁Chatham
▁suffering
▁exists
▁Adelaide
atory
▁Dominican
▁Woods
▁occasions
▁Mind
▁Nm
▁Roll
▁borders
▁periods
▁Sid
▁Amsterdam
▁execution
▁Christianity
▁Af
▁Bosnia
▁surgery
▁brigade
tailed
▁Much
▁Students
▁networks
▁destruction
October
▁architectural
sia
▁Kingman
▁wrestling
▁resort
▁indigenous
▁eighth
▁add
▁apartment
▁Ran
oid
▁assembly
MO
▁Bloomfield
▁Minot
▁illness
▁surviving
▁Mari
Best
team
▁Birch
▁Harper
ois
iko
▁unusual
▁consider
▁Houghton
▁honors
ded
▁Cri
▁scholarship
▁outer
▁widow
nel
pra
▁lose
▁marketing
▁Laura
cular
▁bull
cop
▁Bulgaria
▁attracted
uro
▁Marquette
ao
▁Igor
NO
▁express
▁uniform
▁Barcelona
▁Recipients
▁Lowell
▁Financial
iff
▁Semi
▁Cro
▁parent
▁Masters
eur
▁false
oka
▁venue
▁gone
▁Room
▁weapon
▁Angels
Category
▁Well
▁Disc
▁loop
▁Ida
cio
▁beautiful
▁deployed
▁faith
▁cricketers
▁spend
▁expand
▁Pirates
▁Muslims
▁pole
▁AC
▁apparently
▁Kara
April
▁spiritual
▁festivals
▁Bailey
▁rounds
▁Along
iber
▁Pedro
▁Overall
▁Plant
dent
▁mu
▁mile
▁proteins
▁comics
▁extent
SS
▁meetings
▁museums
Un
ota
vir
▁finance
horn
▁Hai
▁Sweet
cra
▁Gull
▁Hawk
cz
▁angle
arch
▁Rush
▁Bates
eck
▁sum
▁Bol
▁Bath
▁distinguished
▁Such
▁Writing
▁exception
▁insurance
▁electoral
▁arrangement
▁sight
▁drugs
▁Auburn
▁Palestine
▁Lund
ES
▁pan
▁sponsored
SL
▁abroad
▁voting
▁Factory
ø
▁Alt
▁component
▁Yankees
▁Instead
▁Sor
▁Villages
▁legislature
▁Duncan
▁opponents
▁Sheridan
▁Shortly
▁attributed
▁Episode
▁signs
▁retail
▁biography
▁easy
hai
▁database
June
▁Sc
▁coup
▁possession
▁eggs
▁Batesville
▁tribes
▁Hughes
▁Fellow
▁martial
keeper
▁Kate
▁Rovers
▁picked
▁adults
unt
▁sees
▁benefits
▁Zo
▁begun
ote
▁relationships
free
▁Annual
▁infantry
▁Bridgewater
▁send
August
▁Berg
iel
▁shore
▁Nord
cap
mod
EN
▁deck
▁Sr
▁monastery
▁Kill
▁civilian
▁Weston
then
▁releases
▁Pit
▁layer
▁Treaties
oz
▁Chase
▁Raymond
▁contribution
▁lawyers
emb
▁significance
▁Name
▁package
ened
▁receiver
▁Ara
▁drew
tie
▁listings
▁horses
▁Fremont
▁ban
▁palace
▁falling
▁erected
▁Eagles
▁farmers
sus
▁Nam
EL
anga
▁desire
▁hat
▁lowest
disestablishment
world
UK
▁Justin
char
▁Map
▁Heath
▁Binghamton
yi
▁Bengal
▁Panama
▁Salmon
▁knew
▁locally
▁Elkhart
rel
▁Mai
▁advertising
alis
▁characterized
pl
▁concerts
cum
▁spoke
▁golf
ked
▁Cuban
struct
▁Cloud
▁Arnold
▁Zu
▁Diamond
▁Kenya
sized
gri
CM
▁Thai
▁cabinet
▁Danny
▁destroy
▁Michel
▁electricity
▁Exchange
▁inner
▁mention
▁Table
▁row
▁Anglican
sport
▁grades
Sha
▁Lemmon
▁bonus
▁discovery
▁Commerce
ische
▁Pic
chu
▁shall
▁cent
▁Jun
▁immediate
▁Aircraft
▁Know
▁Prague
▁truth
tta
▁remote
uring
▁Every
CO
▁Sheriff
cor
▁assets
she
▁colony
lick
▁Cra
▁unsuccessful
▁Winfield
▁Prairie
▁claiming
▁statue
▁Gorge
month
▁Cavalier
▁concentration
ency
lim
pers
▁detailed
▁afterwards
▁congressional
▁Still
▁exposed
ching
▁Riverside
▁ceased
▁Davies
oke
▁Cairo
cock
▁spoken
ening
▁Kas
▁partially
▁Environment
▁everything
▁tests
▁merchant
lio
▁Stillwater
tting
▁Pradesh
▁athletic
September
etta
▁Past
▁settlers
▁youngest
▁substantial
▁concerned
▁endemic
▁wrong
was
sz
▁balance
▁Ant
▁cancelled
▁useful
▁amongst
▁Taxa
rush
nam
▁Cool
▁Jess
▁Persian
▁Jen
utter
▁Saginaw
▁Sultan
▁acted
▁Bri
▁fled
▁Tha
lly
▁thousand
aku
January
▁Millville
▁Cornell
▁Set
▁truck
▁toured
▁SI
hum
▁Grass
logical
▁Rand
▁Next
ego
vit
▁Flying
";
▁Serie
▁hunting
▁Fenn
ake
▁dual
rated
DR
▁genre
▁substitute
ente
▁lap
mph
▁Mak
▁plate
kes
▁Commons
▁Fictional
▁facing
makers
ages
▁baby
▁Regular
▁ridge
▁incidents
quest
▁identify
▁Vale
▁Mul
cro
ilo
▁reflect
▁Dy
▁produces
range
▁thing
▁Kam
high
July
rac
clo
hem
▁trust
CL
▁colors
▁Change
December
▁formations
▁integrated
▁alcohol
November
▁Guardian
▁subsidiary
▁Carol
▁Study
▁experiment
▁closure
▁Caledonia
only
▁Oscar
cell
▁Democrat
▁Celtic
▁electrical
▁Wy
▁Henri
▁Rockville
MB
▁cemetery
ically
▁scientist
OT
▁vast
hoe
▁Maysville
▁Productions
▁conclusion
▁sentence
▁Saskatchewan
▁gallery
Har
▁wants
hir
▁Downtown
▁Filmography
▁Maha
▁debt
▁sleep
▁Walk
▁interpretation
itch
▁Edmonton
▁Eli
▁Fiction
▁Edgar
▁Brisbane
▁suggest
▁Tin
SM
▁implemented
▁charter
▁studying
▁Chapman
▁crossed
ising
▁twin
▁clothing
Ba
▁Monday
▁predecessor
▁Additional
▁Together
▁Av
lé
▁Allied
aging
▁Gau
mur
▁Chen
▁normally
née
▁Kat
▁Bluff
▁Amateur
▁Prescott
▁Jin
inus
vert
ground
▁beating
him
▁Johnsbury
▁Abu
▁belonging
▁patterns
▁Cher
▁Tag
▁Perth
PO
▁convert
IN
▁Nepal
▁Edge
▁Lor
cast
▁affect
▁guilty
▁Geo
▁Campus
lib
▁Gate
▁Return
▁Omaha
new
▁graduating
tech
▁MA
▁seeking
▁Methodist
▁cash
oe
NC
sten
▁Honolulu
▁drawing
▁Vin
▁regulations
gam
▁participants
two
▁formula
EM
owl
SO
▁Baby
▁bear
▁Outstanding
▁earn
▁Right
▁instrument
▁Bach
▁Gallatin
▁thin
▁Turtle
▁leagues
▁Abraham
▁decides
▁roll
▁asks
▁ERA
▁corporate
▁pump
▁Underwood
inae
▁encouraged
▁epi
▁Finance
▁bombing
▁steps
▁fitted
▁Mos
▁ready
▁Archive
▁implementation
▁Voice
fusion
iri
▁generated
▁moves
▁anyone
▁ranks
▁shell
▁jump
verse
▁ministers
▁attending
als
igo
▁survive
verb
rim
▁earthquake
▁Raja
haus
▁gap
▁violent
▁Clarke
member
▁Bears
▁customers
value
▁Reg
▁AS
▁Artillery
EA
▁sole
▁Religion
▁Competition
▁conservative
▁exhibit
▁organisations
▁collect
▁Deaths
first
▁app
▁YouTube
erson
▁Stanford
▁Sto
▁weak
▁Wilhelm
aux
▁Que
▁relation
▁Orchard
▁moral
▁researchers
▁inducted
▁Us
▁reportedly
▁Nat
gla
▁Devon
rr
▁Manager
phi
▁Palestinian
zh
tent
▁Tok
▁spending
▁Bag
▁Rumford
▁everyone
▁lakes
serv
▁Afton
ison
pon
▁MS
▁Mineral
▁Voivodeship
▁legislative
▁Moines
▁Chinook
writer
▁attractions
▁bond
▁boundaries
▁André
▁Formation
▁Formula
▁Metal
▁mixing
▁pa
▁notice
▁behalf
bia
▁Filipino
▁diverse
shin
▁communications
▁gauge
▁aimed
▁Johann
▁cattle
▁Shore
▁Everett
anger
country
▁Cavalry
▁biological
▁mines
▁themes
hop
▁marry
stor
▁Shakespeare
▁diseases
▁fee
▁comparison
▁Actor
▁Admiral
zan
nz
▁hyper
▁travels
▁Joan
oi
gor
▁Drum
▁Bart
▁anchor
gia
ör
▁Sil
▁note
English
phy
▁Kol
▁Dec
▁strategic
▁Dresden
▁exclusively
▁closer
cl
▁Near
▁Carnegie
▁Obama
▁Bryan
▁Foot
▁cur
▁sample
tier
▁ninth
▁murdered
elected
▁premiere
▁enforcement
▁keeping
▁Herald
ust
▁pursue
▁inaugural
▁bound
▁emerged
▁roots
ulation
▁Upton
iva
▁describe
▁bases
mber
▁Hazel
▁crops
▁Gla
▁matters
▁Venice
inter
▁syndrome
tine
ST
▁grandfather
▁liberal
▁fresh
PP
hat
▁Winner
dam
▁Joint
▁Spa
▁heir
▁Moss
▁Initially
rain
▁goalkeeper
▁Concert
▁Pocono
▁reveals
▁struggle
any
▁Nigeria
eth
Jo
▁Peck
vil
▁Again
ees
▁Ir
his
▁adapt
hin
▁Archives
esh
▁metropolitan
▁enjoyed
▁Rama
▁trouble
▁pen
▁patron
▁evolution
▁Rein
▁Monument
active
▁reservoir
▁nominations
▁Higher
▁load
▁closing
▁Christians
▁driven
▁Bha
▁buses
▁apply
▁dangerous
released
▁mechanism
▁Truckee
▁Abdul
▁operator
cis
▁Stampede
itis
TO
▁rhythm
▁partly
▁rising
▁Intelligence
▁occasion
▁choir
▁Devil
▁breast
▁altitude
▁Store
▁Shell
Intosh
Car
▁Distribution
▁Saratoga
▁Diablo
▁Dist
▁Archer
▁cal
iti
▁permission
▁Maj
ush
cott
▁tons
sort
pr
▁Minneapolis
▁supporters
▁Pilot
▁possibility
▁battalion
▁Politicians
▁texts
▁Missoula
▁responded
▁Sutton
▁Lakeview
▁mechanical
wal
▁dominated
▁diocese
roy
▁shut
▁Carpenter
▁Friedrich
▁essential
▁Canoe
▁kilometers
▁honorary
▁minority
▁parliamentary
▁EU
▁smooth
▁Broad
▁partners
gr
Ireland
▁publicly
▁decrease
tas
sub
▁Gardner
▁perfect
▁Bellingham
▁pain
▁Institution
▁Highland
▁Sussex
▁dispute
▁secured
▁voters
▁movies
▁categories
ition
▁cricketer
cing
▁Thunder
▁Ven
▁raid
▁Cubs
▁commanded
▁Sk
▁Chair
iga
▁Apollo
▁Glenn
mmer
▁bright
▁repeated
▁mounted
▁pitch
▁else
ija
▁Gan
▁Rag
▁Tree
▁Religious
ame
Bu
▁prove
▁COVID
▁advice
pit
TR
▁photographs
▁Byzantine
▁alliance
dio
▁victim
eon
▁Multi
▁nickname
▁Musicians
▁bypass
▁Otto
▁carries
▁Pel
ref
▁Hq
▁Andover
▁favour
▁Lea
▁Election
▁Any
▁Britton
▁opponent
▁neck
nus
▁housed
▁AP
▁circle
▁Having
For
▁talent
▁Bald
▁decisions
▁freight
ée
person
▁acquisition
▁silent
night
ici
▁fantasy
▁Braves
▁sat
▁answer
▁neither
▁apart
tation
tract
▁submarine
▁grass
dri
BL
▁communist
▁PlayStation
▁Windsor
▁Stream
▁principles
Ch
▁Norte
rov
▁perspective
▁Ships
▁belongs
▁Franco
▁Yang
oro
RE
borg
▁affiliated
▁retreat
PL
▁Nancy
ics
WA
hard
One
▁resumed
▁sequel
▁mini
▁Socialist
▁belt
▁outdoor
fire
▁Russellville
▁supports
▁intellectual
▁Iraqi
▁tune
▁Dur
▁Hebrew
▁manage
▁Reynolds
▁Romney
▁Adrian
▁Len
ière
▁Woodland
▁Fillmore
▁monument
▁Vic
▁Dix
▁ward
▁Finals
▁Java
▁Lucky
▁doesn
▁suitable
▁Erie
Th
osis
▁Lamar
equi
▁creative
oul
▁Klein
▁Species
▁Palomar
acy
▁revenue
tive
▁worship
▁Georg
▁Burton
lac
▁volleyball
ement
▁Throughout
link
▁Bed
Love
▁collapse
▁worst
▁Hammond
▁solar
▁physician
▁index
▁coat
▁assisted
▁journals
▁Use
Mu
▁editions
▁Blake
▁Beginning
▁Bridgeport
▁Producer
▁Ref
▁connections
▁viewed
site
▁Transit
▁constitutional
yr
nen
▁Bros
coming
▁ob
rium
▁Legal
▁manufacturer
▁qualify
HA
▁guitars
▁Pitt
▁establishing
▁Anton
▁increases
▁involves
▁Yugoslavia
▁Calgary
▁Sel
▁Bacon
▁Microsoft
▁Fre
John
reg
▁Too
▁Encyclopedia
▁completing
▁Indonesian
▁Rai
▁sailed
▁Stratton
▁Hits
▁Safety
▁Amazon
name
▁Britt
▁recipient
page
▁petition
▁sang
▁Ky
▁exposure
▁suburb
akh
eman
ink
▁Cle
▁Berry
hom
▁Richardson
▁restricted
press
amba
▁Worth
▁Democrats
▁Content
▁fort
▁fifteen
▁Cash
central
▁trials
▁drum
So
▁displayed
▁accommodate
▁writes
▁atmosphere
▁Armenia
wy
▁breeding
▁funded
▁Winnemucca
▁treaty
made
▁Auckland
▁Lacrosse
▁hamlet
SB
lyn
▁Mckinley
▁Watford
lation
▁Bud
stad
▁moderate
▁Kid
▁legend
▁Melvin
▁wearing
▁Hull
▁animation
▁Hillsboro
▁Germans
▁organised
▁radar
▁manufactured
trans
lt
▁pictures
ario
▁SH
▁disaster
▁Eye
▁god
▁funeral
▁Batavia
▁Renaissance
ère
ient
nin
▁Cooke
▁Queens
▁circumstances
▁farming
▁Cla
ify
▁Fourth
▁partial
▁Mccall
▁Owen
▁Got
▁breaking
▁motorcycle
▁Oblast
Da
▁Crab
▁Poetry
▁triple
▁Dia
▁Meridian
▁cooperation
▁Carbon
sign
aq
▁isolated
▁Bul
ket
▁Sean
▁Interview
▁Thermopolis
▁identical
▁plastic
▁noble
▁grain
▁structural
▁Complete
▁submitted
▁tours
lag
morph
▁Version
▁summary
▁extend
pose
▁literacy
▁adventure
▁clinical
▁removal
▁Lone
▁Airlines
▁Mario
▁rowspan
▁thereafter
▁Rd
▁Arabia
▁Lafayette
logy
▁eat
▁Bir
▁Miguel
cycl
▁dominant
▁outstanding
bound
igh
ched
▁Rabbi
teen
▁Enosburg
lig
▁reporter
▁Kenneth
▁hope
▁traditions
▁tribute
pat
▁Lakeport
▁belief
What
▁relegated
▁sword
pod
▁Oswego
▁Cardinal
Pre
▁wheel
▁Episcopal
▁Fur
rio
▁SA
fall
rang
▁emperor
▁grey
▁Bond
▁Bowie
pad
▁Triple
▁guests
▁orbit
ound
lea
▁bishops
▁vocalist
sex
▁Gardens
▁commitment
Di
▁handle
▁Aaron
▁presentation
▁telephone
elo
▁requested
▁Gri
▁Centralia
▁Merrill
▁Bun
ér
▁connects
▁Parks
▁Albanian
second
▁coached
▁managing
▁comprehensive
▁Ulm
▁expert
▁initiative
▁Location
▁Link
▁bowl
▁attendance
kai
▁Gall
▁continuous
▁custom
▁Presque
▁leaf
▁Derry
▁Combat
fbb
ña
▁Source
songwriter
▁Notre
▁Bennett
▁parking
▁seem
pop
anna
▁Neo
▁ongoing
▁Lookout
bol
▁Colin
sim
▁bed
▁highways
rill
▁Jacques
sbury
▁Legion
uka
▁arrangements
▁Chess
▁Scientific
gger
▁Lutheran
▁narrative
▁Garrett
▁Therefore
▁conductor
written
piece
length
▁banned
▁Novels
▁Left
mini
▁Sher
▁Mega
ID
▁superior
▁Corner
▁tea
▁HMS
duct
▁wait
▁Put
▁zero
Win
▁switched
vet
▁Athletes
▁contested
main
▁Southeast
▁elsewhere
dai
▁commented
▁Isaac
▁initiated
▁reducing
▁hydro
▁Dixie
▁Prison
▁pit
bul
▁speaking
▁catch
▁withdrew
▁Ever
▁Brookfield
▁assessment
▁Giovanni
▁Ronald
▁Achievement
▁Title
▁Tsu
▁defend
▁symptoms
▁Rep
ule
▁Havana
▁cave
▁Harrisburg
▁shopping
▁seeing
▁transit
▁rarely
quin
▁radical
▁Bethlehem
▁Sex
▁wealthy
▁cathedral
▁Emerson
▁Rouge
▁Mol
▁activists
ovich
▁Elliott
▁manufacturers
▁afternoon
▁attempting
ove
aged
▁spell
▁favorite
▁Hermann
▁riding
nov
▁Estate
▁Dyer
▁Fletcher
tam
empt
▁fundamental
▁saved
▁flew
▁Ul
▁Franz
▁Forbes
▁waste
tai
▁ticket
hel
▁elevated
▁Maritime
▁Qui
craft
▁Joplin
vat
▁knee
▁industries
▁Maurice
▁Rachel
llen
app
uda
▁Bryant
▁specialist
▁AFC
▁Cove
▁elder
▁HD
▁accessible
▁Pay
▁rice
▁orange
▁Mena
▁departed
▁clearly
▁Amendment
escu
▁concerning
▁Commercial
▁Lucas
fest
▁governments
▁alien
▁Huntsville
trop
ttle
▁respective
▁slowly
▁encourage
illus
IL
DO
▁aviation
▁climb
▁athletics
▁Coal
ios
▁Stories
▁bow
tron
▁touring
▁sisters
▁Lambert
ional
▁magic
▁compiled
▁Farmer
▁hear
▁Eielson
RI
▁Midway
▁quick
▁maps
oa
▁commenced
▁Stockton
pus
▁construct
▁Shanghai
tum
▁helps
▁Wisdom
▁rated
▁Shak
▁preserve
▁warning
▁conventional
south
▁Fern
ls
Bradley
▁Def
▁Solo
▁Homer
▁Ernest
▁eldest
▁clock
▁burned
UP
▁Rot
▁sculpture
▁valid
▁Piano
▁lawsuit
Pe
▁Kendall
▁Bulls
▁diplomatic
wall
And
mbo
where
▁wire
▁Billings
▁milk
anta
▁Cox
▁dollars
▁receives
enburg
▁blow
▁Cyprus
▁nominee
▁characteristic
kill
▁dismissed
She
lus
▁temporarily
▁revised
▁novelist
▁relay
▁recovery
▁Cardiff
▁Course
▁Pier
▁Annette
▁Petr
▁Windham
phon
▁connect
▁defenders
▁visits
▁landed
▁rifle
▁prepare
▁Sikorsky
pes
four
oto
▁Heat
▁sufficient
▁disbanded
▁discussed
ops
▁Ola
▁apparent
ode
▁Those
▁songwriter
grad
▁Middlesex
▁disorder
▁pioneer
▁variation
▁emphasis
▁Stockholm
RC
▁Resort
▁Tanana
▁pandemic
▁Border
ord
▁supposed
DI
▁Arch
▁terrorist
▁interface
▁stick
▁MC
▁Ellis
▁vertical
▁prices
▁artwork
▁preferred
▁Das
▁Josh
▁Lithuania
ancy
eve
mine
▁Provincial
lb
liga
▁studios
tab
OP
fan
▁Portal
▁topics
hart
▁Criminal
▁charity
▁Index
▁Jetport
▁reporting
▁latest
▁beauty
▁discussion
odo
owski
hit
▁Sony
▁Smet
▁Stuttgart
▁Oil
lies
▁cyclone
▁Polbot
▁provinces
fen
▁Ellen
▁Actress
▁soap
pass
▁sustained
▁Vir
▁Rams
wind
▁Ang
▁tournaments
▁Speed
▁fun
▁Spider
▁Finally
cept
▁Hannah
▁tomb
▁rocks
sti
▁register
▁preparation
▁Starting
court
▁Sing
▁imperial
▁Away
February
United
pun
▁certified
▁Advanced
▁cult
▁Row
▁Wings
▁Make
▁Wen
▁Eight
▁variant
ester
▁Economics
▁aim
group
nincorporated
▁touchdowns
lers
▁approached
▁Wb
▁Date
▁Engineers
oll
▁CC
▁Pont
▁dream
▁Blakely
▁Ari
blade
▁mathematics
lets
▁affair
▁believes
▁Alpha
▁portions
▁negotiations
▁Leadville
▁compound
▁mouse
▁download
rous
▁arriving
▁Allan
Te
▁Fighting
▁layout
▁Azerbaijan
▁runners
▁principle
speed
▁Julian
zel
▁viewers
eno
▁origins
onic
▁export
▁Watch
borough
▁Dome
▁overseas
▁sugar
ashi
▁Aero
vant
http
▁unincorporated
▁Flood
▁plain
▁distinctive
hurst
▁specialized
▁tanks
▁Forum
▁therapy
grade
▁Come
▁plates
CR
pper
▁ambassador
én
▁Zen
▁Armed
▁Furthermore
▁Thi
▁input
▁Gulkana
▁neuro
imp
Connor
▁Wr
dre
▁exercise
▁pointed
Black
▁marks
▁receptor
▁gardens
▁Gy
▁shelter
chor
asa
cross
▁boss
▁doors
▁Leader
▁Comedy
▁Ah
▁protests
▁originated
▁Jennifer
▁Houses
founder
▁Based
▁SO
▁elementary
▁extensively
▁Mau
▁Trump
▁Chuck
▁Alton
▁Math
▁Ave
▁framework
▁golden
▁intervention
▁permitted
▁spaces
▁camps
▁MTV
mol
German
▁Corvallis
▁Fifth
▁Napoleon
▁Yi
▁heading
▁Tiger
▁wish
▁productions
▁vary
▁Aires
▁Self
▁Willis
▁recognised
Art
▁doubt
▁alignment
▁promoting
▁Glenwood
▁hills
▁expensive
▁Dodgers
▁Currently
▁slave
enko
▁Gran
▁participating
▁technologies
▁Spacewatch
▁Shar
▁Dol
▁Broken
rad
nate
▁abolished
pending
If
▁corresponding
Ex
▁interviews
ffer
▁engineers
bell
▁Merit
▁doubles
▁synonym
▁eligible
▁examination
▁retiring
▁throne
▁alive
▁approaches
▁nephew
▁hospitals
DE
▁Remix
▁Path
LE
kal
▁timber
▁veteran
▁streak
▁steep
▁XI
▁Surry
▁Lamb
▁tool
works
para
▁Dictionary
▁Syracuse
rib
▁Marco
▁standings
▁Rapid
▁Ogden
▁usage
PD
▁signature
omo
▁tourist
▁rocket
▁Glass
▁Vladimir
ered
▁hero
▁shoulder
▁Orlando
▁physics
▁Fun
▁Syria
▁Pr
▁escaped
▁Waterloo
▁Ambassador
▁Canton
▁Bog
nom
▁Hayes
▁Harmony
▁unlike
▁Defiance
ej
▁Epps
▁grave
▁Money
base
PC
ject
▁challenges
▁discontinued
▁Reich
lent
▁burial
dine
▁Adult
▁Andrews
▁filter
uga
▁Manti
▁Agricultural
mere
▁styles
▁danger
▁Dev
glo
Com
▁extends
▁departments
▁copper
▁aboard
▁Macedonia
▁Sau
shaw
▁targets
▁delivery
▁Nathan
▁Editor
lou
▁victories
▁Annie
▁Eugene
▁Oshkosh
nos
▁Woodbury
▁dies
▁Marcus
▁prototype
▁Coronado
apa
▁Glad
▁Lisa
▁Pas
▁Wise
▁Wi
▁Tunnel
tian
▁ministry
▁distinction
▁ballot
▁options
▁Legislature
▁variable
▁Hopkins
▁Legend
omys
▁Kn
▁landmark
▁coffee
▁Sherwood
▁devoted
▁Morrison
▁Irwin
▁Hanna
rai
▁Gui
▁resignation
▁Met
▁exact
▁Phelps
▁Estonian
ude
▁CF
▁Sisters
▁Eventually
▁subspecies
▁amounts
▁op
▁Ent
▁Face
cip
▁Heaven
▁Monastery
▁Fraser
▁Weber
▁looked
▁Fellows
sho
▁traditionally
ying
▁Danville
▁blog
▁ties
▁Elections
▁Revival
▁coalition
rap
▁Folk
rail
album
ull
MT
front
▁internationally
▁Kearney
▁Hosp
tten
Am
▁shoot
▁battery
▁Arctic
▁logo
▁flights
pul
playing
▁borough
ines
NP
▁toll
▁Jamaica
▁Kre
▁hybrid
force
▁racial
▁Evansville
▁inspiration
▁Relations
▁practical
▁Shoshone
▁Mutual
▁Chandler
▁referee
▁observation
isch
▁slaves
rip
IR
▁hidden
▁Recording
▁Reds
▁Tyler
▁Hobbs
▁Revolutionary
▁travelled
▁boxing
▁Redfield
▁seal
▁Wks
Per
GB
cr
▁suspension
vine
▁stem
▁Tun
▁affiliate
▁coll
DC
▁assists
▁Pointe
▁Murder
oph
▁Hatch
▁Grammy
▁Bert
▁deliver
▁Carroll
ree
that
▁Browns
▁Hilo
▁RBI
eni
▁IP
▁Stanton
▁ferry
▁Pot
after
ias
▁drinking
▁Communes
▁Adventures
▁Tennis
has
▁Lau
▁Popular
uter
duction
▁Philosophy
▁Avery
▁AB
gie
▁Greenwood
▁Text
▁Ace
▁mac
▁drain
▁Beverly
En
▁arrives
pil
▁improvements
▁error
▁Emily
▁demonstrated
▁repeat
▁argument
mos
▁Byu
▁NA
erman
table
▁Photo
▁Shan
atch
Ad
▁Pakistani
▁Rou
dd
▁paint
▁walking
ander
boat
▁focuses
▁log
Mbs
▁decide
▁Playing
▁Stamford
▁meta
▁evil
▁Flag
BB
▁Kumar
MI
ific
▁Tripoli
▁Pink
gui
oriented
park
▁grows
▁Without
▁runway
phe
AN
roll
▁GT
▁Never
▁Congo
sham
▁Luc
▁Hingham
lines
rine
fully
▁congregation
▁evolved
▁interact
▁Fen
▁sharp
▁Bonner
▁farms
▁oxygen
▁deemed
▁gear
▁usual
▁threw
▁organic
▁Doug
azi
▁Buenos
▁regulation
▁Scout
▁queen
té
tica
▁Manila
▁meat
lang
▁Williamsburg
▁harm
▁raising
lev
TI
▁consist
▁pulled
bian
▁Have
▁Cottage
CE
▁ESPN
TP
udi
▁scores
jam
▁Malaysian
▁Blackwater
▁Joliet
▁Gothic
▁internet
▁Thor
▁volunteers
▁artificial
▁southeastern
▁Bethany
▁engagement
pac
space
▁Grinnell
▁Burns
▁jury
▁Lion
Qu
▁wet
▁Rifle
kins
▁bone
▁Albuquerque
▁revolution
mission
▁Nogales
▁dramatic
▁Bl
▁Bronze
sea
song
▁Protected
▁Nwr
▁Events
▁fighters
▁immigration
▁refugees
▁Parliamentary
▁Bin
OL
▁Bondurant
▁Haverhill
rist
▁Liu
▁machines
▁Ai
▁Emery
▁Andre
▁Roscommon
▁Linda
▁priests
▁Pandora
▁acres
▁Rockport
pping
ivo
▁adjust
▁membrane
▁Ok
bot
▁Rim
icus
vie
▁protagonist
▁Hollow
▁wealth
▁po
▁Lim
▁tornadoes
▁Lick
▁respond
▁Shenandoah
mac
▁Ennis
▁Arrow
▁Paulo
▁circulation
▁Armstrong
▁wider
plane
▁unless
▁Alva
▁Nov
▁fluid
▁brands
▁cor
▁Rural
rev
▁Blade
▁pin
▁creek
amine
▁caps
▁Documentary
▁Zoo
tempo
▁sporting
▁surrender
▁Sign
▁ensemble
▁Glacier
▁True
▁samples
▁Sul
▁Quarter
▁casualties
▁Marais
gus
▁blind
▁Copa
▁Barber
ccffcc
▁Palisade
▁excellent
vale
▁photographer
▁intersects
▁Spin
▁Grosse
▁Blair
▁Lihue
ime
late
▁citizen
▁Dai
▁Clovis
▁Appalachian
▁Slovakia
▁Fernando
▁Capitol
▁insects
orn
▁linear
▁drink
music
▁bench
▁illustrated
dian
▁traveling
▁FK
▁Tourist
▁lift
▁Norris
▁locomotive
▁François
▁Coeur
Big
▁Townsend
archive
▁Engineer
sworth
▁Holmes
▁installation
▁exclusive
▁Albin
▁Literary
▁Clarksburg
▁streams
▁Laboratory
▁powered
pie
▁Halfway
▁describing
▁Workers
fil
▁defending
▁Distinguished
▁Twenty
bee
▁depicted
kon
▁monthly
▁Washburn
atic
▁Electoral
▁bell
lk
▁VII
▁Lyon
▁broadcasts
host
▁Software
▁Roth
▁tourism
▁contributing
▁comp
▁habitats
▁compositions
▁Brainerd
ending
▁Animal
TT
sai
▁Ages
ump
▁Bang
iu
post
oda
▁thinking
▁Greensburg
▁Lithuanian
▁intense
▁universal
▁Aboriginal
tile
▁Interior
NZ
▁Elma
▁advisor
▁Herzegovina
▁Ship
▁historically
▁Kit
▁stretch
▁Step
ural
Si
▁forwards
▁Fantasy
▁Belgrade
▁Wo
▁sing
than
▁Cotton
▁birthday
mato
week
alt
▁Silva
CP
▁Acc
▁EC
nning
▁Din
cliff
▁phrase
▁explosion
▁Coastal
woman
HL
▁Pinkham
▁novelists
▁Clan
▁Barn
▁Phillies
▁Agreement
▁Lancashire
wide
▁Taka
ume
bble
▁Strawberry
▁siege
▁feelings
sted
▁None
▁Spearfish
▁Blanding
aud
▁Pil
▁tube
▁Ton
▁consent
▁Moor
▁supplied
▁geo
tral
▁ramp
▁Tab
▁recalled
▁Depression
▁Rear
▁stake
▁Banks
▁pilots
▁Meyer
▁Pl
▁Ellsworth
▁arena
▁drove
▁Keosauqua
▁shops
face
▁Noble
▁Corning
▁Classical
▁labels
▁segments
▁Eve
odi
▁Bod
▁tip
uit
▁Patriots
▁codes
▁cutting
▁Made
▁remix
▁Alpena
▁Manitoba
▁Kun
▁dress
thi
▁width
▁Regis
pho
augh
sci
▁Cir
▁labour
▁bats
▁McG
beck
▁Theory
▁Fin
▁Hawks
▁Wan
▁documented
▁Hood
▁switch
▁Seminary
▁Rolla
▁institute
▁CI
ost
#
▁sitting
▁pairs
▁extinct
▁Hindi
nas
▁neighboring
▁Than
▁tight
▁engage
PR
▁pot
titled
▁Kap
▁Overview
▁Rap
ologists
▁ITV
▁Rom
▁massacre
▁push
▁Color
UN
▁Shield
▁Contest
▁worn
▁voiced
▁Lei
▁saxophone
▁mixture
▁Sz
▁dissolved
cla
former
▁compounds
▁batted
▁Syn
▁Sandpoint
▁creator
▁waiting
▁woodland
▁Gateway
▁Kom
▁relevant
▁celebrate
▁Picture
▁Guild
▁generate
▁aggregate
▁legacy
▁Ras
lect
▁Fra
▁Cabot
turn
▁athlete
▁storyline
spir
▁Walt
▁División
guard
▁Brother
order
▁escort
cover
▁String
▁objective
radi
LR
▁inherited
bie
▁Bab
▁MLB
▁Solomon
▁pushed
amo
▁Ecuador
▁Miles
▁Vision
▁Chugwater
▁Hole
▁tackles
▁Ware
▁dialect
▁prayer
stead
▁intensity
▁Atwood
bru
▁delayed
▁Present
ML
▁Dub
▁Webb
▁Trident
▁Clement
▁Altoona
▁informed
VI
▁lease
▁permanently
Alene
▁instruction
Su
▁Colonial
five
oria
tics
DS
▁Dorset
raz
onym
▁Astoria
▁mail
▁beam
▁updated
▁Joy
▁collective
asi
▁jail
▁consumption
national
▁chemistry
▁pull
und
OK
▁resource
▁sacrifice
▁hence
▁portrait
▁Hamer
iro
▁Mercury
▁pupils
▁Py
▁companion
▁dealing
lik
▁DE
▁mainland
▁Nik
▁Adventure
▁tested
▁footage
▁offense
▁Jerome
▁Sy
▁Laporte
▁roster
dem
▁Staunton
▁forcing
arian
stan
▁grandson
Cl
rey
wai
▁scorer
▁emissions
▁societies
rub
▁bay
print
▁Lewes
handed
▁Nintendo
▁centres
▁consideration
mill
▁descendants
att
▁Ohar
ider
▁incumbent
▁rec
bill
grave
▁Lifton
▁sung
gent
oper
▁maintaining
▁manuscript
▁telling
▁Arlington
▁indoor
achi
▁investigate
bad
▁Gru
▁Strait
▁friendship
▁difficulties
RB
▁abilities
▁Lil
▁Mini
▁seeds
▁LA
nier
ook
▁Form
▁arrive
▁Audubon
▁Tales
▁stroke
RM
GO
▁Frankfurt
▁cavalry
▁attacking
▁Turn
▁Arms
lling
Mon
moor
▁Cover
eda
▁Claire
word
▁experiments
boro
▁writings
eu
▁Pk
▁Pump
▁rat
▁competitors
▁binding
▁Ruidoso
▁Luxembourg
▁Cell
▁Stand
▁Want
▁Level
built
▁root
▁Faith
▁punk
ein
▁ghost
San
▁Chad
cfc
▁tackle
▁Erik
▁Lewisburg
specific
▁Salvador
▁thanks
▁trap
▁Taos
chief
▁tele
▁chess
▁volunteer
pine
nad
▁Where
▁Pioneer
▁Complex
▁teeth
▁Sitka
▁Guest
▁allies
▁pianist
CT
▁difficulty
▁underwent
▁Krishna
▁discovers
▁Database
▁Camden
▁economics
▁Arsenal
▁Towner
▁Upham
▁Search
▁Levan
▁Chilean
▁chorus
BP
▁consistent
▁Barrett
ete
▁gray
▁recruited
cit
tress
▁constituencies
▁jet
xe
▁Principal
ald
▁failing
▁administered
▁influences
▁Oct
▁Gin
▁Fil
▁stops
▁fifty
▁Pack
kawa
▁spots
dog
▁Talk
▁poverty
▁Leslie
sman
▁Plain
Cha
▁valuable
font
tical
▁CP
teau
bourne
▁scout
▁Draw
▁photos
ault
▁Corinna
▁Agrilus
▁decorated
mers
▁Paper
▁extending
▁Halifax
ON
▁Tourism
▁Whitman
▁columns
▁forecast
London
quet
▁Waterbury
▁Kos
▁pack
▁arc
▁Wentworth
▁Fat
▁Canon
▁Yoshi
▁sounds
▁programmes
▁transform
▁revival
▁Burials
yang
▁genes
▁Dow
▁militia
Ja
▁Lynn
▁Mei
▁placing
nut
▁riders
▁Author
▁Heidelberg
▁campaigns
cies
▁waves
▁pub
▁grid
▁archaeological
▁Rochelle
jack
▁Manistique
▁Cad
▁Surrey
ih
▁vegetation
▁Mann
▁Dom
bes
issa
▁Blacksburg
▁Stern
▁severely
▁Ballet
kers
▁corn
▁empty
▁airline
▁Style
lash
produced
▁Guards
▁functional
▁Universities
orum
▁Humboldt
▁essentially
▁craft
▁Martha
▁taxes
▁Kula
▁lanes
▁tenth
▁academy
▁Lucy
▁Yates
tim
arn
▁fabric
▁fallen
▁Louise
▁Exhibition
▁relating
▁Cru
▁auction
▁trainer
▁sweet
▁Recreation
▁hide
▁Menno
▁pet
Gra
ür
other
▁bag
▁airfield
▁Access
dding
▁migration
▁defended
lived
▁Harrington
LL
ucci
▁sure
▁commentary
▁Martinsburg
MG
▁Bala
ffe
▁Chiefs
▁shorter
▁depot
▁Amy
är
▁sit
▁Kerala
▁neo
▁flower
▁Fol
▁Roscoe
▁Graduate
▁Haute
▁scandal
▁demands
▁editorial
▁blues
▁Pala
▁upgraded
▁Marinette
▁CH
France
assi
hab
▁Oh
▁Spruce
▁punishment
▁Raw
▁Hen
▁carrier
▁neighbourhood
▁Shadow
wei
▁restrictions
founded
▁vector
mination
▁strain
▁Mets
▁Senators
▁Shawano
▁Kiss
▁Tucumcari
▁Wickiup
stri
▁Speaker
zie
▁Rex
▁Elder
▁Emmy
▁retain
▁syn
▁Kyle
▁theatrical
▁temples
corn
▁Hum
▁clay
▁explains
boot
▁prey
▁restore
▁Canterbury
NR
▁Carlo
rm
▁crystal
▁diesel
▁improvement
▁patent
▁Charter
vu
▁Robertson
wheel
market
▁acquire
▁exile
▁Lowville
about
▁awareness
Brien
▁Planning
▁PhD
ope
▁citing
▁Mazama
shot
▁electro
iger
▁Easton
▁rap
▁helicopter
▁nest
▁bore
tru
▁imprisoned
▁matrix
screen
▁noise
▁UFC
▁Lines
▁eventual
eal
MD
▁conversation
USA
eff
district
▁killer
▁shock
opa
When
▁random
llo
rom
▁Banner
▁Trial
stown
▁Monster
mé
▁seemed
alia
▁Julie
▁Physical
▁Malta
▁restaurants
posed
▁thirteen
BR
▁Rushville
▁Karen
▁Hale
uta
rator
▁lover
▁Paisley
▁diversity
▁Granville
Ko
umb
▁Advance
▁Spokane
▁Randy
▁Chemical
▁Mou
▁threats
▁Indies
▁simultaneously
▁stolen
▁Pike
▁Category
usa
▁undergraduate
▁displays
▁Cut
▁Glendive
▁Julia
▁AFL
▁Cannon
▁transmitter
hing
▁gift
speaking
▁interaction
▁Roe
▁Assiniboine
▁bachelor
▁Wenatchee
▁Waynesboro
▁procedure
test
rak
bla
▁Did
▁Qua
▁Od
▁bin
▁Tupper
nh
▁Fairmont
▁fault
▁missile
▁Burn
▁Score
▁guards
stage
▁Richardton
ott
▁trick
eer
▁enemies
▁Berea
▁Headquarters
▁Hoxie
▁firing
▁Rica
▁attract
▁Rey
▁transformation
▁Jasper
stat
▁Res
▁Inside
chel
▁Bradley
▁Continental
road
▁dogs
▁speaker
▁regard
▁Scottsville
▁discover
▁procedures
▁Oz
▁Belt
flow
stock
▁automatic
▁filmmaker
▁Wednesday
ingham
▁Plateau
▁Patuxent
▁Naples
▁surprise
▁Tax
▁Caroline
CH
bid
▁diet
▁Administrative
anne
▁Piney
rep
▁tissue
▁agree
▁Viroqua
▁graduation
▁Bee
▁Electronic
▁succession
▁Mana
▁exhibited
stand
rch
sberg
▁cool
▁Morrisville
▁consultant
▁till
▁trio
▁northeastern
▁dependent
ering
▁Plaza
IB
kara
▁mask
wel
▁flank
▁Match
▁Gerald
▁happy
scribed
▁Testament
▁proportion
haven
ain
▁Clusky
▁Lam
▁sin
▁Jonesboro
▁breaks
▁Ferdinand
▁reconstruction
▁exactly
▁Herman
mil
TH
▁numbered
lap
▁Lok
▁signals
▁fauna
▁tier
▁Nashua
▁Sons
▁Southwest
▁Chin
▁joins
▁Jacobs
▁manages
▁march
▁Flash
wn
▁Lev
▁Parkersburg
tto
▁copyright
series
▁collaborated
vision
seat
▁Mormon
▁battles
▁dialogue
▁cre
▁Beyond
▁sending
▁Gur
▁referring
▁Organisation
▁thereby
▁Pir
▁Deseret
▁Gospel
▁Lcd
▁trails
hausen
▁recover
author
odor
▁Cimarron
▁warfare
▁Belfast
RP
▁Mobridge
tos
▁treat
▁Kenny
▁Guttenberg
▁Rosalia
asco
▁nationalist
▁NASA
AV
▁Jamie
▁gate
▁Brandon
▁southwestern
vey
IG
▁celebration
▁comprises
▁harvest
▁Towanda
▁voyage
▁demo
▁sharing
▁pitchers
alo
▁Albans
▁Pulaski
▁Wessington
▁tributary
▁bottle
▁cabin
▁filming
▁operators
ied
▁comments
▁specimens
▁Claude
cour
▁Zhang
isse
tooth
bahn
ress
▁Wick
gol
footballer
▁shifted
▁Forestburg
cub
▁Georgian
▁Kids
▁Cartersville
bay
▁shipping
▁hop
▁familiar
tour
▁ruler
▁Ellensburg
DB
▁Frankfort
▁aerial
▁nearest
▁teach
▁Troop
▁enrolled
TM
▁Tamworth
▁Kurt
▁SP
prop
ographic
▁putting
▁behaviour
▁configuration
▁Elizabethtown
▁Coleman
▁statistical
▁printing
etz
▁nationally
▁Waverly
dé
▁ports
▁theories
asse
▁FBI
▁Gainesville
▁Cowboys
▁pale
▁Paso
▁looks
▁laboratory
nat
aut
imo
▁Strong
▁Edmund
hut
▁Bundesliga
▁confused
▁colspan
rou
▁Ogdensburg
NE
▁tag
▁efficiency
mara
▁Hel
▁Annapolis
abad
▁array
▁Fly
nath
▁Willie
bha
enter
▁imprisonment
▁Brainard
sche
▁authorized
▁Discovery
▁perceived
 °
▁Emergency
▁Vietnamese
▁asking
▁belong
live
SN
arra
▁philosopher
▁PGA
▁Gulch
▁ratings
▁Brahm
aunt
▁Harlowton
fect
▁Nuclear
▁provision
mouth
▁nu
▁curve
▁controls
hof
▁Railways
▁Wray
▁Newfoundland
▁shallow
▁corruption
▁Yugoslav
▁hook
zar
▁cuts
signed
smith
▁Gulfport
tub
▁Kingfisher
LC
▁lock
▁elite
▁wake
▁fairly
▁Crane
▁exhibitions
▁Potter
▁Menard
▁Lip
▁carriage
shark
▁crop
people
rama
▁lie
scar
▁Structure
▁memoir
▁Brockton
▁constitute
▁discuss
Ga
▁Johnston
▁Santos
▁batting
▁predominantly
size
▁terrain
▁prisoner
▁equation
oxide
▁detail
▁entrepreneur
pos
lob
▁defender
▁enrollment
▁contribute
nova
▁Recordings
▁Albania
▁IT
▁Baldwin
és
▁universe
▁Singer
girl
▁Wilmot
▁Gaelic
▁Fight
hold
▁Ponca
tang
▁Mandan
▁Natl
▁Presbyterian
▁destination
▁LC
▁commissioner
▁Fellowship
▁span
▁Boonton
▁MI
▁bra
▁Santiago
▁Ardmore
ingen
▁Won
▁Scha
▁colleagues
uan
▁mainstream
lain
▁rapper
LI
▁frog
▁bike
▁Ot
▁talks
fly
▁Wilderness
▁Estell
▁median
stant
stadt
▁impossible
▁Oslo
▁Large
Ti
rina
▁Rolling
▁Churches
▁Greene
▁midfielder
▁prevented
anza
▁deposits
▁Kamas
▁Calhoun
▁Emma
▁Wagner
▁Biddle
▁Tau
▁Need
▁reverse
▁instructor
▁administrator
▁mature
▁convinced
▁Learning
oxy
▁rough
▁dock
▁Republicans
▁Ske
▁speakers
ships
▁thriller
▁Keno
▁Raiders
Ed
▁Mono
▁consumer
jer
▁Mot
▁Retrieved
▁curves
▁solutions
▁beaten
▁Kerry
▁Dunn
▁Cavern
hawk
ista
▁comedian
ncing
MHz
▁Sunmount
▁Glenville
exp
▁endangered
inda
named
▁mansion
xa
▁chapters
▁Boat
ils
▁allegedly
urus
▁convoy
▁prop
▁Bucyrus
▁explain
▁worker
▁Mé
▁Cons
▁Poll
tree
▁profit
▁succeed
▁Oelwein
fit
▁barrel
▁presenter
come
▁thermal
▁Zimbabwe
Bar
▁Estonia
▁survivors
▁civilians
▁uncertain
▁accurate
▁fiscal
▁Worthington
▁sailing
cot
itu
▁Kokomo
▁Tank
▁Clarksville
▁Mack
beat
▁renovation
▁Joel
cons
▁Diana
)||
CU
LO
▁slot
Wicomico
▁hydrogen
▁automobile
▁progressive
▁Jorge
!!
▁Sandusky
▁survival
▁Leod
▁Meta
▁Filt
jur
▁McDonald
▁Kazakhstan
▁announcement
▁stint
rem
▁Theodore
▁reserves
HP
joy
moto
▁Fiji
▁Strike
even
▁Physics
▁picks
▁Clare
▁Richfield
▁Rus
hale
▁aspect
▁psychology
▁Carlyle
uv
▁Tulsa
▁gathered
▁encounter
▁Hugo
cata
▁decreased
▁Hitler
▁amendment
%),
Nws
▁Yard
▁Wine
▁Minden
ár
dh
▁colonies
▁Gol
▁Lapeer
▁Pad
wed
▁permit
▁predict
temp
▁coins
school
▁rivals
▁Baltic
▁faster
▁Against
▁Bloomington
▁Heavyweight
▁Hou
▁Colebrook
▁feeling
▁Feature
phone
▁renowned
▁Woodstock
▁delay
rance
▁rotation
lid
▁mirror
hay
▁Terminal
▁Universe
bun
▁Era
▁Body
▁Examples
otic
▁fastest
rode
▁Mit
▁requiring
mot
▁Nantucket
▁mosque
ential
▁Hispanic
▁infant
▁Sab
▁HIV
▁infection
▁Valencia
tsu
▁Fear
▁floors
▁registration
▁Antioch
▁associations
▁Jesse
▁Warriors
▁Tasmania
▁Wonder
crypt
▁Choice
▁smoke
▁files
▁employee
▁strict
▁subtropical
▁varied
▁variations
▁defect
gall
▁Roma
Coll
nak
rik
▁upgrade
▁Rosen
▁Edwin
html
▁gaining
bil
▁inventor
pier
cht
▁Chappell
▁Prof
▁indicating
▁Appeals
boo
▁Eden
sty
bet
▁Oro
half
▁shield
▁Liberation
graph
rec
▁Fortuna
▁Half
▁demonstrate
World
wald
rade
nder
gne
▁payment
iness
▁Pick
standing
methyl
▁skill
BO
▁Hollis
▁throw
pis
▁Mather
▁tram
▁flash
▁mammals
evo
lem
▁Sunderland
▁witness
zio
▁Brussels
bis
▁Ridgeway
▁freeway
▁Slovenia
▁Nezperce
▁Tecumseh
▁independently
ality
▁gathering
kka
▁relatives
hra
▁Ruby
▁Tat
Pi
▁Tioga
▁pastor
▁Om
▁wore
▁Smoky
rise
▁profession
▁observations
▁lifetime
▁Geneseo
mul
ann
▁fewer
▁maintains
▁fourteen
▁Fountain
lings
▁Chaco
pack
headed
▁aware
▁Dawn
▁Malcolm
isa
hun
▁unions
▁zoo
▁Merc
dha
▁Beau
▁Mick
▁namely
▁Ethiopia
▁monitor
▁sculptor
▁Cottonwood
▁challenged
cel
▁assassination
iano
fur
▁qualification
▁IC
▁pursuit
mates
▁Dora
▁Spe
▁lighting
▁Clifton
▁relegation
▁Sanders
oides
designated
▁pure
▁situations
kun
▁mentor
dition
▁holiday
▁forty
pot
ovo
▁Dorothy
▁Eurovision
plication
▁fame
load
▁Escalante
▁Hightstown
▁Eva
▁Bug
▁stored
▁territorial
▁fortune
cole
▁Carrington
gua
▁Scho
▁flute
▁Reese
▁Jesuit
▁Harbour
▁TD
▁Tie
ulu
MM
▁Ghana
▁colonel
▁clinic
▁Lightning
▁Ely
▁crashed
▁Qa
▁flee
▁Customs
ried
▁touch
▁Mumbai
▁graphics
ono
▁Tara
both
▁Gap
▁Brassu
mani
▁Sat
▁Dot
▁pink
▁Wheeler
▁cotton
HO
▁Cab
▁Uni
▁Task
▁Toro
vic
▁Mcpherson
▁Ludwig
▁Nenana
▁Sav
▁architects
▁Hatteras
uca
▁Mammoth
▁lab
▁minimal
▁verse
▁flu
▁Located
▁punt
▁Arco
▁emotional
▁sixteen
▁parishes
▁Nacional
▁autumn
▁conjunction
GN
▁intersections
▁Lem
▁Poli
▁Bai
witch
phil
▁NATO
▁Speedway
▁northwestern
▁Hattiesburg
hot
AU
▁Wol
▁Mod
▁Working
▁Wave
▁Zion
▁Ellendale
▁contracts
▁bars
▁Ada
▁horizontal
▁Llan
▁transported
▁Role
holders
▁Heppner
▁certificate
▁Various
▁variants
ngel
dr
▁successive
ood
▁Solar
ogen
ako
▁tale
▁Baton
IO
▁pollution
sca
▁Manassa
holm
▁Sebastian
▁Casa
▁sciences
RL
▁bacteria
▁discrimination
▁Montello
abi
▁Macedonian
tina
▁Cliff
▁Organizations
▁ver
▁vital
▁Bright
▁Laona
▁citizenship
date
▁recipients
▁Phyllosticta
▁protocol
nk
▁neighbouring
real
▁muscle
▁Storrs
▁virtual
▁praise
unda
▁Colombian
▁oak
▁suspected
may
▁Oakes
▁Kel
▁divorced
▁enlisted
nice
▁sail
▁Counties
mura
▁integration
▁withdraw
▁Publishers
▁Jets
dir
▁Tru
gard
▁NEAT
▁pine
▁Lawrenceburg
nn
ives
▁Tea
zzi
mie
sam
ulo
▁Nevertheless
▁fate
mut
▁Cas
▁conferences
▁Ei
▁decree
▁Witch
▁neutral
eco
▁Catholics
▁Kuwait
▁judicial
▁Iceland
▁divorce
sil
▁concentrated
▁Westhope
NL
▁towers
oxholm
▁realized
▁Eau
▁manufacture
▁Epi
▁Grayson
▁Southampton
▁Inn
▁tap
▁interesting
▁Toy
▁skull
▁bush
▁Pawnee
nick
▁upset
ike
▁Wake
▁Chelan
rice
▁rebellion
fal
▁Angle
GS
uel
▁radiation
▁Yoder
▁inhabited
stre
▁organize
three
BT
UT
▁Ultimate
▁Ard
▁Deutsche
▁kit
▁diamond
▁Grammar
▁Montenegro
▁Petoskey
▁economist
▁Break
sko
▁adopt
▁vinyl
▁wildlife
▁populated
▁presents
▁Imp
▁dancer
cco
▁Burg
tag
kat
▁comprising
▁statements
▁Agent
▁Blythe
NH
▁seriously
▁icon
▁Wadena
▁GP
ught
▁repeatedly
listed
▁Fast
▁Sabha
dimensional
tom
▁potentially
▁Mut
▁bills
▁guitarists
▁Globe
▁intermediate
▁hardware
▁Calico
eira
▁Others
▁graph
▁Dodge
rach
▁performers
▁efficient
▁bulk
▁Trout
SG
▁"[
▁withdrawn
▁handling
▁Kru
▁Caniste
▁Nottingham
▁bankruptcy
sdale
▁Scar
▁Koch
▁Casey
▁renovated
▁Pea
grove
▁Rainbow
▁Cecil
▁mathematician
▁sur
▁actively
▁Officers
▁Falcon
▁Hyde
nagar
▁midfielders
▁innovation
▁Atlas
▁occasional
gest
omi
lett
MR
iter
NI
▁Pueblo
▁Impact
▁Clarence
▁Panthers
▁dynamic
▁Mans
▁Footnotes
▁Inspector
▁Brun
▁Using
▁WW
▁pregnant
▁Poems
AB
▁environments
▁sponsor
▁contributor
WR
▁physicist
body
pris
▁nationwide
▁yield
▁Pod
▁Sunset
▁Ville
▁conviction
rug
▁versus
▁Sunrise
▁onwards
▁Castana
lli
distance
▁viola
▁Ulster
▁transformed
▁Winston
▁governing
▁Net
lene
cial
operative
▁Presidential
▁democracy
saf
▁Host
▁Esp
hana
▁aggressive
▁Warwick
▁achievements
▁counsel
mid
wr
rica
▁manual
▁rivalry
jin
▁Winnipeg
▁recognize
pressed
NG
▁bears
tori
▁torpedo
▁asteroid
▁molecular
▁Wytheville
▁Tanzania
GC
▁Rican
▁Detective
▁Utility
▁Origin
▁cloud
AG
▁María
▁canton
▁Deb
▁Beth
MW
▁Citations
▁coin
▁suddenly
▁shots
▁mag
▁Felix
▁promised
▁Rowles
▁Pos
▁Sharpe
▁Beechwood
bari
There
phosphate
oko
▁Clyde
▁dragon
▁entity
▁Lance
▁Timpanogos
hm
gic
hil
▁facilitate
▁bath
▁Mercedes
▁garrison
▁girlfriend
▁Honorary
▁Teen
Let
▁delegation
▁requirement
nation
won
▁Pac
▁Jake
LD
▁Fla
▁translator
▁Linden
▁floods
▁starter
▁Sparks
▁Bil
static
BE
▁Greatest
▁Holocaust
▁Suffolk
▁Martinsdale
sect
▁implement
▁Churchill
▁brings
▁willing
▁Mirror
▁dancing
▁nose
▁lineup
▁Jeremy
▁settle
ador
selling
tended
▁Tol
this
▁Denis
▁Freeman
▁Lowe
olin
▁readers
▁delegate
ambi
▁Observatory
▁supplement
▁tasks
▁lord
▁generations
▁Reid
kom
▁Luther
ctor
▁Emmitsburg
▁missionaries
stin
▁activated
▁Ble
League
iba
▁Couderay
▁Fairchild
▁Midwest
activated
▁Corners
▁debuts
nish
▁Tell
▁blocked
▁Ou
cry
▁Rockefeller
▁empire
▁Walsh
ished
▁allegations
▁Drug
VP
▁navigation
Bay
▁Nye
lich
▁Andalusia
▁reforms
▁suggesting
▁client
▁Hiram
▁Holt
▁Potlatch
▁Quartet
▁conducting
▁pipe
▁provisions
▁Wynne
cket
▁Est
▁bearing
▁Indigenous
gn
▁Marcel
▁Istanbul
ild
▁Rules
▁taste
Dam
villa
ales
Du
▁elaborate
▁fraud
fort
abesic
▁duration
▁concepts
▁cluster
▁understood
▁slopes
kas
alla
RD
▁fossil
East
▁Wendover
▁separation
▁Alberto
▁Grange
▁hypo
▁Masa
▁continent
▁Newkirk
▁Morocco
hid
open
uru
lough
frame
▁divide
▁manor
ller
▁trend
▁occurring
▁beliefs
▁Cohen
▁Drew
agi
▁computers
▁Generation
▁Bolivia
▁Xi
▁Whitefish
▁Hin
▁explanation
▁libraries
▁Stevenson
say
ncy
▁Coulee
cultural
▁disappeared
▁Finn
▁remember
▁Timothy
▁welfare
▁Ludington
▁Rin
▁missionary
▁Programme
▁Jeffrey
▁nurse
▁Lakewood
▁Things
▁Betty
▁trumpet
▁entries
▁encountered
▁CB
▁landfall
▁Driver
Neill
▁hitting
▁doctrine
▁server
▁Directors
▁Wai
▁Recent
▁impressive
▁recall
▁reflected
▁Griffin
blo
osaurus
▁Broncos
▁Rabbit
brand
▁magnitude
▁peninsula
▁identification
▁faces
erry
BI
▁Sang
lian
▁Linton
▁Grenada
kt
▁Advisory
Northern
▁Bis
gers
▁rabbi
▁Heroes
fre
shore
pole
▁electron
▁Monk
▁Parkway
▁mud
▁Leadership
▁Shelbyville
look
media
vari
▁curriculum
TU
oj
lom
▁Arn
luck
section
gene
▁subdivision
▁Pineville
▁admission
▁Nigerian
cate
▁Barker
tit
▁banking
▁Eureka
▁Warrenton
lop
▁Copenhagen
▁Mellette
▁Gross
▁suburbs
▁pace
train
▁ruins
lice
▁absorbed
unanimous
▁Tactical
▁ordinary
umble
▁Reedsburg
erton
mia
hui
▁Bowling
▁attraction
▁Door
ifying
▁calendar
▁varieties
dge
spor
aco
acre
▁doctors
▁graphic
▁honored
cid
▁revenge
▁Eyes
▁Colgate
▁kills
▁handed
▁privately
▁Midville
▁posts
▁honours
▁apartments
▁convince
▁Sche
▁resign
▁Floyd
▁Northeast
▁OS
▁guidance
▁Alternative
▁Mayville
PT
nny
▁Duchesne
▁Tuscarora
▁Method
▁Goose
▁Cary
▁criteria
▁crack
▁collapsed
▁Pool
esse
▁cultures
▁Cuyamaca
NY
▁cruiser
▁rushing
NT
Mont
eria
▁Truth
▁distinguish
▁Process
▁Corn
▁proof
sby
▁import
▁Fle
chet
▁rape
lai
iah
lying
▁Lie
▁improving
▁ask
▁AA
▁bold
▁varies
▁CS
tration
plex
▁Screen
EG
▁Richland
▁Yerington
▁sheet
▁surgeon
▁exploration
French
▁Bour
▁Lyons
etter
▁argues
▁lodge
pid
▁Porthill
▁Newbury
▁lit
▁addressed
rable
tracks
rack
lf
▁Burr
▁grants
established
burgh
▁VIII
▁Terra
▁Gmina
▁Gab
▁clients
▁developments
▁Rum
iam
onne
▁Killdeer
▁Marina
▁Uruguay
▁Jer
▁Byron
birds
hung
phan
urge
▁Insurance
▁focusing
▁Mixed
▁spur
▁founders
▁Richards
bfb
▁Sikh
▁Rescue
▁murders
▁Decision
▁Gram
▁Afghan
▁Landmarks
▁Wins
▁bicycle
rp
building
▁Santo
ht
▁BA
▁Analysis
▁mistake
▁Osaka
ely
Rock
▁climbing
▁Madagascar
▁Tacoma
▁rookie
▁Lehi
▁Via
▁firms
▁Leicester
▁Dee
Her
▁Communication
▁Thursday
▁Roland
grass
void
▁striking
▁hometown
▁locality
▁Underground
▁Belmont
tell
▁Nwso
dler
▁Nobel
▁psychological
▁kitchen
▁seized
raft
▁Scr
▁Mangum
abe
MU
▁altered
▁def
▁Syrian
EX
▁Potomac
hee
▁Kenton
▁Highlands
▁Fuji
▁achievement
▁Cara
▁Heavy
▁zones
▁Whidbey
Kahuku
▁Colts
▁Tribe
▁Catalina
▁invented
yon
Day
▁Stefan
isi
pent
▁Papa
▁referendum
▁Perkins
▁Mani
▁hunt
▁NSW
▁indeed
▁Chickasha
▁prestigious
▁Mach
hammer
ail
▁Nadu
hair
▁Practice
▁mystery
▁Egg
SW
position
▁palm
▁Sacred
▁Saluda
▁diplomat
▁Rud
▁targeted
▁Log
omy
Ph
digit
▁merely
▁knocked
Men
▁Steam
mina
▁Baroque
▁Brule
▁naming
uku
▁Denio
▁prospect
▁Hun
▁Str
▁Saga
▁Subiaco
▁discipline
ardi
arrow
▁Westfield
▁Spur
▁experts
icide
▁Ashley
Paul
▁Mathematics
▁Cooperstown
igoshi
rier
lecommunications
ske
▁Winnib
▁tobacco
rab
cil
▁closest
▁Oneonta
loading
zhou
▁personalities
▁preservation
▁kiss
▁delegates
bing
▁varying
▁Elsberry
▁specified
▁PM
▁hub
▁specimen
▁resemble
▁Yuan
▁Faithful
▁Rogersville
▁advocate
▁Easter
▁fr
▁Mystery
▁Racine
▁Marines
▁screenwriter
▁Being
▁Bridges
▁NASCAR
▁analyst
▁coordinator
etto
▁detective
▁feat
▁Vil
▁sunk
At
gna
▁Composition
▁Led
▁demanded
▁symbols
▁boards
▁mild
▁Savannah
▁Gadsden
▁Waynesburg
▁polo
▁Investment
▁exterior
▁Kla
Mr
Can
▁Chula
▁Critics
▁hoped
▁Abd
▁continental
zia
▁feeding
▁Teams
▁remembered
▁tender
▁explosive
▁staged
▁similarly
wave
▁Laurel
ache
Amendment
▁Lebanese
▁Woonsocket
▁Newman
▁Hank
interpret
▁magnetic
reli
ivity
▁Scenic
▁vicinity
▁Ava
▁expanding
ovi
▁Bruno
▁Orangeburg
▁horn
ige
) –
rav
mari
▁Whitney
▁Sudan
▁Kot
▁Hil
oso
▁Journey
▁Murfreesboro
▁absent
▁Julius
▁Irrig
▁suburban
uba
▁Victory
▁compact
Sh
▁Ocala
wang
▁struggled
▁synthesis
▁Shop
HM
▁reopened
mand
plat
▁Letters
▁Stakes
▁Phillipsburg
▁Holstein
▁hole
▁tone
▁Squaw
▁wonder
▁ibn
▁practiced
▁Gloucester
PG
”.
▁Batman
▁XV
▁Ahmad
▁sequences
▁conflicts
▁Ek
Min
logist
▁Edmunds
▁stones
script
▁Primera
PE
▁limestone
▁Ride
dice
▁Ill
AO
▁orientation
▁Castro
stro
▁Visual
▁mineral
▁measuring
▁constantly
burst
▁Quoin
▁Kvnu
ania
▁enable
mund
▁burning
ça
▁governed
▁sheep
▁Contact
▁Fairhope
miss
oci
wise
▁Griffith
CN
▁Vieux
Woolley
▁Glens
▁Midlands
▁cuisine
▁Passenger
▁reveal
▁theoretical
lake
▁estimate
▁refuses
▁boost
▁Waynoka
▁RT
▁Gale
▁Chena
▁vulnerable
ehr
endra
▁egg
▁performer
▁sediment
▁findings
▁Facebook
fr
since
▁dying
▁cruise
▁reward
▁slavery
▁servant
▁Weatherford
▁prefer
▁Sig
▁mysterious
▁Caesar
stic
rink
president
▁marble
▁Snake
▁Dylan
▁democratic
▁Sedgwick
Blue
rob
▁Standing
▁macro
▁lights
▁dense
imi
camp
▁Munster
▁Deadwood
▁Blackfoot
▁rent
▁Amphibians
▁paved
▁stability
▁Sai
quo
float
GE
ents
▁Hubbard
▁Kei
▁villain
pala
▁Investigation
▁Edmond
▁Smart
▁Sequim
War
▁Monterey
hiro
▁Sergeant
▁aims
▁Archdiocese
▁Medieval
▁ritual
▁Payette
▁Ouray
▁voices
LS
▁integral
▁ammunition
▁biology
▁dozen
▁solely
▁mentions
▁Fuller
▁Rie
▁thrown
rowspan
▁capabilities
inder
How
nett
▁PR
▁invention
▁Lyn
▁Museums
▁Terror
▁USC
▁stronger
▁Liz
Hu
green
▁Kes
▁nicknamed
Mckinn
six
▁Hansboro
▁Moberly
vik
▁oral
▁virtually
wolf
▁Kemp
leigh
egan
ril
lei
buck
▁Vikings
▁mutual
▁Conf
path
ffin
▁learns
▁sculptures
▁Beast
hari
▁lighthouse
▁Budapest
mper
billed
▁Millersburg
▁ballet
▁Atdd
▁editors
Time
▁beneath
iza
GP
minal
songwriters
▁Francesco
▁collecting
ndi
▁shed
▁Papua
loc
▁Basil
tsch
▁Heinrich
▁creates
▁absolute
▁renewed
▁Verde
▁cow
▁myth
▁Andrea
▁bassist
aa
pla
▁ranch
▁Bishops
▁swing
▁trips
▁Brimfield
▁Attack
▁utility
DM
▁Sister
▁SE
▁Progressive
▁eagle
lier
self
nit
▁Punjab
▁Slovak
NK
▁Mori
▁Bengali
▁interim
▁Endemic
▁romance
kle
▁Audio
league
fle
▁teammate
▁OF
▁upcoming
▁Beauty
ought
▁Terre
▁Pratt
▁Finger
▁Sahara
▁Rem
▁Corcoran
▁console
▁Chancellor
▁astronomer
Hi
▁Meeting
▁Truck
▁Mess
▁clothes
▁Word
▁Boeing
▁layers
▁manuscripts
▁Gavin
father
▁WIS
▁Purcell
▁Keystone
▁USSR
player
▁properly
▁confidence
▁Clara
▁Sunnyside
oud
▁Stalin
▁Baxter
▁Patterson
▁Wrangell
▁Bran
▁Yama
▁ceiling
▁Chronicle
▁monks
▁Fitz
▁Industries
▁reviewer
▁senators
▁Pon
dot
▁farmer
▁Rab
▁clerk
▁dubbed
▁Frost
▁opens
▁Barbourville
▁Dexter
▁Ferguson
▁deeply
▁Til
▁vault
aca
▁trustees
▁conquest
▁demon
▁drainage
▁quit
▁Fran
▁Lis
▁Ming
rent
▁executives
▁refuge
▁Timber
▁deployment
▁planted
tner
▁Lakefront
▁developer
▁Hovenweep
▁Volleyball
▁Caliente
avan
▁Marshal
▁Fay
▁Sumner
▁detect
▁CIA
▁inhibit
▁tumor
▁broadcaster
▁cleared
organ
▁Engine
▁Housing
pill
▁polar
▁Unalakleet
AK
som
▁pursued
▁trailer
▁Farmville
▁airports
▁Rito
▁favourite
▁Derek
ior
ulus
▁Coteau
zed
▁ease
▁Ord
Morehead
FFFFFF
▁Bak
▁Bonita
▁Modena
▁WA
▁Hit
▁storms
gil
▁accomplished
▁Rudyard
▁legendary
bug
▁Indoor
▁bout
▁Kr
▁(#
▁Quitman
▁Nash
ather
▁peer
▁Raven
▁Besides
▁Sandwich
'''
▁headquartered
▁phenomenon
▁breach
agan
▁Renovo
ility
bak
▁encoded
zone
▁conspiracy
▁professionals
▁Paonia
▁Hartwell
home
dict
▁Hemingford
▁secular
Ru
▁freestyle
▁hopes
▁Atlético
▁Tullahoma
▁Patricia
▁aftermath
▁McCa
worthy
▁solve
▁Bayfield
▁Hyannis
▁Tarkio
▁wound
very
neu
▁Leg
▁drought
owner
git
▁carved
chal
▁Elkton
▁pocket
lance
fel
▁wrestler
dies
▁Ahmed
bling
▁Mail
▁Sharp
▁hull
iformesFamily
▁Booneville
bass
▁drawings
▁archive
▁excess
▁Weymouth
▁Jenkins
third
▁Marianna
▁enabled
▁revolutionary
▁Close
▁Tyrone
hap
AI
▁parade
▁Thames
strand
▁moist
▁LLC
yō
▁Dundee
disc
▁investors
▁considering
▁Vail
▁flooded
uki
▁Bristow
▁topic
sei
ación
▁Porto
▁Valle
▁Sca
▁striker
▁Patrol
▁Landsburg
▁Wide
Japanese
▁custody
▁Kho
Oakhurst
▁Vocal
▁Haugan
tory
▁Cody
Sc
▁assignment
▁Adolf
hala
▁Wanderers
▁Boo
▁Keene
▁lifestyle
▁Brett
▁Luna
▁tough
▁Owensboro
▁Ala
gem
▁Jac
case
▁Ama
pens
▁personally
DL
▁Vit
▁airing
zzo
worm
▁confusion
▁dive
▁Volunteer
▁Indo
▁Gates
▁Marriage
▁Strategic
▁Baudette
evi
▁psycho
pound
▁Boot
▁dorsal
▁Characters
▁Clar
▁BCE
▁Tall
▁Knox
▁evaluation
ibility
▁retrieve
yle
▁Sum
endo
▁Nicola
▁Alturas
▁crest
▁Rangeley
▁interactions
▁Wor
▁abbey
▁Ole
▁Shuttle
▁Saw
glu
tore
▁Dawson
▁boarding
▁Oilers
▁Wakefield
Up
▁watershed
▁Chau
Roman
oga
▁tribal
oba
Pilot
▁Lipscomb
▁presidency
▁rope
Tri
▁quoted
▁estimates
ises
▁involve
rop
▁Archaeological
▁Gillette
oun
▁audiences
▁Gilman
▁Biology
▁Powers
▁Sword
▁Roc
▁agrees
kor
▁Nixon
▁accessed
▁Trent
▁Function
▁trigger
▁beds
nee
▁nerve
▁abortion
▁wickets
▁pipeline
III
▁Coaching
▁Czechoslovakia
▁Mankato
▁preference
▁Peterson
▁basement
▁boxer
▁followers
utt
▁Myanmar
▁emerging
partisan
DD
▁Gustav
▁exam
best
▁Sedro
▁Zero
▁adoption
▁Sham
▁Monica
Tra
▁Sala
▁knows
▁tear
▁yard
▁Ernst
▁fin
▁Painted
▁playwright
▁Spot
ło
▁Apache
▁Stafford
▁Ark
▁Enderlin
▁Bone
▁Nun
anus
Ge
▁Lynch
▁Crosbyton
▁Thur
▁lecturer
▁attitude
▁confront
▁Millport
▁Lords
▁Sporting
▁Neighbour
▁easier
lug
▁Plants
▁retire
▁Soundtrack
dec
▁Reference
▁blast
▁Slidell
▁Salinas
▁publish
▁Usher
▁Leipzig
HC
▁Ladies
▁Maxwell
▁swamp
▁RC
▁altar
zong
▁controller
modern
▁Damascus
▁Searcy
▁Cop
quarter
▁Portage
lift
▁Duck
▁Kala
▁Buddhism
▁furniture
▁regardless
▁clergy
▁withdrawal
▁Lon
▁dinner
▁Greenwich
▁organisms
KA
▁Frontier
▁worse
▁Rhine
▁travelling
▁Giro
▁Ves
▁releasing
▁Frances
▁Lawton
▁Levi
▁northward
▁panels
nine
▁regiments
▁Elm
▁Hey
yam
▁Bron
▁homo
▁bitter
▁Kad
▁talking
culture
▁Dra
▁Qatar
aver
▁Leone
izz
▁comprised
▁lung
▁flown
aris
▁elect
clusive
▁hatch
▁enhance
▁endings
show
▁customer
▁Whittier
▁Hawaiian
▁tourists
▁UC
▁Stop
▁Anamosa
▁Exeter
▁Sou
▁Mae
▁Natchez
▁certification
▁compensation
▁mathematical
▁remnants
dit
▁Associated
▁Pie
▁Associate
qi
eti
▁Steelers
▁Flint
▁KO
▁Manning
▁Issue
▁hosting
ibi
tham
▁sacred
▁freshwater
▁AL
ković
▁Fortine
▁Roberto
▁Gel
▁Sofia
▁fed
▁Founded
▁Birth
▁skiing
shu
Bi
cou
SH
▁Erwin
▁businesspeople
▁kings
wig
▁Hammer
▁Tahquamenon
borne
▁Latter
fus
▁nineteenth
▁Image
▁particles
▁Tuesday
▁Rule
COM
TB
ovsky
▁revived
polis
▁reactions
Kha
▁Apostolic
drift
▁Diet
▁Subsequently
▁imposed
▁stationed
human
▁Opheim
▁canon
▁WB
▁senator
just
▁shrine
emi
▁sky
▁Leigh
eller
▁Moh
▁Manufacturing
▁confirm
▁Hopkinsville
▁suggestion
▁rescued
wear
▁Rhodes
rath
▁commit
▁accordance
▁Daisy
cephal
▁Civic
▁dealer
▁Naas
▁Cadiz
▁hy
▁Broadcast
Old
▁Chal
▁Provo
▁Gir
▁Norwood
cken
▁poorly
▁journalism
▁Michelle
?)
▁Plate
▁systematic
▁Quint
▁Waterford
▁reviewed
▁Vly
▁ordained
▁irregular
Pri
▁Oriental
▁bread
bou
▁Ple
colo
▁educator
care
▁Benedict
▁nursing
▁wheat
tana
▁Yadkinville
Sp
▁für
▁sensitive
▁Amar
▁Twins
High
▁Outside
▁badly
hack
eter
▁Haines
▁Own
atta
fighter
▁Lat
powered
Ri
OH
▁Roxboro
▁examine
▁Brain
▁loose
▁distant
opt
▁proposals
▁Evan
▁diving
▁impression
arc
▁repairs
▁Decatur
▁strings
▁Figure
▁spa
omer
▁Nora
▁Bé
▁poison
max
▁Srn
▁eliminate
Life
▁Superman
▁Touch
▁moon
▁boom
▁Moreover
▁Venezuelan
etic
▁canoe
Ni
▁button
Dr
▁Tak
▁liner
▁pistol
eye
pea
yp
lung
▁Schedule
▁rebel
rl
rup
▁corridor
▁Ethnic
Red
▁Hurling
▁Aid
▁recreational
▁Constitutional
▁Hus
▁volcanic
▁Direct
▁harsh
enni
▁Rise
▁Strip
▁Needles
▁Alto
▁correspondent
tun
▁statewide
▁Courtenay
▁Excellence
▁Rafael
▁Durango
▁della
▁AT
lak
▁Creston
▁leased
▁predicted
▁Viscount
▁Jessica
▁Rhy
rif
▁drives
▁ST
▁Portrait
▁IN
▁trunk
▁handled
▁inclusion
▁Forage
▁Tucker
▁Northwestern
▁chest
▁Zhu
National
▁Algeria
▁Chulitna
dol
▁Given
▁proceeded
▁happen
▁KY
ampa
▁Corr
▁essay
▁cook
▁concurrency
▁Trio
▁Parade
▁Mik
writing
▁sensor
▁Americas
▁Ketchum
▁commons
▁Bet
▁bind
▁odd
charge
tton
cen
▁Kdlr
logue
▁pour
▁intent
▁bones
uto
▁finger
▁centered
né
▁Chemistry
▁Cr
▁flagship
▁Save
▁destroying
▁valve
▁legally
hic
▁Spavinaw
GI
enus
spire
▁corporation
▁Bronx
▁Tropic
▁Lighthouse
Sch
▁Leopold
▁Crew
▁accidentally
DH
▁Morristown
▁Wheel
offs
▁designers
▁UTC
▁Platform
▁blend
▁Jackie
▁colours
nock
▁emerge
▁Cou
Dis
▁Pickens
▁RNA
▁Iz
▁Nag
wad
door
▁Kosovo
▁Coalition
▁foster
▁Kau
Air
▁Payne
nail
SV
wit
▁liver
▁Seoul
▁watching
▁Lovelock
▁messages
▁metro
▁Cheng
▁inspection
▁warbler
Live
▁deals
▁flora
▁DS
▁saint
yd
▁Orderville
▁rational
raw
▁Ein
▁Trevor
▁doctorate
▁Myers
▁slope
conce
▁Morton
▁disk
▁socialist
▁Kee
▁appoint
pyr
▁whale
▁cannon
▁Hour
version
▁Mauka
AW
▁Et
apple
▁paying
opsis
▁Treasury
▁proximity
motion
▁lesser
ension
▁Blu
▁considerably
▁Resolution
▁Sm
Institut
rá
rze
▁Motion
▁rubber
▁Hurricanes
▁Kang
King
▁Person
ando
▁scattered
▁Municipalities
▁prompted
alter
▁corps
▁premier
▁Petro
▁Bickleton
▁Bardstown
▁ID
▁catalogue
sters
▁Novel
▁Boris
raj
▁synthesizer
Je
▁consequences
▁Moultrie
▁Organ
▁cylinder
▁unclear
▁Aki
▁separately
▁derivative
nium
▁Flo
▁Tate
scope
gill
lining
▁affiliation
▁speaks
wu
nese
oti
▁warming
tique
icular
▁opposing
GR
▁Chat
▁Vatican
▁harbour
will
▁Bos
▁fires
▁Hacker
▁Ng
▁Bergen
enti
outs
books
▁loyal
▁Barnard
▁ATP
▁skating
..."
▁Arbor
▁Qing
rog
shima
▁fees
▁evident
▁Letter
▁deer
▁undertaken
▁notion
productive
eil
cru
▁tallest
kra
ango
▁wars
▁Soldiers
omb
conf
▁Sicily
▁narrator
▁bullet
▁Nest
jay
▁loans
▁Carvers
▁turtle
▁Products
▁Joshua
▁algorithm
▁dub
▁sits
▁vein
dad
▁Deal
tani
quer
▁Slo
▁Fessenden
▁vacant
▁automatically
▁shaft
”,
▁revision
▁Mode
British
▁reconnaissance
▁Nursing
cine
▁Tracy
▁passport
▁Vega
fon
▁expelled
▁Yukon
▁Springdale
▁Pride
▁discharge
▁Cameroon
▁Published
▁Crisis
▁Comic
▁linguistic
▁disorders
▁Flu
▁Immigration
▁UCLA
▁theorem
▁agreements
▁antenna
▁Jonesville
het
▁Crazy
▁Nav
though
▁Cort
▁Doniphan
▁Horseshoe
▁Shiva
cellular
gvl
HI
▁....
▁Baden
▁Gamb
▁plea
▁facade
▁Challis
▁convey
▁Mound
▁contestants
▁spare
CB
RN
enza
▁Naga
responsibilities
▁accommodation
▁preparing
▁statute
▁Names
xt
▁sick
▁photograph
▁dancers
▁SV
▁mythology
▁backup
▁var
▁Ling
astro
▁mechanisms
IE
▁Chestertown
▁rally
PM
▁Maz
▁Helsinki
▁declaration
▁Lambertville
▁disabled
xia
▁measurement
stream
▁Seymour
osaur
ontinu
▁consequence
esi
▁Choir
flower
▁Lap
cke
rash
▁Hua
▁Pam
▁Dillon
▁spy
▁Internal
jon
▁comment
▁inscription
▁Streets
ares
▁fiber
▁arise
▁alter
▁Tracks
ugg
▁Sleep
▁invitation
▁equally
▁Cancer
▁Bella
▁Shot
▁guarantee
▁explorer
▁boiler
▁Similar
▁supporter
▁Dong
▁Blanchard
▁Rebecca
▁crucial
▁Phase
▁Hook
▁finale
▁Scots
▁formats
rg
khan
▁workshops
▁Sus
berger
▁preliminary
▁tenor
▁Lott
hou
▁prohibited
▁Writer
▁commanding
▁Glady
▁Hiro
enbach
▁Gala
cos
▁acknowledged
▁Orioles
atum
▁Schi
▁screening
Mor
▁Mira
▁fortress
▁transcription
▁Why
▁Caldwell
▁IBM
▁Mali
▁taxi
▁KC
▁shrub
▁Cheraw
▁Cyril
VO
▁railways
▁trace
▁Bavaria
▁Henshaw
gov
▁Fritz
lur
Hur
▁Ost
▁rises
▁Clermont
BM
zing
▁recreation
▁Basic
▁Cry
▁Esc
maid
▁Sak
kowski
▁Battery
▁SM
▁pounds
shed
▁impressed
▁Boi
▁tables
▁Bread
▁Chestnut
▁strategies
▁expatriates
chip
▁Mora
azar
▁Sherman
▁explore
sher
▁Childersburg
▁interpreted
▁Aqua
▁removing
▁Thomson
▁McCl
▁chase
▁squadrons
lava
apo
▁Bolton
▁premiership
▁Uganda
got
▁Seventh
▁complement
▁Confederation
zin
▁trucks
combe
▁Myrtle
▁Fry
▁Ministers
▁knight
▁Nordic
nea
▁balls
lab
▁Aviv
▁Cart
▁trophy
wil
▁Creative
astic
OD
▁fence
▁Evil
nio
eater
▁Pines
eries
eux
trick
▁Boxing
▁Till
▁Mannington
▁optical
von
▁abandon
▁enhanced
iver
▁Ck
▁Xu
ager
▁revolt
flat
alu
▁defendant
▁Packers
kam
iers
▁Built
▁laps
Veneta
▁Carlton
▁Prussia
▁assess
▁Nicaragua
▁cardinal
▁anthology
▁roadway
vier
▁naturally
sboro
▁silk
▁Morrilton
▁censor
▁Titans
▁Matthews
▁literally
▁reject
▁Wausaukee
pter
▁Unionville
storm
▁Kaiser
▁fights
▁declare
▁customs
▁Mara
ographer
▁routine
▁Psycho
▁Brock
dong
▁Districts
tir
▁Ain
▁Carey
▁Cau
▁farmland
▁Topaz
ege
▁Stoke
▁Wade
▁Paraguay
emia
uer
▁lying
▁condemned
WS
▁René
▁exhibits
hail
Ke
▁Geographic
▁artifacts
lant
IV
▁physically
▁Pha
▁dome
▁Plum
▁rider
inn
▁Brent
▁Biloxi
▁pseudonym
▁performs
▁criticised
wart
odont
▁Morse
▁Flower
▁Dock
▁ear
▁dust
▁Hearts
aving
▁Mort
Scotland
▁Merchant
▁Phantom
▁barn
▁Hir
IX
FP
▁geographical
tyr
▁barrier
lton
▁Dubai
▁contestant
▁drag
▁Cruces
▁kilometres
▁Strange
▁Job
▁Dominic
▁cooling
)(
▁Introduction
▁Corinth
▁livestock
▁Vor
▁tract
weed
▁cello
▁goddess
▁Omar
▁Derbyshire
▁Xbox
▁Buddha
▁peaks
linger
▁inhabit
north
▁reads
▁Marysvale
▁communicate
▁linebacker
mala
Closed
▁resist
▁backed
title
▁Shri
▁Grim
▁Oka
▁Gould
ody
▁Cassville
▁Guatemala
hwa
▁Iberia
▁Democracy
▁Neshaminy
▁Hettinger
▁underlying
▁miss
▁Healdton
▁Cordele
helm
▁Johan
▁slide
▁fix
stick
▁terrestrial
▁Wsfo
▁Bruins
▁wrestlers
▁Lum
▁Donna
▁molecules
▁Abiquiu
▁consensus
▁Moorcroft
▁Him
▁draws
▁Sixth
▁Similarly
▁Cent
▁Honour
▁fumble
▁Burma
▁Duchy
oco
▁Balkan
ís
▁Aug
▁shaped
▁Helena
▁Wahia
▁Thu
▁Barnesville
▁Cali
▁Marlow
▁cream
rigg
▁classroom
▁Ensemble
▁Companion
▁remarkable
▁perception
▁Arrowwood
cious
▁Presidents
▁MVP
▁gig
▁Isabel
▁Kalamazoo
▁topped
▁fixture
▁Comstock
▁Pul
▁Wald
▁reader
▁calculated
▁Calvin
▁Twitter
▁assembled
ector
pas
▁shadow
ups
▁Haiti
▁Virtual
lah
▁feels
NFL
▁Slav
▁Pig
liter
▁Kind
▁Vu
▁keyboard
▁scenario
dhi
▁Ultra
▁Beatles
lves
▁Friend
▁outcome
virus
▁Facilities
▁Hidden
▁Joyce
▁Cin
▁Valentine
▁Very
rol
▁Holiday
▁McCarthy
▁Mic
▁Sue
voc
▁McKe
▁Josef
▁damages
▁scrap
▁holes
▁Palmerton
hau
▁twist
▁stepped
titude
hunter
▁spelling
▁unofficial
▁Shire
ident
▁noting
▁surfaces
▁audition
▁Thorn
NU
rge
▁nobility
bour
▁Mercer
psi
▁Powerhouse
▁snake
▁Europa
ifies
kot
▁Negro
▁Bertrand
▁Dudley
▁Doo
gru
▁Blackburn
mounted
compatible
▁inaugurated
▁Tong
▁preventing
olog
▁Tibetan
▁Shelby
eriformesFamily
▁Chandra
▁currency
▁sitcom
reservation
▁react
▁bonds
▁accidents
▁afford
break
▁Ami
producer
▁tide
▁Brockport
lad
▁define
Lu
wich
▁Sant
video
▁lessons
▁Stat
▁strikes
▁vowel
▁Geoffrey
▁Jury
▁Xiao
▁Glade
▁Dou
▁Sym
▁Released
▁preceding
▁interviewed
▁supervision
cade
▁diagnosed
atin
Bur
▁errors
▁forested
▁collision
▁Riv
▁Warrior
Wa
▁Germantown
▁Ig
▁Winnsboro
ots
▁desired
illy
franc
▁batteries
▁Hag
suke
▁rolling
gau
▁Jet
▁wage
▁Riverdale
elia
▁Sales
▁Tornado
ès
▁Articles
hardt
cene
▁Initiative
▁circular
ether
▁holder
▁Janet
▁Southbridge
▁possess
▁Lompoc
▁juvenile
▁Latvia
▁Ep
ulate
▁Yar
▁Loch
▁bombs
▁wheels
▁faction
▁Expedition
▁cartridge
▁recurring
enna
▁Fairview
▁Brady
▁Kro
▁neighborhoods
▁abstract
dt
▁Grad
▁Lot
▁overlap
▁Fool
▁rounded
dock
European
▁Carlisle
▁Gibbonsville
▁consistently
▁Hayfield
▁protecting
▁scan
▁Forrest
▁Picayune
UR
▁sustainable
▁Ellenburg
▁raids
▁Fel
▁Sally
▁Pauls
▁Macon
▁nano
▁differ
▁Dil
breath
generation
nant
▁guy
▁Giuseppe
▁Piedmont
▁innovative
▁acclaimed
▁mal
mple
▁warrant
▁costume
▁Royals
baum
▁Bulldogs
▁sandstone
▁Cay
▁Concerto
▁introduce
gur
▁Bau
▁sketch
▁Witt
▁hostage
▁Midnight
▁Partners
Part
▁catalog
width
ometric
▁promise
loo
▁CT
▁shooter
▁Prussian
▁alert
▁inhibitor
▁pest
naut
▁Dwtn
▁Lauderdale
▁Eng
▁item
ardo
▁heating
cite
▁veterans
▁Countess
▁Canyonlands
▁Scene
yat
zard
izes
▁lion
▁García
▁Treatment
▁portfolio
▁Tale
▁Pablo
▁townships
▁slight
▁monuments
▁Oconaluftee
▁Swift
▁spotted
icht
▁Apalachicola
▁Townships
▁equity
▁Falcons
▁kinds
Super
▁Gö
▁Brush
aru
▁Lit
Jewish
▁Malay
bio
▁Honey
Ver
▁investigated
gat
▁Brimson
▁maritime
▁strange
idi
▁favorable
▁advised
▁Dreams
ffy
▁erosion
asso
▁Honda
aves
▁gather
thro
▁woods
▁Giant
▁regulate
mana
▁Veterans
▁Leinster
▁capability
WI
▁Dynamo
qa
source
With
▁Kick
odon
forming
▁Swimming
▁Beaufort
prov
▁developers
▁Performing
cam
▁Zan
▁Orford
Col
▁Print
▁Chiricahua
▁aesthetic
▁peaking
▁Oroville
▁Bankhead
▁premises
used
using
▁eating
▁Pendleton
▁Percy
▁embarked
▁eastward
▁prosecution
own
▁Empress
▁Wait
▁Meg
▁Extra
▁Jenny
▁Shane
published
▁Latino
▁Coat
▁IL
▁Markland
▁fulfill
purpose
insky
▁FCC
walk
wives
xton
clad
▁Amanda
builder
UTC
asu
▁accuracy
▁velocity
▁soils
▁cycling
fri
▁contractor
▁Astro
▁Okemah
▁Gat
▁cheer
▁Riley
▁unsuccessfully
▁circles
▁Starr
▁Dana
ool
▁embassy
▁Gazette
pia
▁boxers
▁Yet
oca
▁Beer
▁Animation
▁Paw
▁Pickett
▁Lamp
▁duck
▁erect
editor
rz
▁guided
dro
▁openly
nard
▁quiet
▁probability
Intricate
▁Awos
▁gross
▁commentator
▁commemorate
lav
owitz
iš
▁classrooms
▁oversee
▁emigrated
▁Kle
▁Chip
itor
▁chemist
UD
▁Moundsville
▁Eliot
cula
▁Squad
▁editing
▁questioned
▁Edisto
▁Arcadia
▁essays
▁foundations
▁rebounds
▁Natchitoches
▁Duchess
▁Dragons
▁Counsel
llar
Italia
▁armor
▁plaque
▁Fossil
▁evacuated
▁container
▁Stations
▁generator
▁Seabrook
UM
▁instructions
VT
▁Anniversary
▁feminist
▁spectrum
opus
dou
▁Wool
▁princess
▁proven
dorf
▁ISO
▁Trek
played
▁ceremonies
▁judgment
Foxcroft
,”
▁fat
▁Mariners
inc
▁Settlement
▁Sylacauga
drama
▁depends
▁sudden
▁Wong
▁Bac
ogo
▁committees
▁Rye
iving
▁siblings
▁Smoke
▁Naka
ondo
▁Saco
▁Cant
▁Lucia
Orovada
▁textile
▁bomber
cient
dow
▁weakened
▁Corp
▁estates
▁Johannes
▁submarines
KS
gul
▁Stark
poli
▁Cel
actor
▁cord
▁hectares
▁HR
▁Pap
▁Standards
▁missiles
PH
▁elimination
▁submission
▁Jensen
▁Marshfield
▁Period
children
▁lineage
lude
▁Barton
▁illustrator
▁Elmendorf
iser
▁Cul
mother
▁defunct
foil
pher
▁Ranger
▁Pub
▁tongue
▁Wis
lax
▁Evening
▁analog
▁Acadia
▁cartoon
▁attractive
GL
▁dressed
bos
▁investigations
▁Helm
OM
▁moments
▁antagonist
▁Collinsville
▁stunt
▁Bushnell
▁kids
▁Cock
▁folded
▁rebels
▁terrorism
▁reserved
▁Moorefield
acci
CG
▁substance
▁Schmidt
▁accredited
▁saving
▁Peters
heart
ener
▁contracted
HT
▁Normal
▁Clarendon
▁entities
▁Chand
▁Gaz
▁Estr
▁beer
▁Ione
▁garage
▁cooperative
▁marking
▁logic
▁Lad
▁healthy
▁remake
pati
▁Wolfsburg
▁undergo
▁directions
▁Benson
runner
▁Idol
▁Holden
▁Telegraph
▁Hop
rank
induced
▁IUCN
▁Okinawa
▁Cham
party
▁Rah
▁Apart
▁thesis
▁decommissioned
▁autonomous
Out
ctus
chem
▁Tho
ppa
▁shear
▁simulation
lamp
black
▁Garcia
▁arose
▁edges
▁Lauren
▁Stead
ál
▁Northfield
evich
▁shirt
▁Mongol
billion
▁Viv
▁Resident
▁Satellite
▁Philharmonic
▁Gerard
▁commun
▁passion
cord
▁joke
▁donor
you
▁Guru
tea
▁Previously
▁Glo
▁Cachuma
▁Travis
▁elderly
▁longtime
▁Whitesburg
▁Gig
▁extract
▁Malheur
Music
circ
▁argue
▁availability
▁screenplay
ND
▁Gul
▁pronounced
iae
▁depicting
▁battalions
▁Diploma
formation
▁prohibit
cost
eiro
▁Rhythm
ulla
▁Tunisia
onomy
▁Kraft
▁Canberra
▁puzzle
▁sailors
rty
gl
▁Boss
▁kinase
▁servants
Something
▁Danbury
▁laser
▁promotional
▁Tap
▁peaceful
▁Tex
kind
▁chronic
igen
▁Papers
▁eighteen
▁Basel
▁CNN
▁loved
▁Cai
▁armies
▁Pru
illi
▁Interest
opi
▁Owens
▁Qi
▁offence
▁Boyd
bbe
ctic
lord
▁strengthen
▁Andreas
▁América
▁subordinate
station
eastern
toria
▁Timeline
▁chassis
▁Rally
▁marginal
sun
▁gods
iman
▁Supporting
▁exceed
▁pseudo
▁overcome
isha
dhar
▁listen
▁Avi
▁terminated
▁Māori
▁Beaumont
Little
▁surge
gum
▁raw
▁Conrad
comp
MV
▁Mohammad
▁elephant
▁Seneca
Everything
▁Plattsburgh
forms
lated
Bel
▁Promotion
hout
▁swept
▁Applied
▁epic
▁poster
▁allocated
gging
▁headline
Ab
▁steal
oche
▁assumption
iq
▁Winslow
▁Look
▁bail
▁Hansen
uge
▁Mam
▁Mata
phen
▁Bennington
▁Elias
▁WR
▁counted
ept
▁Seed
▁Bishopville
▁Garland
▁Wie
▁Nina
Ki
▁compromise
▁Crossroads
öl
▁Madras
erie
bred
▁Champ
▁Aca
ended
▁Hours
sell
▁allied
mobil
enheim
▁priority
▁hotels
▁accounting
sexual
▁Making
▁Cologne
chia
▁Males
large
lysis
▁Alc
▁providers
▁Ox
▁Dio
ān
▁Crofton
▁contents
▁quarters
▁hanging
▁counts
gha
coloured
▁aquatic
▁Gloria
western
controlled
▁Blind
▁clause
▁parody
▁Eg
▁Sco
▁Sten
▁brake
▁lateral
▁bias
▁Hind
▁Wash
▁Beautiful
▁Airfield
heads
child
▁hypothesis
PDF
▁discussions
▁Rising
Jul
▁App
▁imported
lace
▁Architects
capped
▁Dro
▁Phi
tial
▁Wichita
▁Meade
▁obvious
▁interred
▁dump
▁reactor
▁Russ
▁memories
lith
▁Mickey
▁Gandhi
Just
seven
▁Doll
▁Alexandra
▁Avalon
▁Siege
along
▁bordered
thal
▁proceeds
▁controlling
▁Bellows
▁Peruvian
▁Swansea
▁Stowe
enne
▁lectures
MX
tard
eath
▁directing
▁Ib
▁Lonesome
▁Weiser
system
▁Bentonville
▁Dynasty
▁Psychology
▁Gao
▁Unity
▁Svc
opod
assa
▁Progress
▁Heflin
dley
▁Hawkins
▁trademark
▁Points
▁Boone
vig
▁Roo
▁machinery
▁Christine
▁Wikipedia
▁Carlsbad
▁hymn
▁Snowshoe
▁Ridder
▁Forever
▁fatal
Au
▁Lankan
▁norm
▁simulcast
▁penalties
▁podcast
▁explored
▁Kab
▁knowing
hle
▁congress
▁Conflict
plan
featuring
▁Towns
▁ceramic
uous
tat
scription
▁detection
▁surrendered
▁gameplay
▁González
▁Stratford
▁dropping
nah
▁depicts
▁lifted
Inter
▁Philippe
▁troop
▁researcher
▁AG
▁remind
▁Bellevue
▁ancestry
▁fracture
▁Telugu
▁Chance
▁geographic
▁Whig
▁tactics
inning
▁realizes
RR
▁extinction
typ
▁Tir
near
Gar
▁owns
▁twentieth
▁mascot
▁Ksrv
▁modest
▁AI
▁Bam
▁gates
▁sponsorship
▁Neuro
▁Rao
▁Gua
▁destroyer
wife
▁Evangelical
hik
awn
although
ais
otti
▁Dre
Mer
ily
▁spite
last
▁fail
▁Runner
▁lunch
▁Zor
▁euro
▁Fairplay
▁Trip
▁Oval
roa
▁united
▁Cord
▁Congressional
pore
▁Preservation
▁depictions
▁Brks
▁Ful
▁bombers
▁Translation
▁Sud
sses
abil
Lodgepole
▁Glenrock
guer
▁Handbook
▁Lansing
DT
▁Photography
rose
▁Demon
▁Horror
▁excessive
▁portal
▁casting
▁concurrent
▁Gai
vac
▁reliable
▁offshore
▁Steele
gren
▁receptors
▁Aston
ć
Usbr
owed
▁Sie
▁Solomons
▁testimony
▁Sn
▁acids
▁insight
▁Irving
ety
cyclo
▁Traffic
sided
▁Fond
▁amino
hear
▁sad
▁Doyle
▁flame
loa
thon
White
loch
▁certainly
due
lut
riz
▁accompanying
▁Torres
fuel
▁Marathon
▁civic
ová
fici
▁Lester
hp
▁Saxony
▁realm
▁Collegiate
▁Pettibone
▁grandmother
▁Wasilla
loy
vice
▁Core
▁planes
▁Intel
▁Wizard
▁Flor
tach
▁beta
▁Tibet
▁initiatives
▁Fresh
▁lady
▁mills
▁abundant
▁Hundred
▁clarinet
ured
▁Alder
chrom
▁Stella
voiced
▁objectives
▁Georges
good
▁Ligue
▁couples
William
▁Bucharest
oids
bara
▁humor
around
▁Lover
visible
▁purple
Play
▁commercially
▁placement
▁columnist
zhi
▁Judaism
▁Mohammed
▁Plainview
ün
swell
▁Regent
▁fake
▁Katy
▁mice
▁philanthropist
▁Skamania
▁overtime
▁Start
▁provider
▁enterprise
course
▁Kashmir
▁Kum
▁Muk
▁citation
▁Vince
▁Ethiopian
▁Aliceville
▁"...
▁Guil
lore
governmental
ñ
▁pond
▁walks
▁Dyna
▁Augustus
▁settings
▁Abba
▁graduates
▁fruits
▁Tuscaloosa
▁gmina
▁bounded
▁pension
▁handball
▁Antarctic
▁throat
storey
▁propaganda
▁Dorsey
▁jointly
▁wartime
▁auxiliary
lina
▁Romance
how
tec
▁Shepherd
▁voluntary
▁harbor
▁Joey
Louis
▁republic
▁Diane
▁Somali
MK
▁Turnpike
▁Linux
held
▁humanity
ckle
▁disputed
▁disappear
▁Recorded
▁sphere
ič
Russian
▁Holm
▁jumping
eep
▁Magdalena
▁considers
▁Sidell
▁Agnes
rri
▁Nigel
oot
ican
▁prominence
▁Outer
▁Bump
▁fragment
▁Isles
Gi
▁Ashton
angle
▁Bound
ega
▁Mining
▁Prade
▁Chaffee
▁Chalk
▁Eklutna
▁factories
voy
▁Lorenzo
▁Libya
▁Zagreb
▁licence
▁Dorchester
owa
▁Seligman
▁geometry
▁tension
▁exercises
▁Davidson
Not
▁enormous
pir
sperm
▁wishes
▁payments
▁surnames
▁detention
▁necessarily
▁Laveen
▁shortage
▁Lybrook
Demo
▁Brooke
▁Marty
▁narrowly
production
▁Elite
▁Herb
▁arguing
▁Hobart
uke
icola
▁soprano
▁Jung
▁MIT
▁electorate
▁Comanche
▁aside
record
▁spine
eum
▁Academics
▁roller
▁presenting
nap
▁cottage
▁seasonal
▁Thing
▁achieving
▁Cheshire
▁bowling
Mac
▁arcade
itive
▁feathers
▁Echo
▁sank
Em
▁weekday
▁Kinston
sec
▁Wein
▁donations
▁Cunningham
▁Taunton
▁Namibia
general
▁Gaza
ipe
▁Eaton
▁Languages
▁Shen
eight
▁Lily
▁trafficking
▁Turk
ibly
▁Innovation
▁Nmem
fir
▁Cars
pai
mare
chang
▁powder
▁Sedona
ahl
▁Carn
▁responses
▁Sanderson
▁westward
aldo
▁botanist
▁Teaching
▁sentiment
urban
▁Jur
akis
▁rankings
▁chronicle
Saint
ogue
▁Cassoday
▁slip
bone
▁Mayors
kie
▁Tonight
ark
▁pathogen
gai
First
▁Phillip
USD
▁collector
▁Graves
▁Janeiro
▁Android
▁projected
▁domains
▁Collections
▁Eco
▁regulatory
thus
▁medalist
▁Named
▁nights
▁watched
▁RCA
▁cognitive
aterford
▁saints
rating
▁Augustine
cks
▁Less
▁chains
▁Gem
▁Tyne
▁Tas
▁Expos
por
pont
▁conceived
▁evacuation
▁routing
HQ
▁assert
▁Beagle
▁workshop
▁Mull
ature
▁illustrations
Rh
lateral
▁Howe
mori
▁Jag
▁Skaneateles
▁Lands
▁Turin
def
▁rendered
▁Pomona
▁Plus
mart
▁edit
wyn
▁Quinn
▁Vesta
▁dining
▁introducing
chemical
▁Seney
▁Siberia
▁Nau
▁Carrier
▁Baja
▁habit
▁Rak
formed
illon
AZ
▁Lex
prim
singer
loss
lá
▁Marx
▁Rudolf
▁Claremont
dollar
▁Bombay
paug
▁Established
▁observe
bei
▁utilize
▁mock
▁Glory
▁Mongolia
▁Read
glyc
▁lasting
▁Maya
▁honey
▁Clinical
Universit
ounce
wash
▁Wewahitchka
▁proceedings
count
ort
▁Edina
irre
ACC
▁Barbados
▁Ionia
▁monster
▁Window
▁trim
ival
▁Hubert
▁torture
▁archbishop
recorded
▁Rest
race
▁alpha
▁Corinne
anto
qual
▁Chil
▁generals
▁Pis
▁Dworshak
▁Roanoke
▁challenging
LT
▁Angela
▁Hoover
▁recommendations
▁Ale
▁kicked
▁dealt
▁consumers
▁sends
▁genres
▁Wikieup
▁posthumously
▁archives
▁Wesley
logic
▁robust
▁Inner
fig
▁healthcare
▁balloon
▁downstream
▁Cyber
erg
▁trapped
▁Moy
▁Adel
▁rulers
▁Brigadier
▁believing
▁Shemya
acle
ön
▁Actresses
▁semifinals
lder
wrote
▁activation
Bas
tee
▁Rath
spar
▁barb
▁Um
▁Origins
▁unlikely
Ann
▁smallest
▁Jeremiah
▁Smyrna
▁enlarged
▁Brazos
stru
▁Ronnie
▁impacts
▁Brandenburg
▁Fab
▁coastline
▁Emil
▁Tide
dun
▁regain
▁feud
▁cement
▁Concept
▁Fest
▁Gibraltar
code
▁Darren
▁Sale
▁measurements
▁dys
▁Nad
▁Horizon
▁salary
▁truly
▁theology
▁Glendale
cea
▁Yucca
▁mandate
▁Fields
▁Swede
tiv
ously
oki
cone
▁secretly
▁Bit
▁Geology
▁Bally
▁Stor
▁Plantation
▁Habitat
▁governance
▁creature
▁Account
▁creatures
▁loud
▁pathway
TL
▁Semino
▁Constantinople
▁riot
Gen
guin
▁Geological
▁continuously
▁demonstration
dress
▁IX
urg
▁Skagway
▁Hoodoo
KR
▁breed
▁Sophie
▁Franc
enstein
▁ages
▁wreck
▁sued
▁Angelo
brown
synthetic
▁acceptance
osi
Pol
▁Caruthersville
▁Reverend
LDS
ditch
director
▁hurt
▁disputes
pli
▁Tagus
arily
▁cond
▁Plainfield
▁Tyr
bir
▁feast
▁Chicken
PV
▁violation
bow
▁strongest
▁Fitchburg
▁rings
▁Traditional
▁Loop
▁amphi
▁Silent
▁spec
ahu
▁Acting
▁Aftermath
onda
▁Beltz
pell
▁lobby
▁authored
▁Fashion
▁grammar
▁Purple
▁pageant
ride
▁Wilder
atu
dependent
▁anonymous
▁captive
▁Rodney
strom
▁jaw
▁Moody
▁acclaim
ieu
▁Hays
electric
▁projection
▁merchants
▁Problem
rma
▁Spy
▁Viking
▁Toll
cake
▁tickets
▁Below
▁Lud
▁parameters
ulated
Che
▁websites
▁Etymology
▁merge
▁banner
▁suffer
▁Penguins
hei
eger
▁cloth
▁Pent
DOT
▁Nie
▁knockout
▁stack
eurs
strict
cens
unc
▁Fal
weather
▁axis
▁navy
▁Rockland
▁Saf
▁suite
▁Maxim
▁Memory
ART
▁dimensions
▁arguments
ettes
▁Nikola
▁Tem
▁dirt
nne
tero
▁Elliston
▁Programs
▁cheese
President
▁utilized
▁Pearsall
Han
▁crews
▁Spears
▁Shade
▁Sites
inaliu
nian
▁staying
▁examined
▁Whalen
▁lowland
▁Buchanan
▁branded
Pu
vocation
erate
▁Cristo
tense
▁chicken
▁Treasure
teacher
allow
▁Cause
▁Torre
▁Property
▁Illustrated
▁Burdett
Spec
▁floating
▁Aba
nya
TN
▁Bombardment
▁martyr
▁Ear
▁Stony
▁Rancho
lma
iac
▁schemes
▁[...]
ddle
▁Chas
▁Perfect
 —
▁complicated
▁seating
▁assume
▁Kaz
▁UNESCO
▁archaeologist
▁Hyper
▁Padres
▁Von
▁ultimate
mona
▁Dart
tank
KK
▁immigrant
▁idol
▁partition
▁mast
▁Grassy
▁Karnataka
▁Katherine
▁Bahrain
▁Knoll
▁Catalan
▁Gove
▁promoter
ulating
▁Chain
▁mechanics
▁Lindsay
▁highlights
kul
mail
ozo
▁Pak
gues
nto
▁Goes
▁Rang
▁genome
▁Wolfgang
▁Brick
jet
▁attachment
▁Arabian
▁tutor
▁Wliv
▁Gam
▁Motorsport
▁Hereford
▁loaded
litz
▁submit
▁critically
▁Moto
▁Lakehurst
▁heroes
▁throwing
atsu
▁Sap
gloss
ures
yuan
current
oil
▁tetra
▁hiding
▁Kali
▁deceased
ischen
▁Bouse
▁GM
▁Experience
▁skeleton
▁quartet
▁sectors
▁sustain
▁treasure
▁Richwood
lander
claim
trust
▁Magazines
▁Xavier
▁Multiple
▁Waldron
olla
▁Barrington
Jack
▁Boer
▁Medina
agne
▁fairy
UC
▁Olympia
▁Disease
metric
Good
▁outlets
▁Better
bbs
▁correspondence
▁racer
▁scales
▁Devi
nig
▁brutal
Mountain
▁Juliet
▁Wagoner
▁Antarctica
oslav
▁Statistical
▁resides
▁Parent
tol
▁Griffiss
▁advocacy
▁jersey
eaburg
▁Khu
scape
▁gains
▁Mona
igu
ifolia
▁Buddy
plant
▁residences
▁Norwalk
▁Areas
dur
▁tactical
▁endorsed
▁Brod
▁academics
Green
▁Alf
▁atmospheric
▁Metropolis
▁resolved
▁Airports
▁Pf
▁email
▁assessed
That
▁witnesses
▁Ricardo
▁Talbot
▁Thirty
▁Williamsville
▁Turks
▁Nice
▁Covelo
▁Nishi
Cat
▁Sep
leu
uchi
▁Chambers
▁synagogue
▁Lopez
▁intact
lex
▁violinist
kur
▁Nothing
▁crush
▁Redskins
▁interference
River
▁Cambodia
running
▁adviser
▁Reports
▁Chor
Tu
did
▁Relief
▁frigate
ece
▁landowner
▁Factor
▁Rough
▁metre
▁Evolution
▁hate
conscious
▁Produced
▁Bakersville
▁Lombard
▁mound
funk
▁AIDS
▁mural
▁Batting
▁cameras
▁boyfriend
▁Whiskey
ław
▁Quality
▁Proto
lips
▁Syl
▁Singers
nay
pee
public
▁electronics
▁Cheviot
▁Bot
▁Blackpool
▁operas
▁traces
▁banker
hydroxy
▁angry
angi
RG
▁Rodríguez
▁Trouble
igi
▁Tylertown
▁touched
▁Slam
▁greenhouse
mental
▁Kyoto
▁reunited
▁Kul
▁Amb
▁geography
▁derives
▁miners
uniak
▁Verdi
▁Dj
▁Eleanor
▁Emerald
▁Maharashtra
▁demolition
EE
scribe
▁EMI
render
nomic
▁Wildcats
▁Vanceboro
▁Mozart
official
▁medication
▁Fruit
▁Casper
ference
▁dish
▁professionally
tman
LB
▁variables
largest
▁por
solut
▁prosecutor
▁Animated
▁Classification
▁Pho
▁Este
▁Ravens
udge
▁EPs
tico
▁invested
▁Monaco
▁Bowman
thorn
▁Wah
cart
gni
winged
tant
▁rector
▁Commodore
▁López
▁irrigation
▁grenade
▁finishes
▁Partnership
▁incomplete
▁sprint
▁Gus
▁Compton
▁plateau
▁finite
ession
▁transaction
▁tonnes
bai
▁regulated
news
▁duet
▁Bermuda
▁Bara
▁default
zawa
esca
ifer
▁Hesse
▁Yankee
▁Rank
▁lecture
▁bigger
family
▁canceled
▁Jill
▁advocated
▁caves
▁Lieb
tler
▁Wel
▁Ontonagon
▁warehouse
▁Noah
▁Molo
shoot
▁walked
▁Pius
▁NRHP
▁expense
▁Fulton
▁Myth
▁Expressway
▁Uttar
▁Known
▁lighter
▁Hof
inen
▁Rav
▁Patchogue
▁Simmons
▁lesbian
▁Chargers
▁gravel
Mart
Val
▁Waldorf
▁Mammals
▁Cream
▁Goldfield
▁Robot
Spanish
▁Pontotoc
▁modifications
▁voltage
▁Cedaredge
▁anywhere
▁encounters
bolt
▁tire
Arm
▁galleries
croft
liv
▁Seal
ornis
▁manifest
▁Position
▁Ricky
▁Genesis
▁chef
▁tablet
▁searching
▁Pant
watch
▁Bogalusa
▁Conservatory
▁cultivation
▁seemingly
▁highlighted
▁Sheikh
fro
▁Cran
Veyo
▁bark
▁drill
▁psychologist
▁Hardwick
▁motorway
leaf
▁loses
▁portrayal
holder
▁Som
obo
▁fails
chim
▁SK
▁linking
▁Cranford
▁organizing
▁Grave
Bra
▁supplier
▁dioxide
mite
▁AAA
▁fossils
▁Collier
▁fever
▁canvas
cheng
▁debris
▁concession
nge
▁teammates
▁advisory
▁Landmark
▁interrupted
▁substantially
▁olive
▁risks
▁maternal
▁Kyiv
urine
▁Randall
acco
▁modes
haul
▁holy
▁sacked
XX
▁mortgage
▁Pleine
rump
▁theaters
urb
▁tubes
▁admiral
▁leather
▁Belarus
itas
▁viewing
▁Select
▁Millennium
▁Wilkinson
▁Baba
▁Fc
▁shortened
▁unre
▁reef
elin
garde
▁Cretaceous
▁MacDonald
▁Different
▁numbering
▁Killer
▁Amite
islav
issi
▁Jamaican
▁Walton
HD
▁Petit
▁obtaining
▁Cochran
▁Palla
▁busy
▁winger
▁Quaker
▁Cable
▁hiking
▁freed
BD
▁governors
▁commerce
dip
cision
▁toxic
▁dean
▁Peri
▁Kilkenny
▁advancing
▁fierce
▁Saunders
owe
America
▁Governors
OX
▁possessed
▁Marcos
gis
▁deposit
▁fragments
▁badge
▁Mika
▁stance
ital
▁WWE
hav
Gladstone
▁Clu
▁technological
acetyl
▁hostile
morphism
▁Almost
▁stamp
there
▁JR
rul
▁Rita
▁Sit
▁mega
▁Algerian
▁Electro
▁Lowman
nja
▁Sonata
▁Dion
▁shade
user
▁seeks
▁Tobyhanna
▁Vicksburg
▁approaching
▁plantation
CV
gran
▁Mk
▁similarities
▁springs
▁Dem
Mur
▁atomic
lund
▁ecclesiastical
▁carriers
▁Contra
▁seminar
▁Suite
▁Stro
▁Mang
▁Rebellion
▁Ecology
▁infected
unde
▁Nazis
▁bend
▁Were
▁Dove
bies
flu
immer
ational
▁reformed
▁Honduras
▁occurrence
▁granite
▁Theological
▁Matsu
▁outfit
corp
▁Crest
▁descendant
▁warned
▁Neville
▁diagnosis
▁skilled
border
▁Million
arr
▁noticed
▁plural
punches
▁Classics
leton
rand
invest
▁Beg
TX
issue
▁Vincennes
▁uprising
▁Massacre
▁resolve
▁keeps
▁acute
lease
uti
▁Manual
▁reflects
▁Pasco
▁mortar
▁Zambia
▁affecting
Australian
ushi
▁Associates
▁Aw
▁frontier
▁goat
Catoctin
▁Opihi
Trans
▁Casino
onian
▁Tina
▁detected
▁cassette
▁lacked
▁generic
▁cultivated
▁invaded
▁Opening
▁attained
▁translations
▁investments
iku
▁larvae
▁Jennings
▁spectators
▁battleship
▁Fact
▁Bulletin
▁civilization
EO
▁Brass
▁watts
▁Neihart
▁combining
▁twelfth
▁promising
▁stems
▁WS
nach
ppy
▁villagers
▁Credits
lica
▁Surf
▁Credit
▁commuter
except
▁Feb
▁Occidental
▁immune
therapy
▁Meet
▁clip
rupt
▁Kolkata
▁Rexburg
▁Hide
▁Talent
By
▁Jab
mum
▁tar
Top
▁Lob
▁retro
▁metric
▁sizes
RNA
▁Dell
yev
▁unveiled
mai
bey
▁Poe
▁portraits
▁cooking
forth
▁Ibrahim
▁Macdowell
▁philosophical
▁superintendent
▁Laguna
ank
VC
▁Pseudo
▁Rend
▁tends
recht
asser
▁transmitted
▁complaints
▁Thom
▁Herr
▁Akron
▁Features
▁Quest
EB
ghi
▁equations
▁Martínez
▁Millington
akov
▁Yemen
▁inception
▁Tempe
ná
▁Yes
bic
▁update
ogram
▁Batt
▁flowering
service
osh
▁Teachers
rava
▁Latvian
chancellor
▁quarterfinal
▁flowing
▁patch
▁Bremen
start
▁pedestrian
▁Higgins
▁Honors
▁FIBA
yoshi
osphere
▁halt
▁magical
ppen
▁Skin
▁precursor
▁qualifier
▁Wes
▁Jetmore
▁happens
suit
▁wished
▁publishes
▁Carmen
▁sometime
▁triangle
epu
GH
God
Smith
yx
rani
▁quote
sdorf
▁Instrument
oidea
Tech
ilt
umba
wat
▁Carlin
▁Sprint
▁Yong
▁Rodriguez
▁struggling
▁uranium
▁pottery
▁ecological
▁Shopping
sonic
▁Booth
hus
▁torn
▁Coming
▁Greenland
▁Stump
▁guidelines
▁Granada
▁Bucklin
▁rushed
▁Abbott
▁Ped
▁Extreme
▁Twelve
▁Mechanicsville
▁Emp
resistant
▁indie
Tv
▁Polo
wara
▁swimmer
fringe
▁Restoration
▁calculation
▁Crescent
▁Vampire
▁Riding
uh
▁Acadiana
iling
▁publishers
▁commanders
hag
▁revealing
▁Ut
▁Graphic
▁Labrador
ipa
▁displaced
▁Bryce
Sport
▁adds
acher
▁spelled
nary
bald
▁skaters
▁hire
▁swimmers
Canadian
▁Judy
▁Fried
▁Lay
ishing
▁Keep
▁convent
▁Allison
ordination
▁freshman
▁decoration
▁witnessed
▁Galway
lish
▁Lars
WP
▁loves
kla
Palatinate
▁Hourglass
▁diagram
trum
▁Penny
▁Pepper
▁Nai
ACT
▁reversed
dging
▁faithful
▁Markham
▁brush
garh
▁Mechanic
▁uniforms
▁reinforced
▁Borg
▁Tay
▁Alps
▁Ley
▁Embassy
▁Grantsville
▁enacted
OW
▁Jain
each
▁rely
▁Behavior
▁Berkshire
▁Gujarat
▁expertise
▁Stre
syn
aster
▁ignored
▁partnered
pert
lump
▁Monarch
▁eu
▁robot
robin
▁UCI
bine
hola
▁humid
▁Bullfrog
▁Limerick
▁Lorimor
▁Genoa
bek
▁Sexual
▁Alcan
▁frames
▁Must
▁Epic
potent
rion
gata
▁Gent
▁printer
▁valleys
Bill
neck
czy
▁Consumer
▁Territorial
▁Patriarch
▁tracking
▁applies
▁unemployment
▁Og
▁develops
▁Capt
▁Reagan
love
▁Miya
▁Soft
hey
▁Hur
▁sanctuary
▁Fowler
▁Shr
▁Nile
▁Hassan
meric
▁phases
▁Beta
▁wool
emer
▁Marino
Wil
▁vest
▁Knowledge
▁Forecast
▁monk
▁knock
▁shells
lub
▁Kami
▁Lig
▁Winnfield
▁Scouts
▁isolation
▁Renault
dul
▁Venus
▁Youngtown
alam
▁defines
▁Clube
▁Villanueva
▁Emmanuel
▁Month
▁TKO
▁Flyers
▁Gou
RV
wak
▁homeless
▁Moravia
▁Westerly
▁helicopters
▁Kii
▁politically
▁Alamo
▁leak
▁Northampton
▁Fitzwilliam
▁Ackerman
mys
▁Circus
▁brass
▁Slovenian
▁Dirt
▁monarch
LG
Stowe
orient
▁Wetland
▁teenage
▁Enfield
▁listening
▁constituted
▁Counter
▁Oaks
channel
itan
amu
▁opted
▁vow
treat
▁Aquatic
▁transactions
backed
▁Gone
▁Unfortunately
▁nervous
▁Heather
▁Campo
▁hoping
▁Directed
chair
ception
lack
hydr
▁Hip
quel
▁Lesser
LM
▁Jump
Great
being
Hol
▁marketed
stop
▁coined
pay
slide
athi
tung
▁Bihar
▁Anita
ATA
enda
▁contacts
▁Activities
▁Judith
▁Teresa
▁undefeated
▁merit
▁Tolt
▁tasked
▁Doc
▁Matter
Im
orie
▁Add
▁Burt
City
▁Sanskrit
▁maneuver
EST
otee
▁buying
▁Scarlet
University
ades
dicated
▁Iv
NB
▁Pietro
ively
▁Archaeology
▁celebrity
▁planets
▁Workshop
vou
▁Neal
▁Schl
▁colored
▁Loss
Sherman
▁Moo
▁expenses
▁pregnancy
▁Stirling
▁Woodfords
yar
▁termed
Sun
yuki
▁tertiary
▁Hyderabad
▁Andhra
▁Paramount
▁Vocals
▁Buch
▁echo
▁replay
▁charted
▁Fortune
bud
Mad
▁colleague
▁Hui
cardi
pool
gad
▁avoided
▁Famous
▁Haigler
▁Hilton
▁proclaimed
▁proceed
▁gland
Japan
▁complications
▁insisted
▁Shannon
▁Pearson
▁coincide
▁competitor
▁Cun
▁Vehicle
▁Mama
▁snail
▁skiers
▁Verlag
▁Stockville
▁Cost
▁Trap
authored
ych
▁Behind
▁Newspapers
▁Easy
▁Status
▁Marin
▁stats
hip
▁legitimate
▁Charlton
▁Ris
▁cab
▁Barrow
▁Ska
AST
rative
yk
▁crowned
▁Phar
▁Levy
▁decay
▁Lincolnshire
▁Trees
enia
rei
quire
▁plains
ours
▁collegiate
▁prolific
▁surveillance
▁lacking
▁Hawley
▁baron
VM
▁Noel
ometer
▁Frog
▁Found
▁Watt
▁virtue
▁Rivera
▁rocky
▁Blackwell
▁Muse
▁Vr
Reg
▁whatever
RK
▁SEC
▁rehabilitation
▁Chevel
▁Gon
▁catcher
bag
▁Drag
dependence
UI
▁interactive
Sea
arius
▁dedication
▁pitching
▁grassland
▁Sill
▁Wl
▁resided
▁Saxon
▁supposedly
▁crater
Radio
▁Ranking
▁Active
▁chromosome
▁Soda
▁Certifications
▁annexed
▁Jal
rana
▁Willard
▁Kamp
▁Bologna
▁vampire
▁quantum
▁Gad
▁disasters
▁Dolphins
itter
▁backward
▁RFC
▁Avon
▁Losses
eze
▁tunnels
kol
▁Abbeville
▁Tonopah
▁Aur
dry
▁enclosed
graphic
noy
▁Contract
▁confluence
▁Yellowstone
cles
▁Pia
▁AllMusic
▁Soldier
▁Macau
▁particle
▁Wife
iron
▁Marketing
▁Prj
mag
▁Lal
▁Truman
iate
cano
natural
loaded
▁Crosby
▁Sweetgrass
bah
▁fitness
▁Laurent
▁Beech
▁scrapped
▁Robbins
▁renewable
▁Reformed
vs
▁suspect
riya
▁shipped
▁Roseburg
▁consul
▁inmates
Württemberg
▁Written
▁coordinates
▁Icelandic
encia
uce
vell
▁Pana
▁Waters
ishi
▁Sutherland
▁modeling
data
iso
▁loaned
▁constituent
▁tributaries
▁Tehran
▁wears
release
athlon
▁Plata
Sgt
▁Event
great
▁disciplines
▁borrow
▁financing
▁decisive
▁Subdivision
algebra
▁undertook
▁differential
▁Kawa
▁Vie
▁Iso
▁councils
▁alpine
emann
▁Ripog
sheet
Tur
▁overview
▁chaired
▁pianists
▁reduces
▁elevator
▁Smithsonian
▁melody
▁puppet
▁bog
brow
▁respected
▁effectiveness
▁Vy
▁Bingham
▁Sei
▁Ravi
▁Emirates
▁Lukachukai
▁Tottenham
▁charitable
▁comparable
▁satisfy
▁surprising
phospho
Who
▁sweep
greg
▁presumably
talk
▁Rei
▁NJ
fore
▁Universiade
▁Sli
▁Hari
▁Rhino
RAM
▁boxes
otte
▁newer
▁Montrose
▁flesh
▁Ele
▁Stu
▁fare
▁beaches
▁physicians
▁Fleming
▁calm
▁ancestors
▁HC
ggi
▁precise
pali
selective
▁Split
lade
▁Harmon
▁Move
▁ballad
▁Farr
▁Taipei
▁Potosi
cycle
RU
ABA
▁Jubilee
▁Wimbledon
▁capturing
▁Vevay
▁Watkins
▁Programming
▁complexity
aldi
gawa
kick
chus
▁defeats
▁Loc
▁instances
▁sleeve
▁yacht
▁humanitarian
▁WH
hri
▁adequate
Mc
meth
▁reconstructed
▁consecrated
▁Elmira
entry
▁Wigan
▁Nicolas
magn
▁explicitly
alli
▁Yun
▁Alfonso
▁casino
step
▁Aaf
▁fraction
vation
orbital
vul
▁profits
▁Lew
ddy
▁differs
▁Communities
▁Bonn
▁religions
▁indicator
▁appealed
▁Quarterly
▁Kost
numbered
▁León
▁Haz
▁intelligent
▁cyclists
▁Pale
▁strictly
nci
▁airplane
▁resembles
▁Domain
ury
▁Humphrey
▁Mikhail
▁rower
▁Antoine
▁urged
▁Keys
▁Wii
▁Operational
phyll
▁couldn
▁Vita
▁Hoy
▁comfort
▁Fog
▁Nicole
▁progressed
vé
▁Roster
▁Thousand
▁Sometimes
▁Interactive
inous
uddin
musician
▁Woo
▁celebrations
▁countryside
▁sovereignty
▁Minute
▁skate
mov
kr
▁scholarly
▁disposal
▁Tool
▁sexually
▁migrated
▁upstream
▁Sven
▁Jaya
▁CBC
stroke
▁alarm
▁persuaded
GM
▁McCo
▁gym
▁comeback
location
fair
tmt
pura
▁addresses
▁destinations
▁declining
osta
▁Cypriot
▁Boswell
▁liked
▁Mosque
▁Seeley
▁Poor
From
▁Sawyer
▁Gore
▁Success
▁deficit
▁softball
▁upward
▁Kis
▁Harts
▁Cory
block
▁Shim
▁paths
▁Gee
kari
ás
▁Compilation
▁computing
▁decorations
▁unnamed
▁broader
uation
▁Runners
▁reprinted
▁Orient
▁ultra
chee
▁Kalispell
▁enabling
▁Clifford
▁dissolution
▁radius
▁Publication
▁preceded
▁Mare
▁employer
▁relax
grav
▁Catholicism
▁Lives
▁collaborator
peptide
▁Ozark
▁discography
▁Said
▁organist
▁succeeding
▁Shoup
▁Schwe
▁Elvis
▁Zel
▁autobiography
▁beside
eared
mour
sheim
▁Hub
▁quantities
▁intensive
▁Lub
▁sac
SK
Hungarian
Pacific
bab
▁Romeo
▁Hang
▁Bloom
▁Wat
lington
▁lens
▁bowler
cup
hly
carp
▁Fitzgerald
▁hiatus
▁applying
short
▁thinks
lied
▁Marvin
▁Bradfordsville
▁coral
emon
▁quadr
▁suppress
▁highlight
▁concentrations
taining
Domin
▁Southeastern
▁talented
▁Pérez
▁qualities
ongo
tolerance
▁alphabet
lc
gold
MOS
▁latitude
▁Río
viv
▁educators
▁Charity
▁Placer
▁Hodgenville
▁Niagara
▁noun
▁Nurse
iller
▁Brig
▁Reader
▁divers
▁Jing
Mal
▁Okay
chenry
▁Minter
▁clash
idis
▁Declaration
▁triumph
▁Afro
ór
▁nurses
culus
▁fungi
▁Hankinson
▁Applications
▁recount
▁Manga
engine
mire
▁turret
▁Papaiko
▁finest
auer
found
▁weigh
obs
flight
VR
▁Antwerp
▁Osawatomie
▁Universidad
▁Chennai
▁Submission
▁nave
▁descended
▁Mund
▁dams
optic
▁verses
▁curved
▁Alam
▁Restaurant
▁Mead
▁Lib
kata
AND
▁tiny
rö
▁Assam
▁Direction
▁Rider
▁Electronics
yen
Paris
▁Kana
▁Oasis
▁Connection
▁Gli
yun
▁Leafs
▁Object
▁doll
▁Lovelaceville
▁detachment
▁obstacle
▁Bahá
▁steady
▁Rookie
▁Venture
chon
▁Martinez
▁Mayfield
▁Mouse
▁Bangkok
▁Domestic
▁Cath
▁corporations
▁Geoff
obi
tik
▁conquered
▁squirrel
▁Staffordshire
▁resume
▁charm
▁Help
edge
▁Dwight
▁militant
Work
▁Warm
▁finalist
▁Brewers
▁Thought
ract
common
▁Plays
▁ceremonial
▁Iliad
cie
▁everyday
Marie
OU
▁MLA
▁Rubin
Canada
▁Character
endorf
▁Canadiens
▁Bavarian
▁diploma
Two
unit
▁Merlin
gust
lä
▁Calcutta
▁Presidency
▁Breien
lach
▁favored
▁Nut
vocal
iest
▁Terri
breaker
▁Shock
flex
JP
IU
ieri
▁Pahala
▁accent
▁Bench
▁divine
▁Rub
ebra
CCFFCC
▁supervisor
▁Gwen
▁Funk
▁Middleton
▁insect
▁Whis
▁Wee
ambo
▁Hopper
kow
▁Slavic
▁Assessment
▁jockey
▁concentrate
▁opinions
▁Term
▁Polytechnic
▁Hwy
hoff
▁Clair
▁Basque
▁Carthage
▁GDP
▁Appeal
▁Pastor
▁Baku
▁coaster
▁Entry
▁Bey
▁screenwriters
▁mood
hell
▁Irene
▁stopping
ité
▁Legends
figure
ffle
▁Molly
▁Marseille
▁kidney
▁Concern
▁Magnus
▁baseman
▁Clive
▁Hoffman
northeast
▁Lut
▁feeds
▁Ipswich
▁outfielder
▁installations
▁McGill
▁Amor
▁equality
▁reflection
▁Toyota
▁Kip
▁Vai
▁Kitchen
▁requests
lm
▁Horace
▁reside
ahan
aircraft
zha
▁Died
▁saves
▁replica
often
ät
terra
▁Resistance
▁genuine
▁coefficient
▁Eduardo
▁Monta
▁socio
rne
▁freely
▁ICC
▁Rainy
▁teaches
▁Barkhamsted
▁Gallitzin
▁circum
▁advances
▁sixty
▁knife
▁Thornton
▁complaint
iques
▁polynomial
ström
▁Reason
atha
▁organizer
baseball
▁informal
▁recommend
root
Western
▁Passion
▁Wigwam
▁televised
▁combine
Dan
Tom
▁adventures
▁Words
▁Astros
▁wireless
▁investigating
▁Baghdad
▁quantity
agua
▁Taiwanese
▁Stephanie
lion
▁Question
▁textbook
▁Deco
defined
▁Maps
▁Phys
mah
▁Erin
▁Marian
upa
▁Gian
ulia
▁Zin
arina
▁Chino
mento
psych
▁Ping
▁limitations
▁expired
▁Bry
▁Creation
Chief
Free
▁mutations
▁gradient
▁Natalie
▁filmography
▁McCain
▁unity
Long
molecule
yna
vill
squa
▁violations
▁dynamics
▁Kō
OA
ulator
▁institutes
▁spreading
▁generating
▁Cyclone
▁securing
▁dwarf
▁flycatcher
▁loyalty
▁Ion
▁Berger
▁thread
Benz
▁Cen
▁Colle
▁consolidated
AHL
▁valued
cyto
▁Hom
verted
▁consciousness
▁Benny
▁Rip
▁seventeen
▁daytime
▁sleeping
▁Odd
Michael
▁Quick
fat
▁feared
▁Novi
▁imagery
▁motivation
vre
▁Cycling
▁Vera
ción
▁struggles
▁Chem
kee
▁Violin
▁Khal
abbreviated
▁thrust
mpton
▁Dante
inski
▁mapping
▁demanding
social
activate
▁inquiry
▁Ding
▁Pes
▁Ibn
▁mastering
uwa
▁anthem
▁Mathematical
▁Nassau
▁prevention
▁Reviews
▁prizes
▁trout
Ju
än
▁aided
▁plug
▁Normandy
xx
▁Foley
BU
▁Rockford
▁practitioners
▁coupled
▁marker
▁integrity
▁Rib
vard
Wh
▁Errol
▁Lights
▁redesignated
rax
▁Cod
Get
▁rabbit
▁Roundup
▁subunit
kou
▁Hindus
hani
▁Clean
boys
▁Sandra
▁Segunda
▁Gettysburg
▁Gerlach
bourg
▁Byrne
▁Mental
▁Christie
▁regained
▁Fischer
▁geological
hitter
▁disturbance
▁Enrique
TD
Div
ube
▁hind
▁Trenton
▁Steuben
▁platoon
rau
▁bedroom
▁Hob
wie
ghe
▁Corb
ordin
▁Specific
▁Pompano
ife
arte
▁Kie
▁frequencies
▁kidnapped
▁Incident
▁Journalism
▁Sheila
crest
▁Pens
floor
▁Weekend
▁Wyn
▁provisional
keeping
metre
▁Summary
▁suspicion
▁engaging
▁cyclones
▁surveys
▁Milo
▁Nico
▁Jes
litre
▁Lazar
▁IRA
rene
▁Scientists
▁consulting
▁retaining
▁keen
▁owing
▁Jai
▁threshold
▁Houlton
▁Episodes
eph
▁anticipated
▁Guer
bula
Hop
▁Abel
sometimes
friend
▁wages
▁Tomorrow
▁luxury
▁heaven
▁lumber
lun
ARC
▁statues
▁Wheeling
▁darker
▁Dep
▁Snyder
▁Narayan
▁Belo
▁monkey
▁injection
▁enforce
fill
▁Vall
IK
▁Austro
divi
correct
hren
▁phenomena
▁Sinclair
▁doubled
▁extant
▁prediction
▁syndicated
▁oval
dance
▁Recurring
▁Bride
esque
▁Divine
▁Smithfield
▁underway
▁Boh
▁screened
Vol
David
▁thermo
▁Vaughan
▁choosing
Fairplex
▁Meteorological
▁Sept
▁Cornish
▁Paolo
guan
▁Camdenton
ulin
▁excluded
▁Harriet
▁dreams
▁Puyallup
▁Snider
▁damaging
▁elevations
▁philosophers
▁lots
▁Elliot
▁Milk
▁Jeanne
▁Amity
▁reproduction
▁identifying
hine
▁Jules
▁dioceses
▁mandatory
▁Babylon
Routledge
▁Palermo
kHz
▁Doom
▁asset
tex
▁threatening
horse
▁HBO
▁Rhe
▁Neptune
▁flexible
▁Grenora
▁burden
▁Clearwater
medic
▁Custom
cé
EV
▁Gest
▁Variety
▁Degree
▁mobility
▁settling
▁Verona
▁Nagar
▁clips
▁texture
▁Holl
ullah
blast
uja
lite
▁grape
▁Crossing
▁chat
▁jumper
▁confined
▁Premiership
▁oppose
▁Hazelton
rado
VFL
▁Sag
▁Bhu
▁Allegheny
▁ethics
▁Stockbridge
▁conventions
kil
▁Brit
▁Serra
tip
▁Cycle
▁nucleus
▁Mcas
pé
▁Somalia
▁Quin
▁Observer
▁Cobb
▁Chung
inho
imate
▁Pittsville
▁Xeon
mme
arid
▁Mask
▁welcome
▁Madame
county
chard
▁Gibbs
▁Element
ader
▁Bluffs
▁homosexual
▁Survivor
▁harmony
▁readily
idence
Comp
▁Piece
▁expect
▁Slave
rung
▁Zar
▁Equin
▁authentic
▁apprentice
▁tractor
▁Tribunal
▁quarry
▁underneath
▁STS
▁Afterwards
▁Founder
▁Kuala
▁nonprofit
Ku
▁determination
▁drops
olf
nitz
▁continuation
▁Rare
▁motto
▁Believe
▁Hicks
▁Calder
rä
▁Quad
VH
▁caste
▁Lolo
▁Marg
▁Satan
▁pursuing
▁terminology
▁speculation
▁Limestone
▁Running
▁descend
▁Jungle
▁Feder
▁maiden
▁overnight
▁underwater
▁($
▁traits
▁counterpart
▁submerged
▁Kgw
▁implies
▁indication
athlete
PK
▁Dancing
▁spark
▁Snowball
▁switching
guitar
▁Laurence
Peter
tini
▁Penguin
▁fitting
▁Bard
ograph
▁listeners
zaki
abba
▁ensuing
▁marathon
▁Wit
▁Bayou
▁campuses
Glenns
▁Stag
▁Stephens
▁pioneering
definite
▁notorious
▁berth
▁chant
▁Pep
▁sealed
▁Sinai
▁reflecting
doc
▁specially
▁Motors
▁locked
chau
skaya
▁shoots
economic
▁Müller
▁gambling
▁Fishtail
itic
Bob
▁tiger
▁filling
▁fountain
▁Ansonia
▁plumage
▁Abe
▁Andes
UV
▁pretend
▁Barack
▁accepts
▁amended
▁homeland
ndon
▁Wiltshire
▁organs
▁prints
ienne
olate
▁Carp
xie
▁tales
▁graves
info
▁Chesapeake
▁traverse
zine
▁feedback
▁Allies
model
▁Schu
▁Toshi
▁flies
▁snap
▁Jah
▁gaming
tet
▁Hare
▁Weir
▁Abram
▁interception
beg
▁plantations
▁Fate
▁catches
▁reasonable
hak
▁blamed
lement
▁Togw
▁Criticism
▁Stroud
▁Liam
▁railroads
▁Aedes
▁explaining
cion
carn
▁Sib
▁criminals
CON
▁posterior
zier
▁mortality
▁pile
tention
▁Dad
colored
▁corrupt
▁visitor
▁Paragould
▁extraordinary
▁timeline
▁spatial
▁prostitute
▁Catarina
▁Feather
▁garnered
▁Dav
▁wicket
▁Dag
▁incorporate
▁Weiss
arium
▁symbolic
article
▁epidemic
▁rectangular
▁Abdullah
▁Elbow
JR
▁Eloy
▁traced
▁Holdings
▁handful
▁McCoy
▁gymnast
sensitivity
▁Suzuki
▁blame
▁choke
▁Patent
▁Hands
▁employers
▁substrate
▁Colour
▁Lé
▁neighbour
▁Territories
▁Sappho
▁bracket
ISS
itta
▁Krist
▁Raz
International
volution
▁Fairy
▁Explorer
glacial
▁Gloucestershire
escent
omp
novel
▁Layton
▁Eleven
▁originating
▁yearly
Luc
occup
▁Consequently
▁safely
▁circa
gara
▁Hamm
▁occupy
ologies
lwaukee
eaux
uze
▁cadet
▁Lakers
▁trends
pedia
▁pupil
▁Stones
▁Synopsis
seller
brother
▁trauma
▁correspond
▁functioning
Son
▁anterior
▁surround
bili
▁Corporate
▁Sculpture
▁Shawn
▁Morenci
▁Protocol
▁wounds
grand
prom
▁Crete
▁Huang
▁Cache
posing
▁Mcalpine
▁accepting
slav
▁Nationalist
Sal
▁blockade
▁Puu
▁deny
▁Sparta
HE
▁Salon
▁Aj
▁Galaxy
occupied
▁stuff
▁exploit
hora
moral
LV
▁Wolfe
uted
▁affection
▁Saba
▁Resource
lator
▁Kumbrabow
▁automated
ubi
▁consequently
▁Westfall
▁Moro
ohn
▁Atoka
toxin
▁complained
▁Shoe
HB
▁shoes
▁magnet
▁associates
▁Turnagain
▁vaccine
▁pleasure
Tomahawk
▁Constable
▁Hurst
▁cease
▁Chesterfield
▁Gren
oven
serving
▁Drums
▁Cadet
▁Minong
mass
▁donation
▁Phila
cult
▁Haitian
dore
▁deeper
▁Certificate
▁Infrastructure
▁replied
▁Accident
▁spirits
▁Pyr
▁Congressman
▁Animals
▁Everton
▁waterfall
▁Christchurch
▁oversaw
▁Isl
▁sponsors
iste
▁Janesville
clar
▁Pom
dah
▁compare
▁Coden
graphy
▁Campeonato
▁Peggy
▁overwhelming
▁Rocket
weiler
▁Dau
tres
ossa
" –
▁Wir
▁Werner
▁miniature
▁Regina
match
Script
bush
▁module
▁Fauna
▁Guinness
uary
▁Dunlap
▁Monitor
▁Lenox
cad
▁teenager
andra
directed
▁dishes
VS
▁Shir
▁gravity
▁reissued
▁Belarusian
tage
▁Alba
▁proud
▁Cz
▁Frei
▁surprised
▁ancestor
gain
▁Chanhassen
▁Deputies
▁terminate
▁Monkey
▁Malone
ggle
political
▁dimension
vention
▁overthrow
hib
▁turbo
idine
▁Mom
▁sentences
▁Vent
excluding
▁Judicial
▁Madonna
▁slogan
▁Aga
▁Mü
minor
tak
▁lobe
▁Fro
imal
▁Pembroke
▁Marilyn
roma
▁Shoals
▁Nichols
▁exports
▁Bram
gang
lew
▁swim
▁welcomed
▁atop
▁Sunshine
▁boast
Net
▁prefix
See
▁Triad
▁Camb
▁discussing
edu
▁Aber
▁objection
▁devotion
▁Coliseum
▁Crimson
▁Domingo
▁clearing
ní
▁gifts
▁broker
▁determining
▁Mighty
▁Scobey
▁liberation
▁Mines
cant
uber
coach
placed
▁appeals
▁pyramid
▁Landscape
▁confrontation
Temp
▁Maid
aye
▁peri
▁curl
▁prefect
Parti
utz
urin
SAT
▁Kita
rena
ules
▁purchasing
▁swallow
ience
▁Observ
▁Ringwood
▁Directorate
▁dialects
▁surf
▁awake
effective
ady
▁Almont
▁Dogs
▁Wheat
▁Tian
▁abundance
▁Boom
bala
▁Maggie
▁Dramatic
▁Beit
▁rowing
▁Robbie
▁Radi
▁Prem
▁Liber
▁Polk
▁dose
osus
▁Electrical
▁Uncle
working
▁Bosnian
▁Meredith
▁innocent
▁Bucksville
▁Isabella
ranked
▁Woody
▁PBS
▁lengthy
▁Congregation
▁Epping
▁Rhein
▁recruit
▁Sac
▁cameo
▁protective
tv
▁Kri
▁Custer
▁northbound
▁Lori
kit
Ur
▁realize
IAA
yana
▁dozens
▁modification
▁persecution
▁inscriptions
▁tendency
▁Spiritual
games
fast
▁Sammy
ape
▁Forestry
▁Moment
▁Citizens
▁Duluth
▁Purdue
veil
▁instructed
▁Middlesboro
OG
▁glaciers
▁Lifetime
▁Cult
▁Bordeaux
▁platinum
morphic
complete
▁Crossville
politician
▁posting
layer
▁Metter
minating
▁Ephrata
▁dramatically
encies
Book
▁strengthened
▁Hair
▁exceptional
▁Wolfeboro
▁Bruneau
▁Eunice
▁Galesville
▁Tomas
Land
▁Oldham
▁rifles
▁Tip
▁Larsen
▁repaired
shift
▁Seminole
▁Marmarth
▁Abbot
▁Lecture
▁unreleased
ACE
nau
hul
▁Voices
they
▁Welfare
Ben
”)
dum
▁stripped
kus
phus
▁Bravo
▁spill
ING
Master
▁Essays
▁XIII
▁Springer
▁brilliant
▁jungle
▁attributes
▁acknowledge
usually
▁encompasses
▁sink
▁Sonny
enta
▁streaming
▁pasture
crat
▁Nur
upon
iaceae
▁jealous
glass
▁Citizen
lope
▁Bardwell
▁Kern
▁Airborne
▁ethno
▁Ike
Extended
▁Copp
▁administer
▁Kukui
▁Autonomous
▁Mohamed
Robert
Mel
▁insufficient
lette
▁warriors
▁Gott
▁intercepted
▁Mechanical
pond
▁Colton
▁Auxiliary
▁Conneautville
▁autonomy
▁ensuring
science
▁Miranda
carbon
▁reorganized
▁Chorus
▁Goodman
▁Airways
▁Ambassadors
Miss
▁Rust
▁Malmstrom
▁McLean
▁convection
▁disadvantage
▁rebranded
▁dairy
Berk
▁temperate
▁participant
▁Kris
▁Pip
▁burnt
▁FL
▁Tradition
claw
WO
▁Think
▁gases
▁Loup
▁conceptual
dica
▁Panel
▁Darkness
▁Autumn
▁Haus
▁Atari
▁Oceanside
▁Zhou
▁consumed
▁Bret
▁THE
▁Mura
▁buyer
▁feminine
▁residing
▁toilet
gated
region
▁outline
▁escapes
▁enables
Sam
▁Angus
lek
▁distributor
▁predators
▁Lille
▁Playoffs
▁alteration
Barb
▁Duff
▁institutional
▁Ryder
▁Comm
▁southbound
▁Paz
▁delays
Chi
▁Adventist
▁taxa
▁Dé
▁pray
chie
gé
physical
▁primitive
▁Hickman
▁Cooperation
▁imprint
asp
haele
▁distress
hali
▁postal
Swiss
XL
@
gong
▁enzymes
▁realistic
▁Breakwater
mei
▁whi
▁Karachi
▁dental
▁instant
agged
▁Cree
▁Smiley
▁Retail
▁barely
gir
lix
rv
▁healing
▁Miracle
▁dominate
medi
▁Isa
▁Images
▁Swing
▁afterward
▁helmet
▁Kand
▁outlet
▁sings
▁Rossi
▁Tee
▁terror
tara
▁Bren
DOS
▁Prima
▁Photograph
▁residue
▁surgical
▁Cornuda
▁subscription
▁Mitch
▁raced
operation
▁councillors
▁lizard
▁infinite
▁Arte
▁Julio
▁coordination
▁Format
▁Kata
aker
▁Try
▁whereby
minated
buch
▁complexes
isco
▁Sanford
transferase
▁Approximately
▁monasteries
▁Lionel
▁tips
rō
▁Risk
bry
boats
Soviet
came
too
▁deity
▁swift
▁guerrilla
▁Bali
river
Kar
▁Eurasian
▁Esther
▁Humanities
▁Wire
▁optional
tology
▁disco
▁Response
▁Tipperary
▁occupies
▁Malayalam
▁Bottom
▁whenever
▁employ
▁imaging
fried
neur
Easton
mata
Ac
▁Uruguayan
▁monarchy
Vari
▁Schwartz
dim
▁Monuments
iidae
▁smart
puram
▁Northwood
Tre
grant
▁Fernández
▁Sanctuary
▁Tiverton
▁composite
▁retrospective
▁basal
▁Christina
▁Myr
▁FG
▁Ceylon
▁Permanent
▁insult
▁ornament
▁Kirch
▁Units
Bahn
▁embedded
▁pigeon
▁suffix
▁Coupe
▁destroyers
▁cheap
hopper
▁relied
▁Thal
▁competes
▁Sla
chas
▁marsh
▁excellence
▁Kinross
▁Preserve
▁Target
▁Teacher
women
lost
▁compliance
▁GWV
▁minerals
dicate
George
odes
mort
▁subjected
▁rides
▁Palo
birth
▁Gün
tek
▁Touchet
gno
▁biblical
▁Mercy
▁warnings
▁riots
▁rituals
▁Godfrey
▁decorative
▁Saar
▁theorist
▁Rho
metallic
▁Rather
▁proportional
▁Clinic
symmetric
▁sovereign
▁eruption
▁propeller
hong
▁XII
Atlantic
▁Laugh
▁Transfer
stow
isk
▁expectations
iated
▁nitrogen
▁Freddie
amma
▁prose
▁minorities
▁incorporates
▁Bing
▁Koz
▁promises
▁sculptors
▁Northumberland
▁Technologies
▁eponymous
▁Flanders
lead
▁spacecraft
▁Moldova
▁Rowing
lux
▁Governorate
▁curator
▁Gear
originally
▁desperate
▁pastoral
▁Bahamas
Welcome
gler
▁twins
kum
vad
▁Paula
▁Cele
▁Intermediate
▁Dodson
▁silence
▁Cartoon
▁Cullman
▁ascend
▁Unknown
alus
▁Rau
cliffe
Indian
▁privilege
▁Visitor
▁showcase
Natal
▁Watts
▁Riders
▁seminary
▁Oc
▁celebrities
▁Clever
▁Shelley
▁locate
▁Ev
▁Salcha
▁clusters
uco
ró
▁kyrka
▁Coco
▁restrict
▁Biblical
guchi
▁bare
wir
▁documentation
Instrumental
UB
▁Cong
▁Kama
▁Wewoka
▁incorporating
▁steadily
▁Engel
▁motivated
▁Cum
▁Samoa
▁deposited
big
▁Ferrari
▁Hau
iation
▁Previous
bang
dactyl
▁Limit
▁Waialua
▁disciple
Champaign
▁Flemish
ffen
milli
attested
super
telli
▁turbine
▁paired
Line
idia
Pierre
▁Extension
▁Olivier
▁shrew
▁Gle
coding
▁Nielsen
▁heated
▁distribute
▁Williamston
▁Pag
▁Coaches
▁Enter
▁KL
history
▁Merri
mig
▁Fishing
▁Eddy
▁sinking
▁Traverse
throated
▁Going
lessly
▁Eritrea
▁Venetian
▁Earned
▁mosaic
▁spanning
radio
▁breakdown
▁glacier
quality
▁Tomb
▁ears
▁drunk
▁Sunny
▁Mcneil
▁telescope
fused
▁Blairsville
ossi
hydro
▁terrace
▁Shelton
▁spider
▁BMW
▁courtyard
▁accomplish
▁Irvine
▁nightclub
▁Employment
▁tensions
▁Greensboro
▁Homo
▁Ore
▁remarked
vio
hampton
▁deciding
▁parrot
Walk
▁Courthouse
tidae
▁Cao
▁carefully
▁affects
▁Martyr
nm
▁User
kW
▁LONEOS
▁Macmillan
▁sophomore
▁Kennebunkport
▁adverse
▁disappearance
▁Quinwood
polit
seeded
▁marched
▁distract
sanctioned
▁pulse
nton
▁comedians
▁mob
edited
▁Chico
Angel
▁Vote
▁Senegal
▁comfortable
string
▁localities
drop
▁Coral
▁pride
▁Reconnaissance
▁folklore
▁Paralympics
▁Waiana
▁eleventh
▁disability
▁Vul
ivist
▁assign
▁Boca
▁outlaw
ROM
▁Adi
chenko
kindergarten
▁acquiring
▁lacrosse
▁successes
itude
▁Loud
▁interfere
▁Poole
▁Elgin
▁Lure
PN
▁reissue
protein
▁Frederic
hog
▁Kou
▁Guam
▁attach
fascist
▁clue
▁Leaf
▁harp
▁stamps
FX
▁Pasha
▁Listed
▁Gaston
lter
▁Goss
▁Properties
▁Superintendent
▁Taliban
▁Label
▁Harvest
▁Cage
▁persuade
▁Weare
▁recommendation
tained
▁Wittman
▁gull
▁Assyrian
▁Juniper
▁sheriff
trud
▁Landforms
jal
▁targeting
▁Dailey
major
taking
▁mountainous
▁publicity
▁duel
▁Yuri
▁Avengers
▁Chant
▁Commun
▁disagreement
▁Reporter
▁Sharma
▁breeds
▁Titan
hae
▁Coffee
physics
gress
ffcccc
▁encouraging
duced
ehl
ungen
cab
▁viewer
bold
▁Culver
watt
▁Guns
iden
ogenesis
▁relieved
▁Welt
▁combines
▁calcium
▁Often
▁defining
▁ambition
▁Meriden
▁eaten
▁Rockies
▁Scholarship
▁emphasize
Rox
▁Hawi
▁Tul
▁unified
▁Kok
mix
UA
▁negotiated
▁Kunst
▁synth
▁Tao
▁manipulate
▁reunion
Italian
▁unconscious
▁Bauer
BK
▁detained
fund
uther
moon
▁Value
▁Zhi
▁Sv
▁Lü
kö
▁Boul
▁Edit
▁exploring
food
▁prima
AFL
James
▁pretty
▁Cannes
driven
iye
▁biographer
▁Sergio
▁neurons
profile
▁Saturn
▁signaling
▁audit
▁sensors
▁halls
▁Commissioners
▁spells
▁Filip
Bad
▁Howell
▁wooded
▁Omni
▁vacation
▁Putnam
▁Columbine
▁Poul
▁plasma
▁Brief
loom
▁permits
through
▁hint
▁displacement
▁Aerospace
rini
▁traders
▁exceptions
▁Boothville
▁progression
mora
▁viral
▁Scholar
enz
▁Bean
▁Mich
crea
▁Paauilo
▁Tallahassee
▁honest
▁Underhill
▁doctoral
▁locks
▁Romantic
▁launching
▁Alive
▁emotions
▁Yuma
▁Kell
▁Huddersfield
▁butterfly
▁Cron
▁Integrated
▁Kry
▁Hague
▁postseason
▁Mano
▁communes
▁sworn
▁bc
directional
▁Elena
iji
Vo
▁strips
▁specialty
cylinder
▁comply
Par
▁matched
thorpe
▁Hickory
▁pilgrimage
▁Hul
▁Iwa
▁Admiralty
chester
dil
saurus
▁correction
hero
▁stern
▁Dust
▁Moroccan
▁demographic
▁Archie
▁Borneo
▁pronoun
inia
▁reporters
pap
▁Sé
▁Browne
ppel
lv
▁announcer
▁Hercules
▁Fairfax
fab
▁Deva
▁teenagers
▁lightning
▁Thy
▁exceeding
▁hetero
▁Otter
vertebrate
▁periodical
▁Tier
Hello
icia
▁spray
▁Dilley
▁Wet
trap
▁makeup
▁Rahman
▁naturalist
▁Jays
▁wagon
▁Haskell
▁Londonderry
▁salmon
▁Marquis
▁Shepherdsville
VE
▁Mahaul
▁voter
▁dwellings
▁arranger
▁Dupuyer
▁Neighborhood
▁Rwanda
ijn
▁extrem
▁uncommon
▁subway
▁capita
▁curse
▁Stranger
▁Fell
▁Buccaneers
▁subdivided
▁murderer
▁Liv
▁facto
▁Selection
▁robbery
bron
▁Linn
▁Welch
▁iTunes
▁Suntex
▁timing
▁Drop
poly
▁Measure
▁bulb
▁Alien
▁cure
▁positioned
special
▁correctly
▁Farnham
▁Solution
▁ambitious
▁sensation
▁Flames
▁plague
grat
▁Scheme
▁tanker
located
Take
Ljubljana
▁contrary
▁sodium
▁Katrina
nose
▁fiddle
▁Vid
▁spans
▁bride
Follow
▁Trace
▁Schm
▁Bernie
▁Gha
▁Bü
excerpt
▁Promontory
▁Tribute
▁Scarborough
▁cardiac
▁Rupert
▁Ninth
▁Zhong
▁Galicia
breasted
▁Fuel
ABC
ranger
▁Mystic
▁Muscoda
▁groove
▁Zach
▁Baronetage
▁Touring
▁outright
agu
rata
▁Geno
▁suspects
▁Crusader
mosa
▁Influence
▁Zhao
liner
▁differentiate
▁workforce
▁chances
▁Abi
Calais
▁Barracks
alvesta
▁employs
▁Daughter
atter
▁Islanders
▁masses
enthal
pathy
miya
marine
▁Aztec
▁Sharks
punk
▁amid
▁sheets
▁Klaus
▁Livermore
▁federation
▁ideology
▁Missile
▁Punk
▁Sage
Linnaeus
▁Pavilion
▁singular
▁Ramona
▁Damage
▁Expeditionary
▁Forward
▁Duc
Donnell
ledge
uskala
▁airlines
pani
▁Revenue
▁masculine
▁smoking
▁Laughlin
▁Wendy
shirt
▁transferring
full
▁Blaine
▁Faber
▁Wish
▁Buckley
▁NHS
vina
elf
antha
▁Mafia
▁ribbon
▁Vivian
▁pri
iler
▁consultation
ICA
▁vegetables
lapse
chloro
▁Gymn
tax
▁Shooting
▁Spratt
▁syllable
▁teamed
▁Retreat
▁Harding
ianus
tribute
dzi
gala
▁Caucasus
▁Jupiter
▁Ferri
▁Viktor
NET
▁Gunn
utu
▁Flowers
▁Combined
▁Alison
enger
winner
heath
▁sacks
▁contacted
convenient
▁librarian
▁magistrate
▁Goshen
▁Clerk
▁Birthday
ča
▁Theology
▁Directory
mish
▁Kirby
▁Vert
gian
▁advocates
▁Wiley
▁Wedding
▁holidays
▁Torah
HR
▁Elisabeth
▁Anaheim
▁Prevention
▁southward
ugu
ctive
▁teachings
▁exploitation
voice
▁postponed
coli
▁financially
▁slender
american
▁shapes
▁Dhaka
▁stomach
▁matching
Baby
▁landscapes
▁Aragon
▁Related
▁foul
▁Anand
▁Actors
▁Norse
▁Christoph
ikh
vall
quist
▁refugee
▁Deportivo
▁inferior
diction
▁incarnation
▁Sindh
▁Woodworth
hound
▁Hippo
▁Mia
▁promotes
tem
▁revenues
▁tiles
Patri
▁midnight
cilia
Tru
▁Fortress
▁Wid
▁throws
gale
grin
▁Tama
▁Employ
▁Soldotna
▁albeit
▁Tobago
▁gospel
▁asylum
▁breakthrough
▁Seahawks
▁Miner
▁Bett
▁Bury
andro
▁momentum
▁Lep
▁Hö
▁Vad
▁Nay
▁Busch
▁cats
clamation
▁cancellation
▁practicing
▁Oceania
▁occupying
▁negotiate
▁Cosmo
▁crab
▁suited
▁Zeit
▁Faust
▁Blizzard
▁Platinum
▁supernatural
▁Sü
▁Hogan
▁Edith
coat
▁Wembley
▁ambulance
▁numerical
▁emergence
mps
▁Soil
▁Fury
▁grab
▁diary
▁acceptable
▁Gregg
▁unrelated
▁Jew
▁rented
▁anthropologist
▁apparatus
▁Strother
▁Ninja
▁markings
▁Nana
OB
glut
▁Transition
▁Davenport
▁Emigrant
▁Olivia
▁regret
▁Frankie
▁rebuild
▁Supply
icle
▁scrub
uve
▁Amtrak
▁Strevell
▁survives
▁stereo
▁Philipp
▁Ramsey
▁Vinson
government
Come
▁Bridgeville
xo
▁Salle
▁McCartney
▁vacancy
Psych
▁Franciscan
Shi
▁deliberately
▁Prat
▁pipes
▁Mob
minate
▁outcomes
▁moisture
Gre
▁overlooking
fjord
▁fellowship
▁accusations
▁Strath
▁Provincetown
MH
▁Presho
▁Ingram
▁Capp
▁memorable
▁repertoire
▁saxophonist
▁Maddock
▁logging
▁Badger
cyclic
▁guaranteed
▁Maru
▁peers
ssian
▁satellites
▁Azerbaijani
▁Giorgio
▁clutch
▁Kraków
▁trilogy
▁Hillsborough
ouche
▁consort
▁Bengals
▁spike
▁Cooperdale
▁cycles
TRA
▁(“
▁Pau
Ob
▁KT
ographie
▁Alley
▁playwrights
▁Architectural
▁Beacon
▁Indy
asia
▁enterprises
adh
▁sire
PU
corporation
▁Jonas
čić
▁genocide
▁pharmaceutical
▁chaplain
▁Essential
▁hurling
nav
▁cartoons
▁Suit
akka
imba
▁plots
bate
educational
Marxist
▁biologist
fight
eering
▁facial
▁Aus
▁illustrate
duce
hini
▁Wag
PB
▁counterparts
▁steering
rzy
▁rejoined
▁Thoroughbred
▁degradation
▁commissions
▁subfamily
▁choral
bau
crew
vec
amon
▁Bangladeshi
church
▁Equipment
▁collaborative
▁globe
opoulos
▁Wolves
▁Riga
▁Katie
▁Experimental
Establishment
▁XXI
▁somewhere
▁assisting
rano
▁Kath
▁neighbors
tube
▁boycott
▁geology
▁Lux
▁testified
▁Gerry
Pan
▁Ewa
▁tally
ggins
▁Ax
▁Hana
rest
▁Piper
▁Yeomanry
▁Sophia
▁podium
▁agenda
▁Opposition
▁Prayer
▁captained
▁Goal
▁Goa
▁Eighth
▁Ré
chev
▁introduces
▁Lawson
▁presenters
▁Sylvia
▁grip
▁inadequate
Files
▁comprise
▁Rotten
▁overhaul
▁Ozone
▁trait
▁delivering
▁Moe
▁rental
▁weakness
trem
quant
▁Bonnie
▁Centennial
▁critique
▁Carnival
Boy
Catholic
▁pioneers
▁Buzz
still
▁Conn
▁Remember
▁obscure
owice
▁sketches
▁Anders
▁designing
▁Reservation
▁adjoining
▁License
▁Speech
Cap
▁reelection
Bal
nall
▁Initial
Reilly
▁Gaul
ryn
call
toxic
▁Treasurer
▁armoured
▁Zak
▁Yokohama
▁excavated
▁Bisbee
▁descriptions
▁Fau
▁remarks
drome
AAF
▁induce
▁Harley
belt
▁Leading
▁Councillor
▁kite
estimat
▁vicar
cession
▁adaptations
▁Shrewsbury
▁Wolverhampton
▁gymnasium
▁averaging
▁Falmouth
▁Bluefield
▁Batten
▁besides
ibu
▁canyon
▁camping
going
Mag
wah
OV
▁Libraries
▁Versailles
FFBBBB
▁Rajasthan
▁Transylvania
Connect
Blanc
▁spiral
▁Roche
▁Fernand
Chinese
▁Luck
crow
tran
▁ruin
▁fullback
▁Haskinville
▁declaring
▁varsity
▁spouse
azza
▁transplant
▁jewel
ijk
▁NYS
▁Kav
▁interval
▁Biological
TG
▁steamer
▁Sevier
▁Conan
leele
EU
▁Archibald
▁Kathleen
▁Schwarz
▁unaware
▁phrases
▁Novo
▁avoiding
▁rigid
▁possesses
▁stimulate
▁wilderness
▁Quo
▁Strikeouts
▁Towers
▁medallists
▁Hilts
vita
▁Huff
elman
▁migrants
▁Chrys
▁Cata
▁Daly
▁Yuki
Christian
▁Parr
▁Scale
▁outskirts
▁eclipse
escence
▁Bent
▁Businesspeople
▁Toby
▁oath
vara
▁renovations
▁Gia
▁battlefield
▁Merry
**
▁trombone
▁Sentinel
▁Warwickshire
▁prophet
▁Harlem
ternal
▁Tudor
▁bust
▁talents
▁Franklinton
igne
mak
▁participates
▁regards
▁emphasized
▁Chun
▁Trustees
▁Ira
▁McKay
▁hormone
▁miniseries
▁Ulu
▁LSU
▁Richie
Some
▁marching
▁Ella
pipe
▁stuck
▁Mansion
▁visa
uria
▁hollow
▁Rutgers
▁Hiroshima
▁collectively
▁Ernie
▁washed
▁labeled
Ter
▁Nathaniel
Irish
alle
hawks
champ
▁ladies
▁prehistoric
DU
ecca
▁specification
▁Converse
▁applicant
AX
▁allocation
▁Byrd
▁rolled
▁Wheaton
▁Feng
▁Gum
▁Hayden
▁Tape
pression
▁Luz
northwest
tienne
▁Shadows
▁Mackenzie
▁decreasing
▁bubble
hunt
cter
ifier
▁Worcestershire
▁Burgess
▁dug
▁namesake
▁Pain
when
themed
▁Kidd
▁Nim
▁Genetic
Oh
▁Jaffrey
▁Lidgerwood
▁licensing
▁nevertheless
▁armament
▁CK
▁Natick
▁Sight
skie
▁treating
ende
▁costumes
▁sideline
tura
▁gentle
▁Sass
▁Pascagoula
▁Teuche
AH
▁sanctions
▁evolutionary
▁wax
▁theologian
quot
▁polls
▁Springville
aze
▁loosely
jak
▁Ichi
▁Uzbekistan
Acoustic
▁Edison
▁solved
▁niche
mell
▁conductors
plate
eme
▁Recognition
▁Ludlow
▁Zap
▁asserted
▁Historians
▁ecosystem
▁drinks
▁Pauline
soft
Where
▁horns
Class
▁Corridor
▁Luftwaffe
▁Lag
▁accomplishments
▁supermarket
Jean
▁Safe
▁Brasil
▁Comes
▁notation
Note
▁Eat
tale
▁Bess
▁Perspective
▁Lyrics
▁emblem
▁biographical
Goodbye
god
▁Above
hya
▁Dickens
especially
▁Theresa
tribution
PAC
▁laying
kko
Din
Die
▁Dinamo
Loss
▁Brookings
▁chemicals
▁Newell
map
▁recognizes
▁Radical
satisfied
▁Eilerts
▁Numerous
▁staircase
▁frozen
▁Coconut
▁inductee
▁Brookhaven
chloride
▁wander
▁developmental
▁sap
▁Pali
▁Lovell
▁Rowe
▁Controversy
▁Montenegrin
▁correlation
unga
▁Atomic
cyst
édé
▁nationality
▁Winside
▁Kiel
▁bent
▁lowered
▁Darling
kei
▁climbed
▁vacuum
▁Ovando
▁Pokémon
▁Waitsfield
▁altogether
cky
▁Turpin
▁Vene
▁Font
▁Chet
▁onset
▁Sergei
▁Goals
rone
▁Owl
kim
mind
▁purely
tula
▁rainforest
▁Hawke
▁Escape
▁barracks
▁astronaut
▁Pulitzer
▁Calvert
▁Noon
INT
plasm
dini
▁trustee
▁rebuilding
▁Lajitas
▁consonant
▁Camera
▁picnic
▁Friendship
Home
leader
▁reverted
ophone
rü
cele
bé
▁titular
▁tracked
▁granddaughter
▁Panther
▁Blum
▁armored
▁advertisement
▁violated
raja
lü
▁Brk
▁Brittany
▁incentive
▁wholly
boarding
▁binary
▁Weapons
▁Zalma
Jan
amino
otto
▁Twist
▁IEEE
▁Memoir
tonic
opo
▁bureau
▁Cesar
Mark
▁Moul
▁Bharat
▁Citation
pira
▁celebrating
▁Ethics
▁Maltese
▁racism
▁node
▁Melissa
▁borrowed
▁Violet
▁Wight
▁Theodor
▁Hamlet
▁Wig
▁planting
▁tissues
▁exiled
▁constraints
MAS
▁GmbH
cini
▁intend
▁Harp
▁advertisements
aea
▁indirect
mania
▁insurgent
▁metabolism
▁Wilcox
▁Graf
oš
Prince
giri
feat
▁Fix
▁Stru
▁Breton
▁perennial
eminent
▁heavier
Va
▁persistent
▁prevalent
▁Steamboat
▁Sever
"|–
cet
rer
▁nationalism
▁Session
▁Levant
igny
anni
▁Advocate
▁Halloween
▁Schneider
▁tragedy
▁compensate
▁Dartmouth
▁Towards
▁Siva
Bah
titution
▁Sah
▁Hence
ilia
▁soloist
▁fortified
▁shocked
UL
NM
archived
▁Leonardo
▁deities
▁deploy
oise
▁mold
▁presumed
▁Evidence
▁Pure
▁inheritance
▁Effects
meyer
▁armour
XT
▁panic
kura
▁Avg
atom
▁ashore
▁excavations
▁Lois
assemble
sound
▁Colchester
lept
▁GAA
▁recruiting
▁Bid
▁Dahl
▁Phe
▁judged
▁exceeded
fighting
EW
▁Liang
▁Ef
▁Pennsauken
ák
▁Skinner
▁absorb
▁extraction
▁affiliates
▁Roh
▁empower
▁cue
between
▁ankle
appa
▁answered
▁inherent
Grand
▁wetlands
▁flip
Hungary
Summer
▁Issues
▁Liberia
iche
shak
▁accounted
lingen
▁montane
▁Lumpur
▁SATB
▁Cafe
▁legislators
▁parole
▁Radford
mobile
▁Kappa
▁Whale
torial
▁Keithville
Cottonwood
direct
▁algorithms
▁Mio
JA
▁entirety
▁Lai
kia
ield
▁semester
▁Twilight
▁Westport
fei
▁Gameplay
pak
England
▁recon
▁treasurer
▁Reyes
▁dissertation
▁Heiau
htm
elles
▁Tah
▁clearance
anov
▁Exec
fection
anka
Scan
▁Idea
▁explicit
lal
▁Hite
saturat
▁Colby
▁Serena
until
▁Competitors
▁dominance
▁Philosophical
rí
▁implant
▁sprinter
▁demise
▁niece
▁redevelopment
▁Megan
chick
▁receptions
▁viable
▁humorous
organized
Queen
▁undergoing
▁Mö
lact
▁WM
amia
▁blocking
▁Dela
▁utilizing
▁Desmond
abha
▁papal
▁Deming
▁dismissal
▁infections
dling
▁duke
▁Find
wana
erra
▁Sector
▁Appearance
▁continuity
▁Colombo
▁Apostle
▁Puuko
EI
▁Toni
Off
▁Irvington
▁jurist
▁specializing
▁halfway
▁AFB
▁Aleksandr
▁Bullet
▁administrators
▁Tit
▁beak
▁clone
▁Maintenance
▁devastated
▁auditorium
▁Indeed
▁coordinate
▁pools
▁Savoy
▁Farrell
▁zinc
▁Morrow
▁scr
disciplinary
▁Anime
spoon
▁Alexandr
iani
▁guardian
▁Gong
dina
▁overhead
▁Younger
▁undivided
▁Birdseye
▁Danube
▁Ramon
tino
Med
▁Vance
dwelling
▁interceptions
Young
jiang
nter
▁Proceedings
▁Ess
Frank
▁Searsburg
▁advent
ül
riot
mg
osine
▁mole
firm
▁arrange
awi
either
Op
They
▁attain
▁Becker
▁beneficial
▁technician
▁Pownal
▁Libby
▁offspring
ód
▁Padma
iensis
▁Nebo
▁watches
▁Blog
▁admits
ocytes
Germany
▁Monck
▁Administrator
▁Kurdish
▁Provisional
▁supreme
▁Cowanesque
▁Rodgers
▁abbot
▁answers
▁Savi
▁recognise
▁Redesignated
▁Margo
▁Cour
▁bells
▁Calli
ranking
▁inspector
▁Hr
owicz
▁Buena
▁Guyana
▁physi
▁Returning
▁converting
▁sufficiently
lessness
▁choreographer
▁Milne
▁Thé
▁Valdosta
▁César
▁uncertainty
▁lightweight
proof
▁Sloan
mou
idio
▁Coop
▁Disaster
▁factions
▁Mustang
▁Diary
▁firearms
appropriate
▁fears
undo
▁forbidden
▁stalk
staff
▁Luigi
oja
▁savings
▁prominently
▁reproductive
RCA
▁Saline
▁undertake
▁strengthening
▁Scher
▁frogs
▁psychiatric
▁passerine
▁Types
▁Ismail
▁Merritt
▁patents
▁transcript
▁regulator
jit
patri
▁concurrently
▁FIS
▁Willimantic
▁reassigned
axis
▁Lennon
▁Tail
▁parcel
Main
▁Silk
ischer
Stra
▁Beard
▁fade
chlor
centric
▁Convent
▁Wilkes
iola
▁dispatched
olar
▁detached
▁immense
▁Beatrice
▁rendering
▁Volunteers
▁Zoe
▁Warning
▁Gift
▁assassinated
opter
▁Gei
▁Maker
▁Membership
▁Snowville
▁shoe
zai
▁refusing
▁inflation
▁integer
Connell
pf
▁corpse
▁shores
▁Candy
jima
▁Scholars
▁prohibition
omen
▁pointing
Our
euil
▁Paralympic
Richton
▁Sinn
▁Matilda
▁eliminating
▁instituted
▁vapor
▁Product
▁Pun
▁songwriting
▁approximate
▁Fou
▁sandy
▁cleaning
▁photographers
opol
▁Offensive
▁Tamiami
▁geometric
▁buff
▁ambush
▁barriers
▁Levin
ikon
▁passive
▁disrupt
dome
▁Heinz
▁fog
▁stiff
DG
▁Pell
▁bundle
control
▁Kannada
Road
▁revolve
mberg
▁Williston
▁Gut
▁Ostr
▁skater
blue
NN
▁Changes
cau
▁Newspaper
▁Fantastic
▁Lydia
▁treaties
▁Vest
▁geologist
▁Stade
ogenic
zak
cere
▁rotate
▁Bold
▁Nippon
▁compartment
▁Violence
▁siding
▁radial
▁Ookal
Back
elect
▁Burning
▁pushing
arna
▁Terrace
▁financed
▁stretches
▁Mao
▁Sánchez
▁flavor
▁invalid
▁Basilica
▁Lama
▁Peterborough
▁Fir
▁Giles
pian
▁Lore
jah
patient
▁Freeport
▁connector
▁Olga
▁preparations
App
▁hierarchy
▁monsoon
▁lunar
▁intercept
▁contender
▁exported
▁Malaya
▁Sainte
Raf
▁whip
▁reminiscent
▁grace
ør
▁Usu
mesh
pec
SEA
▁Bohemian
▁monetary
▁reddish
▁Altavista
▁vendor
▁Biographical
▁issuing
▁intimate
wl
omsen
mau
▁MGM
▁Havasu
▁cigar
▁Chamberlain
▁sparrow
▁Nr
▁rows
▁Kazu
▁Astra
▁Elephant
▁Salzburg
▁Valparaiso
▁experiencing
breaking
▁automotive
▁umpire
pdf
▁Laos
▁freelance
Pop
ophy
▁semifinal
▁Fei
pina
▁Má
Nor
thio
itate
▁Alain
▁shipyard
▁rats
▁Hutchinson
▁Serb
hiko
▁neighbor
phobia
▁Alone
▁poetic
uko
▁Lehigh
▁Eliza
▁demonstrations
▁Nate
▁Arden
▁Jaguars
▁confession
Australia
▁Qualifying
LU
▁PBA
thia
▁barge
Barre
▁pirate
mony
▁Southwestern
cox
▁Martín
▁Babe
▁Upolu
▁announcing
▁Ithaca
▁Reconstruction
▁accompany
▁Lange
▁Barnett
▁linguist
cote
▁modeled
escens
▁surpassed
ethane
▁Alexis
▁Stamps
Il
▁Oman
▁Eugen
affirm
▁vacated
▁Afrika
▁Patti
▁vocational
▁Orr
▁Sem
▁treatise
ganj
mitt
▁Sino
tling
▁Antoni
ndez
▁Slopes
▁Aguilar
▁Sumter
▁Edo
▁blown
▁Spike
hé
caster
▁proto
▁Jel
▁ballads
KO
jō
dynamic
▁Bison
rati
▁tuberculosis
▁Bucure
▁fatalities
acht
▁knot
▁approve
▁paperback
▁Coin
football
▁Bene
▁expressing
▁Correction
▁possessions
taka
▁Lawyers
▁inserted
▁Ballad
▁Tik
▁Coro
Bolshevik
▁Strategy
▁laboratories
▁Anthology
▁Lavaca
▁implementing
▁discount
▁Bentley
thirds
▁Dharma
mier
▁ponds
▁Wyman
forest
▁scratch
▁bays
▁whistle
▁fingers
▁shareholders
▁depart
▁Mohan
manship
▁Raid
▁surveyed
▁flour
▁Mash
▁aligned
▁Leaders
roid
▁Rotterdam
▁optimal
▁Alternate
▁Statute
crop
▁wrap
▁Doris
▁Skating
ucker
▁Clock
cule
shō
▁Barlow
▁Daytona
yeong
▁Hanceville
▁gymnastics
▁Budget
flo
woo
▁Solid
▁mutation
▁volcanoes
▁Oakdale
▁probe
▁triggered
uj
▁Saul
biology
▁Dear
▁ortho
otter
▁stabilize
▁mimic
▁batch
▁Vicente
▁grouped
▁Paterson
heat
▁deaf
Los
▁Shrine
▁iconic
▁Polar
▁Aleks
▁screenplays
▁wanting
function
▁Spectrum
▁Typhoon
▁Eisen
▁Rac
ignit
ographical
▁discharged
▁observers
▁Centro
wolves
▁Ivy
▁Brid
rough
▁Deborah
▁Garrison
▁Dominion
iform
rish
▁legends
▁Rigg
▁encode
▁supervised
▁Macro
jung
essa
▁Vishnu
▁Marlins
lvarez
▁Movies
▁Exit
▁CW
allo
▁chambers
▁Niger
▁intersecting
▁Curt
▁Lyman
▁Trapp
▁Ach
▁Ameri
▁pigment
▁orchestral
▁Bhutan
rita
▁Burnside
iyah
oux
▁patronage
agin
▁volcano
▁Floor
▁takeover
▁Paleo
abilis
▁albedo
▁nutrition
▁Ultimately
▁Taking
▁punish
▁Como
ecker
▁WK
Ken
rino
▁Eck
spoil
obe
liche
Thr
▁Beethoven
▁Mott
gge
▁reluctant
witz
▁Mint
▁Butt
rical
▁Vanderbilt
▁Invasion
▁patriarch
▁Colon
▁Benedictine
faced
▁Charley
kki
▁homolog
▁Vend
ltr
convict
▁Toulouse
▁paternal
▁landslide
▁Agri
▁recovering
icum
rico
fant
▁Greco
▁Gym
jou
▁collectors
▁Vilnius
▁Laurie
▁jacket
▁atoms
yla
▁File
▁Curv
His
▁NYC
▁Infant
commissioned
mela
▁Painting
gee
Heart
▁Wad
episode
▁monsters
lein
▁Castell
paper
▁implied
▁intervals
engined
street
▁dispersed
▁Penang
▁compression
▁Journalists
▁Urdu
▁Dash
▁happening
terminal
▁Sarajevo
▁Porsche
invasive
spot
cci
▁relocation
▁Coul
udo
▁Bowen
▁reconcile
archy
▁Olympian
▁Ducks
▁relieve
▁McCall
▁acquisitions
▁Olsen
▁Timor
▁nominate
▁alias
▁Andro
▁Keller
▁steals
▁anxiety
▁Hussein
▁Subway
▁Remington
Cola
kinetic
▁Bourbon
atan
▁retains
▁Hulman
▁Petty
▁impacted
▁Amos
NES
▁Rog
▁Rais
▁cartoonist
evsky
▁Habsburg
▁sophisticated
local
▁Kettleman
▁Graz
▁Gav
▁diplomats
▁sack
▁Zürich
▁Certain
basketball
▁sauce
▁Moving
▁Cain
▁Currant
▁cheat
▁Voyage
▁Missionary
▁pathways
▁Khar
▁Switch
▁Katz
▁Pilgrim
▁Evelyn
▁Serbs
▁pardon
China
wee
▁refuse
▁unexpected
▁Metz
▁Pinto
▁Jude
▁enthusiast
▁Blackstone
olle
ivism
therapeutic
▁deleted
milita
▁Vlad
▁conquer
▁Unter
▁Bash
▁carpet
bile
vern
thra
Royal
▁Hanson
▁Oral
▁Brennan
▁porch
▁wagons
glio
FOR
khar
▁Fit
▁Severn
▁flav
tsi
JG
▁Amir
▁constructing
▁insert
▁rehearsal
▁Evergreen
uva
▁Materials
▁gable
▁economically
▁alcoholic
exploded
▁stipulat
▁Healthcare
▁speeches
▁Vila
▁maxim
▁investor
▁debts
hira
▁realise
original
▁Scream
▁activism
carboxy
▁Elyria
▁discoveries
Blo
chron
▁Came
▁Osborne
risk
anny
▁Whilst
▁expenditure
há
▁Trading
▁Sko
▁Hager
rut
strong
▁Nikolai
▁Tonga
 ...
clin
▁Saddle
▁Tum
gami
▁Huron
▁Meteor
▁Thirteen
▁sympathetic
▁Mullens
▁addressing
eating
▁Mour
▁Belize
▁Lili
▁Pei
mbar
▁Harri
▁Experiment
yong
Alb
▁Fifty
▁Galloway
▁documentaries
eshwar
protect
tl
▁Swamp
▁Xin
▁Maka
club
▁Musc
▁Photos
▁specifications
▁prostitution
▁Geelong
▁batsman
▁Triangle
▁Rite
▁sharply
▁stripe
▁Boe
southeast
▁enlist
▁Wilk
▁Rene
hoo
fix
opolis
▁Rash
▁Bangalore
▁Linguistic
▁Fresno
▁crafts
▁Sargent
▁workplace
▁similarity
▁Cobra
▁stealing
▁warrior
daughter
▁Sink
▁stained
uddy
▁discusses
ša
▁Whitestone
▁Lahore
▁famine
▁Taji
▁reclaim
▁Sessions
▁Ori
▁shuttle
▁NFC
India
▁Tram
previously
▁shipment
▁Donovan
▁Melody
▁WT
▁Coffeeville
▁Farmers
brew
ionic
▁detector
▁Bayern
▁Pé
genre
posi
Saxon
chill
▁Jiang
bonne
▁bilateral
▁Brin
▁grapes
▁Corre
▁mint
▁Killing
▁translators
▁clade
▁booklet
▁ruined
▁Quar
▁Medium
▁contradict
▁Earlier
▁integrate
▁Onward
▁referenced
▁Aux
owo
fasci
▁Strand
▁refusal
▁Oakwood
bern
▁dissent
▁Kinder
▁suspicious
▁corresponds
▁Bho
vam
PLA
▁Imagin
▁confronted
▁photographic
▁screw
▁Hack
▁advise
▁dolphin
▁forgotten
▁victorious
▁commend
▁sailor
▁encoding
▁Torch
▁cubic
▁Rebel
▁Growth
access
▁Gand
▁Facility
▁Leakesville
▁Lockheed
▁triangular
▁virgin
▁productivity
▁Gis
▁Simple
illary
dev
▁verbal
▁Hurt
▁litter
icker
▁Dalton
jour
▁staging
▁Humber
ār
But
▁reproduce
▁Constituencies
cada
▁racehorse
▁technically
▁Punch
cari
▁Charlottesville
ík
▁commentators
uji
▁Advisor
shell
▁Constantine
▁Dual
wari
▁CONCACAF
▁Rutherford
▁ODI
▁Gastonia
▁McCr
tape
▁slower
▁communal
▁Forty
▁inventory
▁Russo
▁Dress
kala
▁unusually
support
▁Tilghman
▁disabilities
▁Juneau
pect
▁attitudes
▁concludes
▁Nicol
ptera
▁Candidates
▁contend
▁Noise
▁Navigation
▁comparing
▁Ivory
deck
▁clouds
▁Operator
garten
▁Fourche
▁Gü
▁Rhineland
▁buffer
▁Affair
▁Capri
▁Unionist
▁announces
▁preview
mera
▁cooperate
▁Middlesbrough
▁Seldovia
▁apologize
▁seizure
▁pleaded
flor
▁Patriot
▁homepage
▁pressing
▁retreated
▁Frau
▁Eclipse
▁premature
▁woodpecker
▁implications
▁conferred
▁reorganization
▁medley
▁chartered
▁eighteenth
chrome
appe
▁conform
▁Brendan
▁Det
▁math
surname
Za
▁alloy
▁Fryeburg
▁unchanged
▁Kachess
▁nests
▁Birk
▁Taft
▁Lamanc
TY
▁explores
▁Across
▁pope
▁Drink
▁upright
iyya
▁definitive
▁petroleum
▁Einstein
▁Reality
trophic
pital
▁Summerville
Martin
eaau
▁Taw
lani
▁Koran
▁pamphlet
▁privacy
▁intensified
▁deported
▁Amazing
▁Pottersville
▁FIA
▁Boyes
▁Juliette
▁privileges
hier
Light
▁Kobe
▁Carrie
Bank
llan
▁Should
▁metaphor
sund
▁tenants
▁updates
▁Shō
▁Malik
▁Parma
metres
éra
ène
▁Horton
▁Tsar
▁probable
Provence
▁compulsory
▁Vig
▁Kash
▁suppression
▁classmate
Phil
▁recipe
▁CJ
▁Piketon
▁Panda
▁simulate
▁Judo
▁Aunt
▁essayist
▁Tekamah
▁Maccabi
▁Subfamily
▁Ryegate
binding
▁birthplace
jor
▁Waveland
▁Brewer
▁spawned
▁Germanic
rong
▁processed
▁govern
▁coordinated
▁Lena
▁Sega
▁Popp
▁controversies
▁revelation
▁marshal
▁Militia
gou
▁Silence
▁mutant
▁Oxfordshire
▁Medora
▁Lehman
cola
▁Amber
aloa
sultan
blood
▁Chronicles
ignan
ła
tari
▁Arroyo
▁Immediately
▁Sold
oste
IDE
chter
▁Hung
▁parasite
▁dismiss
Fort
▁monarchs
▁ancestral
▁Gim
▁Kensington
▁Flav
▁Dinosaur
▁turbines
▁Dobr
▁fined
▁Bolt
▁Scranton
▁gasoline
▁Felts
▁presided
▁Crusade
Lakeside
splint
▁Corpus
▁Vasil
bok
factor
▁Shankar
Run
ember
▁Roller
meaning
omin
▁Sailor
ieve
zek
classic
▁Veracruz
▁diagnostic
▁Beirut
▁Hillsville
▁Swimmers
▁Nottinghamshire
rø
▁Happen
maru
finch
tō
▁Haynes
▁ingredients
▁observer
▁FAA
▁Bangor
▁Mie
▁Fever
egg
fine
SY
square
▁diaspora
▁hydraulic
▁jumped
▁discourse
▁Jessieville
▁networking
Laur
▁Nicholson
▁Aud
wala
▁Kenyan
▁Aris
▁Amal
opened
▁Poughkeepsie
tigun
▁verdict
▁Presents
▁Maeser
▁Malawi
▁educate
structure
Para
▁persist
idium
▁melano
ác
▁Hines
▁CSS
▁pavilion
cclellan
▁Chisana
▁Bohemia
▁spokesman
▁deadline
SX
▁Locke
▁procession
▁organism
▁stripes
trin
▁ecosystems
▁Klo
Song
▁Brave
▁Castillo
▁Kalaupapa
▁colonists
▁proponent
▁nun
izo
▁nuns
witt
▁NWA
myo
▁peasants
▁qualifications
▁Kant
▁Bail
▁rays
▁Lalamilo
▁Petroleum
▁Cumbria
▁Rover
▁Sears
▁Weaver
▁precision
▁Pickering
▁relates
▁Hartland
male
▁announcers
tainment
ethanol
▁advancement
yltransferase
▁Peebles
tok
volume
mati
▁Chick
cooled
▁deter
▁pits
single
▁Newtown
matsu
▁Maverick
▁devastating
▁aquarium
▁Regnier
▁unanimously
▁Lantern
personal
▁Hurley
addy
vez
nami
▁Ott
▁individually
▁Garfield
bhu
▁famed
▁counting
paw
illard
GT
▁canopy
▁Flynn
▁Padre
▁consume
Arc
▁Littleton
▁Luca
▁Calif
▁batters
phin
▁Improvement
▁Jakarta
▁algae
▁captivity
▁kidnapping
▁Texans
▁Rosario
drums
▁Brunei
▁homosexuality
Hara
▁Vine
tice
▁Cormorant
▁retailers
▁Contribution
▁CPU
▁Punjabi
▁Courtney
▁Naj
akalau
ovice
▁Teddy
lique
▁fortifications
▁Pascal
▁ARIA
▁chips
▁Sigma
▁Jug
▁sergeant
▁ladder
▁Teatro
▁abolition
▁Goodwin
▁banana
▁Kramer
▁dull
▁Falkland
reich
▁subset
MAC
▁Vehicles
▁imports
▁Dáil
▁contingent
▁Hertfordshire
▁bankrupt
▁rotating
▁accurately
kumar
ipes
▁darkness
▁Kut
▁assassin
▁harmonica
▁Kathy
▁Mozambique
▁Sheyenne
▁aluminum
▁skyscraper
▁Nederland
Qaeda
▁Charlestown
▁statutory
▁halted
▁Lowden
WW
▁Chong
▁Bowdle
▁Yak
▁summoned
▁motif
▁contributes
▁Nonetheless
▁exemption
▁scenic
▁Reis
▁Zurich
▁obligations
▁Deering
▁initiate
▁Same
▁balanced
eptic
quill
▁yields
▁deadly
▁Assistance
▁neural
▁Belleview
bacter
ismo
▁Luka
▁Shay
▁arches
analytic
▁Prophet
▁kernel
▁inequality
▁Alvin
▁consortium
▁Exposition
▁Hohen
▁Pang
mach
▁Kö
loe
▁poisoning
▁infamous
▁Wailuku
▁snout
▁termination
▁Javier
▁Volcano
▁Koh
▁Fisheries
▁Artistic
▁dried
▁Sung
tactic
▁Munson
▁hunters
▁sexuality
▁Peshtigo
lush
▁Averill
myc
▁Revenge
▁Biz
▁odds
Gal
▁prompting
Under
acha
▁Whip
▁Candle
▁dramatists
▁respiratory
▁transgender
▁breakfast
▁Wear
▁rodent
▁Monahan
▁seated
▁Cott
▁emission
lwyn
▁lymph
▁Napoleonic
▁Axis
Latin
▁Kamen
▁broadly
▁Spartans
shah
▁cage
Archi
▁Maiden
▁offset
▁Governance
▁Preliminary
▁Bartlett
▁Important
▁recruitment
▁Aiea
metal
▁Does
leading
▁Stokes
▁CFL
Germain
▁Metacritic
▁Venue
▁denotes
▁straw
▁filing
ergy
▁Nara
▁Bei
▁cater
▁Dodd
onga
semi
▁Hernández
▁Sustainable
▁Yellville
▁inauguration
▁Dewey
what
▁Amelia
▁Konawa
zman
▁Dae
lde
ddington
number
▁Loring
stellar
chuk
imov
IST
degree
▁slaughter
▁devised
filtration
lima
▁speculated
▁lifelong
▁Fare
▁deserve
▁Schul
▁Jia
tock
▁Barney
▁Perez
▁Strasbourg
▁cocaine
▁identifies
▁ascent
▁Vineyard
▁excavation
castle
▁hiring
▁Server
▁Daw
▁turnover
think
▁Basti
▁VHS
▁belly
▁disappointing
▁profound
▁shelters
▁Horne
▁Pai
otta
▁Catalonia
▁Chevrolet
▁Galveston
▁Dimitri
▁Charge
▁Talmud
▁recruits
▁Trunk
area
▁prone
dron
▁Gender
▁Bhag
▁null
▁upheld
werk
normal
▁Aside
quat
▁Swindon
▁Audience
▁thickness
▁Cyclo
▁Generally
▁Nikki
process
▁Provide
▁Kü
Secret
▁granul
▁Musik
▁Guan
avor
▁Marquess
▁Specifications
▁Charm
Season
cline
▁analyze
OE
▁Koo
amide
▁Lava
▁restart
bgcolor
▁Shropshire
▁blessing
▁Anthropology
▁Skull
▁Duma
bellied
▁Doncaster
▁Billie
▁Craft
ASA
▁Tiru
▁originates
cosa
death
mio
▁precisely
▁WL
▁Colo
▁Tham
holding
▁Alejandro
▁satirical
▁Mandarin
▁Automobile
esia
▁Burnett
▁wholesale
fax
▁Fang
petrel
▁Eton
▁behavioral
today
▁additionally
▁Electricity
▁campaigned
▁modify
ogni
▁Cope
▁Cornelius
▁applicable
▁Aetna
▁Blessed
professional
▁Suicide
▁Cambridgeshire
khov
▁Lumber
▁Walford
▁golfer
▁councillor
BG
▁reinforcements
drum
▁carving
▁newscast
▁analyses
▁Finch
▁muscles
▁Mast
Game
symmetry
▁Coyote
▁Olympiad
rake
▁assumes
▁Trick
▁Kraus
▁Melan
stem
▁cyan
▁Dollar
drive
▁nasal
▁Ish
▁globally
▁Bees
▁Thiru
▁expressway
▁Kabul
▁Topsfield
orthodox
▁Kuro
filled
▁nodes
▁Forge
▁Punkin
guide
credited
Tro
▁Subsequent
▁crane
▁hedge
Neal
▁Hewitt
▁Ethel
▁finalists
▁accord
▁Favorite
▁Kilauea
▁Mussolini
▁residency
▁strikeouts
▁Jaime
▁fins
▁likewise
▁Jaw
▁escorted
TER
sponsored
devi
assin
▁Stud
▁petrol
▁thirteenth
▁Leavenworth
▁Buckhorn
▁fibro
Mil
▁Meng
▁peasant
▁Cala
ISA
▁execute
▁Akh
▁complain
▁impose
fourth
▁Cruise
kri
▁organizational
▁Carnesville
▁convincing
▁Outdoor
▁stairs
▁Clon
Rob
▁Nah
▁profitable
marca
▁habits
▁picking
▁Connie
▁tug
▁Utica
▁Overseas
▁Gouldsboro
▁Donnelly
▁Zachary
▁Reggie
▁ethical
idad
▁ruf
workers
▁Mate
Cambridge
▁Delphi
laud
genesis
▁minimize
▁Ridgeville
▁Croat
▁Jurassic
▁umbrella
▁Glyn
ophthalm
▁Scipio
▁Span
▁XIV
▁Roots
enham
walker
Yo
▁sixteenth
▁Sabah
▁Recently
▁Bratislava
▁Destiny
▁unstable
▁modules
zumi
▁Zw
Elect
▁Flores
▁gorge
▁Ask
▁Majesty
▁resemblance
▁scream
▁Kaufman
▁Catalogue
▁bisexual
▁Oswald
▁Melrose
▁Viz
▁Warrick
atti
▁assignments
KP
▁Hate
▁bacterial
▁Info
▁Ayr
▁Michele
cilla
colspan
dora
▁pirates
▁Continuing
▁pneumonia
▁Dunedin
▁translates
▁disappointed
▁Brigham
cara
Too
▁Oss
tele
▁Bois
▁digest
fic
▁Sawyers
▁Orem
▁catchment
▁Flow
▁Cooperative
▁smash
▁Loan
▁Claus
End
▁Families
▁acquitted
▁treason
▁surplus
▁Softball
▁Tavern
▁weighed
▁Colt
Hip
earing
▁Bub
▁Emilia
▁attracting
▁accumulated
▁palat
▁expose
▁Freeway
Lost
▁Hodges
▁Pension
alba
ometry
▁redesigned
History
beam
▁Chaos
▁Braun
▁Snoqualmie
chol
▁liability
▁Lemon
▁Blanco
evil
▁Leesburg
moo
▁garment
▁Vicar
▁granting
▁Ariel
▁chocolate
▁charging
▁Pace
▁Strauss
▁Sumatra
▁Rut
▁caretaker
leaning
▁Cyrus
establish
▁Reach
▁Baz
▁Slow
Sweet
bolic
▁fraternity
glia
▁preserving
beard
▁substances
▁Keyboard
Symbol
▁Stur
▁Passage
▁Wanna
Pra
▁proposes
▁Stefano
▁uncovered
▁admit
▁stole
▁smell
▁Spier
▁sermon
▁plaster
here
Over
▁Mention
Est
▁Willem
▁Wilde
▁Coca
▁solitary
▁packaging
▁Ruff
▁stronghold
▁Crowd
▁Inlet
▁dawn
▁Poets
▁Nomination
▁Argent
Baptiste
earn
▁Amiga
aç
▁Goblin
▁Nuremberg
▁Raphael
▁troupe
▁Reginald
▁Caracas
▁Whitingham
▁Carleton
▁Palma
▁Catch
▁humidity
▁Typically
ARP
Every
Why
▁Chillicothe
▁McMahon
▁Topeka
▁melting
▁Patient
Sub
▁snakes
torium
▁auditor
▁substituted
▁Mounted
▁Crash
▁threatens
minded
▁Mauri
▁Enforcement
▁anthropology
▁Cobalt
▁Surgeon
▁Residence
▁assuming
etsu
Central
amble
unta
▁Smile
▁Kelso
▁Olson
BW
▁Munro
▁Dha
▁Computing
▁Drummond
▁Bicycle
naire
▁Married
berries
▁Jong
▁Zy
▁intersect
▁Barrack
dhya
occa
▁portable
▁positively
▁Pensacola
▁consolidation
▁immigrated
▁reggae
▁salvage
▁beverage
▁preacher
▁Peña
alaeloa
▁Nils
▁Ghi
▁Cc
▁Visit
▁Erich
▁NRL
▁mating
▁regent
▁Wally
ethyl
▁Ryu
▁Gow
folk
▁broadcasters
▁Hapoel
▁botanical
▁Hendrick
▁Abstract
▁crushed
▁splitting
▁Marble
colour
▁Amp
▁airplay
▁alternating
▁charities
▁morphology
▁Readstown
▁Mughal
▁Winnett
▁Olla
▁Snyderville
bility
▁methodology
▁survivor
▁calculate
▁sectional
drawn
AIDS
▁superhero
▁lyric
mash
▁protesters
▁leap
▁atheist
▁cancel
▁Jarbidge
▁restoring
▁mistress
▁resting
▁Roz
nelli
enfeld
▁Moreno
▁Enemy
▁Regulation
▁Wesleyan
▁slate
▁artery
cava
ević
mediated
▁protested
▁Tess
opp
ská
▁Gómez
▁intermittent
▁fertile
▁Leicestershire
clusion
▁Focus
▁funny
▁Stephan
▁Sui
physiology
▁Kish
▁Renick
hue
▁Scouting
▁dans
▁limiting
▁vibration
xen
teria
▁Freelandville
Köppen
▁Gain
ication
onzo
friendly
Invest
▁Publisher
▁Collector
afi
▁Iris
▁Integr
▁Hü
▁Mainz
▁Launch
meister
INA
▁discovering
▁Acton
▁Spray
▁Sense
Dar
▁Waste
▁Tad
▁Tomatoes
▁amphibious
▁mater
▁differently
div
▁Lawn
▁Tully
▁Stick
loft
DK
▁Owego
▁Retirement
CAA
▁ratified
▁continually
▁Deerfield
▁runoff
▁harder
................
izen
Karabakh
▁Suburbs
▁obsolete
▁Clutier
acting
▁beetle
▁Surface
▁Romanesque
jen
▁Countries
▁Chap
▁Hove
▁streetcar
▁Jian
tropical
▁Allmusic
▁flock
▁renewal
Down
▁Simone
▁nigr
phor
▁Guntersville
▁cemeteries
▁litigation
▁Sheet
tist
▁Digest
ubli
▁crude
DN
▁moderately
flam
early
▁gunner
ICE
▁recorder
▁Approach
ridae
▁Except
kō
▁Morales
▁Lenin
isson
▁Wayan
▁renew
▁illegally
▁Sumrall
▁manipulation
▁Varsity
deco
▁Holloway
▁forestry
▁Cattle
▁Claim
▁exchanged
▁Bryn
Final
taker
▁Adolph
▁lime
▁Cranston
tism
▁Outlaw
▁Tek
Never
▁AEK
▁Zee
esthetic
▁encompass
vious
▁Vijaya
▁Embr
▁Willamette
▁immortal
▁Ribbon
▁Hunting
pru
barra
climat
glow
▁Drawing
jel
▁coating
“
▁Mathews
arco
given
▁Pleas
▁Rector
▁Hemisphere
▁dictionary
▁Utrecht
▁injuring
ovski
▁Tappan
▁Shaun
▁realised
▁Christi
Tor
Ray
▁shoreline
▁Nano
▁pioneered
▁depiction
▁Quan
▁Buy
▁anchored
▁Tantalus
▁sanitation
▁Inverness
▁ligand
▁Trojans
▁mortal
weg
▁Delegates
cide
▁Shad
▁Subject
▁Formerly
Nobody
▁Brotherhood
▁republican
▁Garry
▁procurement
ption
▁Lisco
▁Romero
▁launcher
▁adhere
Spring
▁Bernhard
highest
akea
▁seize
▁Eisenhower
▁Obituary
▁gangster
▁Arcade
▁Mongolian
rench
▁westbound
▁farther
▁POW
▁Scandinavian
solution
▁Taylorsville
▁Riz
▁Friedman
plus
tima
ovic
▁standardized
▁ensured
▁Dul
▁staffed
▁Burmese
▁Cheltenham
▁Surrounding
▁Leningrad
▁bombardment
shake
▁Castile
▁Thatcher
▁Amphi
▁Cricketers
▁Guerrero
▁circus
▁Hermitage
genic
▁exotic
clave
▁Leaves
▁Plo
nstead
▁spiders
▁Kapala
double
▁weaken
Warner
▁Sledge
▁Gonzalez
▁prolonged
▁caution
▁Bare
▁Tasmanian
▁Playhouse
Gene
phys
teri
▁Vinton
▁Euclid
cuff
DX
nyl
øy
▁Stoney
▁Macdonald
▁Peel
▁tribunal
▁grazing
▁bibliography
▁tragic
▁Nike
habit
▁illusion
Girl
▁pulling
▁pH
▁appreciation
▁hereditary
▁amusement
▁sneak
▁Privy
▁Ago
▁neglect
▁Shark
lien
harmonic
▁Naz
Maur
▁indirectly
▁thorough
▁Spg
▁halftime
▁allegiance
▁psychiatrist
▁Cynthia
▁Basket
▁Fontana
▁Glover
wain
▁Yaku
▁overturned
▁Chef
connected
▁Potts
▁Chao
▁Waka
▁Yasu
lage
▁Riot
Ven
constellation
▁dismantled
▁savanna
▁Molecular
▁Pursuit
▁Rana
▁Moraine
▁Homepage
▁downward
ahneta
finger
trained
maj
▁Rockets
▁pedal
▁keyboardist
▁photographed
▁Persia
cheon
▁Hardin
▁Dungeness
▁grocery
▁Hewinta
▁Shelf
▁afraid
▁Nissan
▁annexation
▁Caa
▁Goldman
plica
▁Hens
▁Reston
▁McKenzie
▁chimney
▁merging
▁Rue
▁multiplayer
▁Handball
▁enclosure
▁Luton
mili
▁Vä
UNI
▁tailor
▁recess
ño
rrington
▁scare
lender
▁Marlboro
▁Caribou
▁Wexford
▁pepper
▁Johannesburg
have
Document
▁disruption
horr
took
▁Robb
▁Vital
optera
▁Córdoba
▁candidacy
▁homage
▁committing
▁Koloa
▁Woodbridge
▁Hutton
▁Paintings
▁Miz
Mill
BN
▁opener
esteem
▁staple
▁monopoly
▁Coronation
▁Dc
Gro
▁robots
▁crust
▁Dew
teller
▁Thorne
▁Bower
▁Oden
wor
▁Antreville
▁Ritchie
▁detainees
▁spectacular
▁Slovene
▁Innocent
▁fundraising
▁UAE
▁Croix
▁Engle
artist
▁eastbound
▁Nieder
nikov
▁Knock
ologie
▁Chow
▁pledged
anthus
created
volu
▁Arri
tower
▁Moanalua
▁Sanchez
▁separating
▁spokesperson
▁Newaygo
culminating
▁Debbie
iehu
koku
▁myself
▁Hutt
▁Stack
▁Beatty
▁reinstated
▁Haas
anja
ARD
▁Morph
▁suffers
▁Eternal
▁Neck
tau
▁reasoning
▁Detachment
▁Juvenile
▁premium
bard
▁fleeing
▁denominations
▁Bernardino
fun
▁reigning
stylis
▁Lies
▁characterised
▁Lipp
▁outlined
▁Baum
▁Sunni
▁elongated
pora
▁Telephone
▁motifs
▁Hume
▁Shirland
▁Panzer
▁Curling
motive
▁Quran
ilus
▁Rival
▁basket
▁Judson
▁saloon
▁wheelchair
▁Hardinsburg
▁Ripley
▁WJ
fied
illiard
peak
▁Syndicate
fact
▁Lop
▁markers
nico
▁Sailing
bund
▁feudal
▁Minh
▁Odyssey
▁diabetes
▁Sonora
▁Magnolia
▁decor
▁Fulham
▁Condition
china
gora
▁Tung
buster
▁Portales
▁Alec
▁enroll
taro
dead
huang
ADA
▁socially
Now
▁Chattanooga
▁Ordnance
▁aforementioned
▁plaintiff
▁Clipper
▁plaza
▁browser
▁Ignacio
▁Goessel
▁Gators
▁Joanna
ogy
Magn
gaard
Del
▁laude
▁dressing
▁Reef
▁Berwick
▁Schooley
einer
▁Grow
▁Leather
upper
kami
Three
House
▁abnormal
▁façade
▁friction
▁Motorcycle
▁Buckeye
▁Corton
▁Accessed
▁beef
JHL
▁packed
▁computational
▁golfers
▁Denny
▁Spell
▁Audi
Broadway
inches
▁Hog
▁obituary
▁Jakob
▁Burkina
facing
▁Adaven
▁Fife
▁Jat
▁Togo
▁disguise
▁Crafts
▁theologians
▁Paraguayan
▁interpreter
azo
▁conception
▁analyzed
▁industrialist
▁Tet
▁Logic
▁Loveland
▁employing
▁promptly
▁Founding
▁confiscated
▁lyrical
ocal
▁perfectly
▁relate
▁Soap
▁Postal
▁Corey
▁periodic
▁Valuable
▁fuselage
▁Warfare
▁visibility
hagen
▁Ambrose
ciation
▁limbs
cham
bomb
labor
▁ethnicity
ignon
search
Sur
▁Aster
▁Igna
People
▁waived
▁histories
▁Brant
▁sewer
Everybody
index
▁scarce
▁summon
▁Libert
▁instantly
▁Mohawk
▁Cue
▁branding
▁Hasan
▁Burger
▁Emanuel
▁Marjorie
▁congestion
▁smuggle
▁desk
▁hydroelectric
▁Finding
▁Cindy
rillo
surface
▁airborne
grossing
▁culminated
iscus
▁weighing
▁structured
▁kicker
file
parent
▁Pasadena
▁envelope
▁Audrey
▁fisheries
appointed
▁Weirton
▁Orbit
CAN
▁marshes
▁Clover
▁Rudy
▁CSI
▁identities
▁tuition
▁Supervisor
▁converge
▁Castel
▁nude
▁Guo
▁landlord
Spain
Daniel
▁Flam
▁functionality
▁Bundes
collection
▁robber
či
▁Kamal
▁relies
▁Maynard
feet
▁Adjacent
▁Expansion
▁Spurgeon
▁Tajikistan
▁combustion
▁Rudolph
▁Pennington
otype
▁rematch
▁expresses
route
Intro
▁MLS
culum
little
ikan
▁livery
▁Pocomoke
▁Swannanoa
▁meridian
▁possibilities
▁penetrate
▁bathroom
▁Sariche
▁Cé
▁undergone
toon
▁drowned
▁Botanical
chart
▁Neither
▁Reddy
▁unlock
▁Pavel
ewski
▁Moorings
▁Harlan
▁Brenda
while
▁Locomotive
▁Tiffany
▁archaeology
▁Dracula
▁GMA
št
▁Willy
▁cope
▁flashback
spring
▁Kelley
▁Feld
uš
▁Orton
▁USL
rook
allah
▁Romani
jana
▁casual
▁Poker
▁Akademi
▁lure
▁Winthrop
▁Koloko
▁Wantagh
▁Ventura
▁Lytle
Carl
lichen
crowned
▁stressed
▁Intake
▁Nurser
cki
▁Palmyra
▁phylogenetic
▁pronunciation
▁restructuring
▁Costello
▁accordion
▁subtle
▁Dill
Dream
▁tramway
▁Moorman
ruck
▁Pipe
▁tremendous
▁Kung
▁needing
▁Shipping
▁Sakura
▁Banking
▁milestone
KU
▁substrates
▁warmer
Max
vila
▁Rua
consistent
nip
developed
▁Dickson
▁disastrous
▁maturity
cruci
▁Waiahole
▁Spark
▁omitted
▁Monmouth
branch
▁Rashid
▁Hypo
▁Soc
throp
reference
▁Clause
▁Valeri
▁hardly
▁Troll
▁Singaporean
▁Tears
▁exert
▁Yadkin
▁Danger
inflammatory
▁MySpace
▁banjo
▁Cluj
▁Dangerous
▁Goldberg
▁Mf
▁Biden
▁Commanding
▁Shoal
consider
▁Lega
▁Netflix
▁logistics
▁Peabody
▁Broom
▁denial
▁Gerhard
plum
trial
▁Alfa
▁unrest
reh
minus
iddle
ovsk
Night
▁telegraph
ovac
▁terrible
tery
▁Otago
▁bunker
▁Putin
▁Yam
▁Alexandre
▁intentionally
▁Andrei
▁Chrom
▁Andersen
▁Peer
▁Collective
▁Brom
▁patches
ananda
▁Maud
▁Nome
▁swap
▁Earle
▁dye
▁Mendoza
▁barrister
▁Mullins
▁Asteroid
▁Slim
▁shale
ifera
▁Pieter
mud
ION
▁mess
▁Worldwide
ambu
▁Saskatoon
nucleotide
▁addiction
▁reinforce
nix
▁transmit
▁aisle
▁Decade
▁Geographical
▁forgive
▁Shine
fell
Greek
unconstitutional
▁absorption
▁mandolin
▁essence
▁Blow
▁Rup
▁Daughters
▁fool
▁Armoured
ohl
▁Commando
▁specialised
▁Oceana
nou
linear
▁punished
▁alkali
vesti
▁Maumelle
▁Uscg
▁exciting
▁resembling
▁wisdom
▁Sardinia
▁Wardsboro
▁Mankom
▁adopting
▁suppressed
▁Forsyth
▁Specialist
▁Operating
▁gradual
▁XH
arre
▁Guernsey
▁Ulysses
▁caucus
▁Details
▁burrow
▁Ishi
▁Weight
▁taxon
vista
SPA
olithic
▁Sachs
▁Baha
▁Tou
▁bribe
▁destructive
aste
▁monastic
wikitable
▁remnant
Dutch
growth
▁organise
▁Atkins
Team
▁Boyle
uffer
▁cafe
▁Shima
▁Message
▁Lotus
DVD
▁Yel
▁Physicians
▁Pease
▁Mesopotamia
▁Constance
acca
▁Calcio
ltopia
▁Grid
auld
Public
OI
Simon
▁Kahn
Here
stitute
▁Meat
hā
▁Cine
▁aluminium
▁recapture
▁Claudia
▁Scottsdale
alco
business
feng
bane
▁Bonus
▁Zam
▁Synod
▁Nolan
▁Could
▁Congresses
mitted
CHR
▁maxi
▁Düsseldorf
▁melodic
▁Parkinson
▁Qualification
▁Frostburg
▁breathing
▁Vijay
▁Diplomatic
Joseph
▁Niland
▁Bona
▁troubled
▁routed
▁Stephenson
▁Rapp
Christ
peck
▁Wolff
▁Missing
▁leisure
▁Nassarius
▁Veronica
▁antibiotic
▁Peerage
▁freezing
▁Poet
naga
▁accelerated
▁Corral
▁pleased
AMP
▁Amin
▁Adler
zano
▁portrays
▁talked
christ
lok
conductor
▁Nuiqsut
▁discourage
▁embryo
▁oversight
▁Caucus
▁sept
Hill
▁utilis
▁cornerback
After
Brazil
▁Langley
▁NPR
laden
++
▁Ethan
gaz
▁Mixing
▁juice
▁Samar
▁Henley
▁Wien
▁Export
▁Tort
zero
▁Gallagher
▁epithet
▁categorized
▁Buckingham
▁arbitrary
▁hunger
▁Buras
opathy
unene
income
▁hike
Ham
▁Looking
Pat
▁Shia
▁Dimondale
▁subsidiaries
▁praising
variance
▁sparked
itia
valent
▁volunteered
Van
AY
▁Conte
itarian
▁Sonic
eyed
blaze
pang
ostom
▁Crack
▁Gonzales
▁Hoosac
▁anatomy
▁Shun
▁Turbo
gü
▁Example
kamp
▁Tran
▁Rebels
Original
▁Dairy
▁confirmation
▁saga
eagle
pressure
Most
▁favoured
Jones
RW
▁Karel
istan
▁Celebration
▁España
▁Hitchcock
thermal
jević
▁heroine
kova
▁widened
▁Esper
▁restriction
▁Evap
quette
▁Lagos
▁Medici
▁Denham
nberg
▁careful
MSA
▁deficiency
▁immunity
▁undisclosed
▁affinity
▁Grimsby
▁Residential
▁investigators
▁Mariana
ío
▁wrist
▁Booker
▁Millbrook
▁Soo
▁barred
▁shutout
Step
liev
▁directorial
dru
▁Duo
▁cinematographer
▁leopard
▁worried
apartheid
▁Dunstable
▁Bliss
▁Principles
▁Antrim
schaft
▁arising
shaft
Columbia
ipper
▁kickoff
manager
politan
▁Nursery
mack
▁ABS
colonial
▁emotion
Special
▁Definition
▁ecoregion
▁Comprehensive
▁Breeding
▁Narrowsburg
▁relics
▁Defender
▁Rufus
machi
▁Guiana
▁observing
zuka
▁outpost
Loire
▁amplifier
▁brigadier
▁necessity
▁Jericho
▁escaping
▁insignia
▁ideological
▁gesture
▁Glencliff
▁Beckett
▁Dancer
▁Hyp
kap
▁Harrow
▁butter
▁biodiversity
▁rendition
▁expulsion
Charles
▁harassment
▁Magnum
Royce
casing
standard
▁deposition
▁Bellaire
▁tyre
▁nineteen
▁disturbed
itsa
afar
appi
▁fishermen
▁Barnsley
▁tidal
▁Usually
▁batter
▁concluding
aš
▁Bunny
▁Stadt
▁baronets
Ant
▁Libyan
Head
▁Yin
▁Harrisville
▁cultivar
▁Uprising
▁laureate
▁Elaine
▁transparent
▁Fernandez
▁Crook
▁Shira
jø
▁Garwin
▁operatic
palaku
▁Mandir
▁embrace
CCC
Hot
▁rejection
▁slug
▁Freud
▁Muj
▁shifting
▁Maharaja
▁Priory
▁Chak
Europe
▁Endangered
▁evaluated
▁Triumph
▁Asotin
▁glider
▁Sudbury
šić
▁embark
▁pillars
▁Flame
▁Bark
inck
▁Sample
octa
▁Rhod
▁Bittinger
▁Canucks
▁influx
▁Northeastern
▁installment
▁Haf
▁marrying
funded
Cycl
▁Imam
▁Barbar
SCO
▁Paducah
graduate
▁Bunkerville
▁USGS
▁playground
hull
▁Icon
ellus
bec
▁Silesia
krishna
▁temper
yck
▁elegant
▁launches
▁Schofield
▁Yacht
▁Mist
▁Sabres
Year
▁Mole
▁ornamental
▁chiefly
guru
▁Alessandro
▁Suzanne
▁unopposed
▁Hussain
Westphalia
▁Combs
▁transporting
meadow
mbra
▁Nominated
▁Innings
▁Jct
▁engineered
Brown
▁Painters
umber
▁Expert
Grigor
▁Tobacco
▁Technique
▁Extinct
▁Nearly
▁Pamela
▁diverge
heit
deep
Paint
fifth
▁Rig
uhl
▁portraying
▁Join
▁concerto
▁cooler
▁Lamoille
▁Quonset
▁avenue
▁Mountaineers
▁bloom
▁differentiation
▁descending
▁mounting
inkel
ème
▁Cayman
population
▁Hawthorne
rada
demo
▁Hotspur
▁amenities
▁Anatolia
▁fibre
tuck
▁specify
loop
▁Holding
aceous
bearing
▁Plantersville
▁trolley
▁miracle
▁rumors
▁glory
▁chaos
ría
▁Ramón
▁prescribed
rix
▁Cecilia
variant
▁reelected
retta
▁refit
growing
▁Barclay
▁Minnewaukan
▁Mitsubishi
▁likelihood
▁Lough
▁guild
▁Pocket
▁Bragg
▁Eads
▁foreigners
▁antique
LN
were
▁Hamid
setting
rique
CAS
▁Muir
▁pup
▁portray
▁revive
▁Blast
gnos
▁Expo
▁Platnick
▁Prohibition
▁Rochford
▁millennium
▁Edited
▁Dnr
▁comune
▁cliffs
▁Fourteen
▁gifted
▁Eastman
▁Weimar
▁Yahoo
▁Audit
▁Longmont
mä
▁Yoko
▁Sick
religious
▁Seaford
wright
▁Ecclesiastical
▁accessories
▁securities
▁Greyhound
▁Manville
▁Samantha
▁|  
▁distill
▁Quintet
▁chemo
ental
Collected
Steve
having
▁nobleman
▁(*)
▁stag
▁Canistota
▁furnace
▁Prieto
▁Briggs
▁instability
▁reptiles
feather
▁hanged
imus
ower
▁Bao
▁Bridger
▁Tatar
▁erotic
▁extracted
▁leuco
nsible
▁Maw
kho
▁Otis
▁Selma
ač
Arab
Richard
female
▁Recovery
▁Hosston
▁hijack
▁Appointed
▁precedent
enau
▁Wolverines
▁Lack
▁Unified
▁popularly
▁Owensville
raga
▁dinosaurs
▁unwilling
▁Shamrock
▁Sixteen
▁Syr
security
▁Holyoke
▁Pollard
▁Destroyer
indi
▁capsule
▁conserved
▁Emilio
▁Haw
▁digits
▁midfield
quent
▁catching
▁peripheral
▁Patagonia
▁reliability
▁accession
▁bilingual
▁tariff
▁Alcova
▁cyber
computer
▁Hira
palli
Dade
osity
▁seventy
strip
▁Antony
▁Chiang
▁Swanson
▁penal
▁Rowland
▁enforced
Turn
Qui
▁Vanessa
▁flap
▁unused
▁rejoin
activity
▁passionate
▁accuse
▁Scot
▁undermine
▁Welles
▁Levine
▁invade
▁Constantin
ckel
▁Junk
▁shy
▁Glamorgan
▁Tygart
▁enslaved
▁gubernatorial
▁marijuana
▁potassium
▁conceded
agno
▁Magnet
▁affordable
▁Seng
steroid
Henry
communist
▁Zah
metry
▁Rae
fang
▁damp
▁courthouse
▁mentally
covered
weep
▁optimization
▁truncated
▁Athena
analysis
▁Dall
▁dentist
utin
▁sake
▁programmer
▁questioning
olence
▁Henrik
▁Osceola
▁Pleistocene
▁Suriname
▁steward
▁Kub
▁Pere
▁Boro
▁pagan
Will
▁Debate
cf
▁sympath
essen
▁principally
lje
▁Dundalk
▁prosperity
▁sampling
▁Antilles
▁unfinished
▁Rigby
▁Rudd
▁unfair
▁Funny
phra
▁esp
▁crossover
▁Sava
jian
▁heroic
equivalent
interest
▁Galli
▁lifting
Union
▁Regard
▁Rothschild
▁goaltender
▁vitamin
▁brood
▁Madhya
▁challenger
▁aviator
▁Axel
▁discontinu
▁Ankara
▁Virtu
▁instrumentation
▁cites
connect
▁pledge
▁supplying
Act
▁midst
▁Smash
phase
Ang
▁Santana
▁Mug
▁repel
glucose
▁Díaz
▁Emeritus
▁diagonal
▁prairie
▁Spreckels
▁Feeling
▁displaying
▁Cooksburg
oceras
ír
▁Warwood
▁Gael
▁Sufi
iceps
traditional
sensitive
▁Creed
▁Bund
▁rewarded
▁turnout
▁Zem
▁Dubuque
▁Hardscrabble
▁liquor
▁Zheng
▁Bournemouth
▁depict
▁piston
▁Fallon
▁Blank
▁Clove
▁guilt
▁comparative
▁Peach
▁confident
▁café
▁investigative
Valentin
▁Fabian
▁Thurston
IND
▁Ramos
AQ
▁Qual
▁Jade
lange
accept
hex
▁travelers
▁Hampstead
▁liberty
▁Hooper
▁Ives
check
similar
▁mainline
▁Alfredo
scholastic
▁Parachute
▁segregation
▁taxpayer
▁Cassidy
▁sewage
▁outreach
▁Managerial
cipher
▁LED
▁Gail
MAR
ISD
ocarp
▁Agua
univers
▁Preparatory
▁entrusted
▁nonetheless
▁Marrero
▁foothills
▁Manuscript
▁Burundi
▁Peoria
▁Pleasure
▁tolerate
▁Johor
▁Denise
▁Beryl
▁Agra
pton
▁Vander
PRO
▁Anglia
▁Canary
▁sexes
poor
puri
▁reappear
Wood
▁Uniform
▁debated
▁Celebrity
▁Guantanamo
▁Scientology
▁Thessaloniki
▁perimeter
▁Framework
▁taxonomy
▁Mowich
▁Bernstein
▁slab
sión
▁Vida
▁tilt
cutter
▁Copyright
▁libretto
▁cuckoo
▁ambient
▁marries
▁Deacon
▁Distance
rugby
canonical
lden
▁Hoch
▁dispatch
▁Tribal
▁Série
▁Kristian
▁Faw
▁lean
▁Historian
Featuring
▁minesweeper
Your
▁Cromwell
▁bargain
tei
clus
▁subgroup
▁Viol
wild
▁Westwood
▁Bodies
▁Challenger
oose
▁Manawa
▁Haifa
▁Prisoners
▁dorm
Water
▁Hock
Continent
▁Montréal
▁contemporaries
▁Botswana
▁amalgamated
resh
▁generous
▁Eich
▁Yen
▁Pup
▁Shall
má
▁differing
▁skier
▁Swami
▁Colli
utta
▁limb
▁Fail
▁Geschichte
▁archipelago
▁rhetoric
▁Alonso
▁wrapped
▁Instruction
touch
Present
before
rha
rott
▁compute
▁Luzon
▁Lara
▁Crooked
▁Goo
▁parameter
▁taxation
haw
▁Reptiles
▁catalyst
▁Kart
▁Kristin
jong
▁thunderstorms
▁Buk
pounder
▁Gaming
▁silt
martin
CAR
ecki
▁Comparative
▁Volkswagen
▁Sicilian
▁Surnames
▁ordinance
▁Goethe
thorax
VB
▁Popejoy
▁Ready
▁Orphan
▁specializes
▁candle
▁Hayward
Second
magazine
Abb
military
small
▁Tav
unter
▁Nv
autobiographical
▁Migration
▁México
▁mushroom
▁typhoon
oscopic
phenyl
▁Martinville
▁folding
▁Update
▁firmly
avar
bac
▁Falk
▁stretching
▁Consol
holz
▁slash
▁Westernport
▁Bechtelsville
▁susceptible
▁spontaneous
▁Flagstaff
dō
▁goalscorer
▁Napier
▁freeze
▁Kaplan
▁antigen
▁hangar
▁vineyards
▁mantle
▁Few
chop
▁Loma
hre
▁Rodrigo
▁convenience
▁Manfred
▁sociology
▁reply
▁ANC
ulous
▁Luk
olus
idge
luvial
▁mistaken
paid
▁Defeated
▁abbreviation
▁adolescent
▁unhappy
▁Calendar
▁Variations
▁drone
▁pulp
▁refurbished
lower
▁guess
▁Hoopa
▁Spar
chak
tama
museum
▁magician
▁monumental
▁repealed
▁cheaper
▁Forster
▁sting
hild
vod
▁Guggenheim
▁simplified
▁Spitfire
▁Peacock
▁MacArthur
▁Kihei
▁Diver
▁Alter
▁curtain
▁Grangeville
▁honoured
▁Trevi
▁Dogg
▁Wrong
▁Petrov
▁Fuku
▁nutrients
▁aggression
▁Submarine
▁seventeenth
▁Lö
▁Lacey
▁Rolf
▁Tornadoes
Embassy
▁Oda
olic
closed
▁remixes
▁Growing
▁beloved
▁Campton
▁Kapoor
▁Scoring
▁Blanche
▁Ghanaian
▁formulation
▁Panic
osse
DNA
Ul
▁slated
ück
▁Mecklenburg
▁severity
▁Abilene
▁Screenplay
▁invites
▁Editorial
▁Jewel
▁QB
Asia
▁stretched
▁drilling
southwest
▁Ante
▁relocate
▁Tub
▁unexpectedly
▁packet
issued
▁Ioan
▁Highest
▁Phyllis
▁Refugio
▁badminton
▁demonstrating
▁morphological
▁Acres
▁denomination
▁Lung
▁blank
Wild
▁Patron
▁Loft
▁Material
Thomas
▁Consolidated
▁Eccles
Base
▁Auditorium
▁Household
▁Dino
pathology
▁Wreck
▁riff
▁intervene
▁advertised
▁lever
ulatory
▁Slate
wire
improv
Temporary
Kress
▁anarchist
glyph
Lake
▁Widow
▁Molina
▁Zon
modal
▁Licht
▁LCI
▁Juno
▁accreditation
▁probation
▁copied
▁trough
▁Mandal
▁Whitmore
▁northernmost
▁detailing
▁validity
▁Gond
▁Tanner
▁Consul
▁Berryman
▁Minsk
tomi
oller
▁Picardy
▁Trumbull
▁implicated
▁Reeves
ween
▁Benefit
▁proposition
Italy
▁Atom
udu
▁GPS
▁Kristen
Waiting
▁fishes
Page
▁Petra
▁obligation
tuna
▁Tokugawa
▁bamboo
▁Wireless
OBE
TK
▁costly
año
resp
Israel
▁Silesian
▁inherit
kana
raven
bearer
▁Mater
fford
▁Adaptation
▁Structural
▁semantic
▁vintage
▁sandwich
product
▁Naomi
▁teens
▁Thistle
▁Magna
▁circulated
bottom
▁feeder
▁parasit
maine
attack
▁baker
▁Bain
Marc
▁Helicopter
▁colonization
▁wavelength
pong
▁Radar
▁viewpoint
submarine
▁Burnley
▁Pompe
▁Bitter
▁Foraker
▁Baj
thesis
▁Chadd
chain
▁Astronomical
▁Bollywood
▁McGregor
▁Sugarloaf
▁incidence
zil
genetic
▁Paxton
sounding
itha
▁tortured
▁quota
▁eager
▁booth
quan
company
▁Gonna
▁playable
▁Hinduism
▁bombed
▁Ashes
▁Milano
▁Ganga
▁Hyder
▁densely
▁Cebu
▁Ambulance
▁imagination
▁unnecessary
▁Sociology
deutsche
▁stereotype
▁entertain
icio
▁Foss
Oxford
mila
▁Fru
▁Elmer
LY
saur
▁Secretariat
▁Spaniard
▁Synagogue
▁Perhaps
▁Herz
▁Musée
▁exclusion
▁Bore
▁turf
▁payload
▁Whole
▁outward
▁Owner
▁kidnap
Ol
▁practically
hti
▁Peng
▁Daddy
▁conclude
▁ignore
qué
doubt
▁disappointment
▁refined
Includes
▁compiling
hla
▁extratropical
▁Kron
▁microphone
▁Willapa
▁senate
▁Conquest
Schw
▁Syd
▁Chechen
▁summa
▁Reaction
▁Manuka
▁MMA
▁lamps
▁compressed
▁Rik
catcher
▁Keating
▁departing
▁Vleet
▁maize
INE
▁meanwhile
▁denounced
demi
▁Leiden
▁favourable
▁Klu
▁interstate
▁Pune
bodied
▁lending
▁skirmish
▁Temperature
▁Ezra
▁Graeme
▁Identity
▁focal
▁Fidel
ieg
necked
▁Airlift
▁reflex
▁Fernley
▁Spit
khi
fleet
tika
▁Karp
bum
šov
chari
polar
▁disrupted
▁Architect
▁yielded
▁Buff
▁Mauritius
▁Securities
▁Tujunga
▁Felipe
▁Princip
▁Rory
▁Phone
OO
ubbing
▁Alicia
▁beans
▁Serge
VD
▁necessitat
▁Address
▁deflect
tzer
▁Waldo
mentary
change
tbol
Gold
▁spun
▁Tito
Pomeranian
▁Lowry
▁lend
▁attendant
▁Pomerania
▁entertainer
▁Sevilla
▁Lucie
styled
ał
▁Threat
▁Cougars
propelled
▁silicon
usta
▁Pare
▁thrive
▁bounce
ENT
▁Henne
Ball
ocephalus
Euph
grim
▁conditioning
MAX
▁pearl
▁redesign
▁diminished
ophor
Moon
Protect
▁monograph
riv
▁justify
▁Judiciary
▁meditation
▁infrared
▁harass
▁Xenia
aglia
Hey
▁condemn
▁nursery
▁Homeland
▁Kitty
▁Mellon
▁Bonne
▁Barnet
▁pickup
pitch
label
▁Buster
▁coconut
▁disqualified
▁Zombie
▁Virgil
▁flipped
▁Guilford
igue
UE
▁brewery
▁Delmar
▁Paddy
▁reunite
▁clashes
▁Kilda
▁Spice
▁Bá
▁Viola
▁Grain
▁algebraic
ucca
▁Cargo
▁Riegelsville
▁Sabbath
▁baptism
▁Column
▁cruel
▁Lesbian
monstr
▁Historia
▁Presley
▁Carolyn
äl
buk
▁rebound
▁Reza
▁mechanic
rika
▁nectar
▁composing
▁Tallgrass
▁Dunbar
▁Helmut
zyg
▁Addison
▁accordingly
AMA
▁diverted
▁Webber
▁Cambodian
▁Croc
▁Aldo
▁Occupation
▁cache
▁Belton
▁raided
▁suffrage
▁resonance
▁cortex
König
▁Supai
NER
▁endorsement
▁forensic
▁mystic
▁Khalid
▁Kiev
mono
▁harmful
secret
motor
▁Equal
▁Fender
▁Guillermo
▁Nooksack
▁Phoebe
▁conjecture
▁episcopal
▁Ortiz
▁cockpit
▁lagoon
▁sociologist
▁Anatomy
nathan
CBN
terre
ulatus
▁Flip
zell
▁Peder
IQ
▁Dip
▁Piet
Kreis
drom
px
▁Mitsu
▁Nagoya
▁diocesan
▁voluntarily
▁Chola
▁Alcohol
▁Mok
▁vague
▁Acid
▁Sparrow
▁patented
inspired
▁glove
troph
▁Hä
emma
▁Lilly
▁McCu
prin
▁Susquehanna
▁Vuelta
▁arguably
▁astronomical
▁Ohe
▁Relationship
▁Translated
▁Honoka
▁Childhood
▁Understanding
cello
▁stranded
▁urging
▁Sax
▁stud
▁flux
▁veto
▁Pter
▁switches
▁salamander
▁vertebrae
▁Sato
▁Ladysmith
▁Elton
▁Zim
▁Martinsville
kku
▁Karim
burger
BY
▁Banksia
▁Navajo
approx
▁Seminar
▁lethal
▁dissipated
▁Staffordville
▁Mirza
▁Shang
▁hinder
▁remixed
Group
▁Pill
legged
▁Archiv
▁Butterfly
▁Examination
▁Sylvester
▁Zeppelin
▁engraving
▁chronological
▁brave
ripping
▁hurler
Israeli
▁Held
ague
▁basically
▁restrain
MY
make
▁Ethno
▁Lego
▁angels
▁Badminton
▁busiest
▁Likewise
état
▁timetable
▁midway
▁lipid
▁Chou
▁perch
▁Zab
▁sampled
Madison
▁Oxy
▁Muh
▁surveyor
▁Exploration
▁Monsanto
▁SAS
▁Armored
▁Makanda
▁funnel
▁dinosaur
awl
rett
ethylene
operated
▁Accounting
▁migrate
ukh
agna
annu
gula
▁blogger
▁Godzilla
▁Guillaume
▁happiness
▁merchandise
▁schooner
▁Artemis
▁Cisne
▁enclave
▁aiming
▁furious
▁Scofield
bery
▁Jaguar
▁announce
▁Baird
▁renumbered
▁Prehistoric
bull
▁Flori
▁impress
▁Renton
▁admired
▁sabotage
▁Freemason
▁flexibility
▁Diamondbacks
▁Covenant
▁Sundance
▁pencil
▁Alamosa
▁hatred
▁compose
▁divisional
▁labelled
Power
▁Been
TW
▁Cub
▁Logistics
▁discrete
▁vigorous
▁deportation
▁Dauphin
▁Buckinghamshire
▁foremost
▁ligament
▁Drain
▁Partial
rgu
ló
lytic
▁Hatfield
▁Hirsch
galact
▁Dolly
▁Antigo
▁Hier
enchant
ologia
▁Buc
▁reprint
▁Archipelago
▁Collingwood
▁Sovereign
▁Goddess
▁Mustafa
▁newest
▁commemorated
▁rhythmic
▁Haji
▁Vere
▁Covered
muth
▁tenant
VU
▁Worm
▁Grab
▁consulted
▁Osi
▁Viva
chandra
▁Tō
lö
▁Polly
▁Cabin
producing
▁Avalanche
▁Café
▁Rickenbacker
▁Yosemite
▁Mccoy
▁humour
▁Flute
▁Salome
ritt
▁Naked
▁behave
▁invertebrates
▁undertaking
▁Manchu
deca
▁negatively
▁emit
blanc
hian
centennial
▁Brewster
▁Juventus
▁Stoystown
▁Tohatchi
▁equestrian
▁shipwreck
▁Hellenic
▁metabolic
▁Resaca
CHA
▁Augsburg
▁Bathurst
▁Ferrer
▁quasi
▁violating
▁Poison
laid
rij
WU
▁Smyth
▁Abhi
▁soup
terior
▁Syed
▁Ruin
▁overflow
bishop
▁Bartholomew
▁Charadri
Mexico
▁mitochondrial
▁Bale
▁paddle
▁Patel
articulate
Pass
Optim
▁collaborate
zov
office
ordinate
priv
ugi
▁Konstantin
▁remastered
▁Maximilian
▁Jarrett
▁Sharpsburg
▁unpublished
▁Frey
division
▁Boxers
NV
▁Cit
▁solicitor
▁Blitz
tool
kiewicz
▁Tract
Wales
▁Tipp
▁Tana
looking
posthumous
▁desirable
▁Asylum
▁lattice
▁Dialogue
▁Fabyan
▁Schön
▁hailed
▁Mitt
▁Burkesville
▁Guido
hakea
▁Khmer
▁Wiel
umbling
▁Eury
▁Printing
rida
Director
▁Parry
▁Dental
▁Advertising
▁Victims
▁cosmetic
▁unbeaten
▁collided
▁Manorkill
▁Diesel
ASL
▁shootout
▁Advancement
▁Exile
▁tying
▁overseeing
▁Root
▁exceptionally
GV
Skip
▁Intellectual
▁encyclopedia
▁Soyuz
▁examining
▁foliage
▁centred
▁newcomer
▁sunlight
▁Duty
Claude
Eastern
▁deserted
Rose
▁Kendallville
▁programmed
▁Salford
▁enthusiastic
icki
hera
▁Altus
itsch
ilio
▁erupted
▁exhausted
▁proprietary
▁narrated
▁Pharmacy
▁Anima
▁longitude
▁planner
joined
▁Zimmerman
▁Managing
▁Pagan
▁entertaining
genous
▁Thad
▁liber
▁Bernardo
▁Sichuan
▁taxonomic
▁buoy
▁Achille
▁Sykesville
▁Shipyard
warden
▁bestowed
dorff
xyl
bark
edged
▁Karol
nominated
▁Moll
▁Hut
existing
▁Concordia
▁Yah
▁Incorporated
▁fatigue
▁Dunbarton
▁Serial
racing
hedral
activation
ilian
hearted
▁Nobu
▁Ruiz
▁Khat
▁risen
▁deposed
▁Comparison
▁Jiggs
▁parachute
▁liaison
▁Olympiacos
▁Societies
beta
Roy
▁Carlson
▁Thomasville
cius
▁Fleetwood
true
▁colorful
▁Butcher
▁Tec
▁Skate
rival
▁assured
yellow
kong
▁Designed
ntino
▁Stereo
▁Tani
▁carnival
▁pleasant
▁fencing
▁Polynesia
▁Nail
▁genius
▁Nightmare
▁Shawnee
▁meals
▁robotic
fired
▁Madness
SSA
??
▁faint
fol
▁Ching
▁Frame
enactment
GER
pathi
▁Crist
▁Used
gaon
▁Bonaparte
▁PAVN
▁fungus
Leary
lico
▁Laden
mould
Leg
▁Dirk
▁Twi
Consulate
Track
mostly
▁Clint
▁Haut
▁torpedoes
▁Cavan
chell
▁Philo
▁Jacqueline
▁Reflection
▁Guangdong
▁Pyramid
▁Called
▁Hutch
▁Kyo
auf
▁Nearby
▁Aran
▁Columb
▁Korn
▁Crowley
olph
▁weakening
design
▁Percussion
▁satisfaction
▁coincided
▁monitored
▁Essendon
▁Jammu
▁Brentwood
awan
▁Neolithic
▁judgement
éli
phonic
▁Bld
▁Elector
▁engraved
▁Yarmouth
▁Olinda
joint
undi
▁Partner
▁gamb
▁shortstop
citation
▁Desire
▁collage
pelt
kker
terdisciplinary
Thank
▁Musk
PEC
▁Muz
omba
Maritime
▁Papal
▁wedge
▁Rating
▁Learn
▁pixel
▁Pittsfield
Histoire
▁Palatine
▁sustainability
▁Vargas
▁mandated
auto
TKO
▁beast
practic
▁Gaspar
▁Urbana
▁Sandyville
masa
▁supportive
▁Traditionally
▁Menominee
▁thermodynamic
▁Deck
▁Wyatt
▁underside
▁Hilde
▁Babu
capable
▁Shape
▁exclude
▁Dina
vian
without
▁Civilian
latter
hook
azzo
orio
gastropod
insurgency
▁Confederacy
▁Jürgen
▁Québec
▁hostilities
▁recognizing
▁postgraduate
▁Stevie
▁Assist
▁multimedia
▁Tarzan
▁Camille
Michel
▁Ruben
util
▁Moshe
itzer
▁Wax
▁frontal
▁Compass
▁Rani
▁Dimension
▁Preparation
▁eligibility
▁Calabria
▁Aristotle
scoring
▁nickel
closure
▁Freiburg
▁Bray
▁vegetable
write
▁Quant
▁accidental
▁Josephine
▁//
▁Johnstone
▁Faso
liff
▁Pontifical
▁empirical
▁perpetrator
▁Haydn
éri
▁thumb
▁rotor
ALL
theater
▁Cyn
▁objected
▁Loving
▁Summerfield
▁Leng
vl
▁facilitated
zhen
▁recreate
▁Martian
▁violate
▁Ashburnham
▁remarried
▁Sejm
▁Commentary
▁Consortium
▁Pendro
▁prevailing
Dec
▁repeal
▁WTA
▁Gibb
▁Bosch
▁headmaster
▁Sorrel
▁commenting
Intercontinental
▁Saranac
▁unmarried
▁Pigeon
▁spanned
▁Lindsey
▁Edna
▁Macy
Chicago
izzy
▁nesting
▁Zeus
▁Manu
buri
▁Ferro
▁shelf
ići
▁Bose
▁Curriculum
▁emeritus
▁evangelical
▁Dunkirk
▁Kaana
ombe
Last
▁impart
▁thoroughly
▁authorised
iffer
aroo
▁compiler
▁Cinderella
▁Desk
▁Comet
▁Keynes
▁pitches
▁reformer
▁Mannheim
ñez
▁Boll
justice
▁Collaboration
▁McDowell
▁Yiddish
▁München
▁Prichard
▁Derrick
▁Breaking
▁frost
"/"
▁evacuate
▁preseason
▁Patton
PW
ARI
young
azione
ggie
▁firearm
▁addict
▁Crewe
▁interconnect
▁excited
▁obliged
▁Eileen
▁initiation
▁Tallinn
▁solvent
▁Reporting
▁Performer
▁maple
interrogat
character
include
soccer
▁Congregational
▁Demi
▁annul
compatibility
▁Rotherham
▁hemisphere
▁modular
▁Navarre
▁Predator
Kill
▁malaria
▁Schuster
▁Rollins
▁Museo
Link
▁Napoli
herald
▁truss
▁slam
opathic
earth
▁gusts
APA
HV
▁Gentlemen
▁Gertrude
▁Kahlotus
▁Locas
▁Papp
▁Yusuf
▁Designer
bü
▁surpass
folio
▁Curry
▁invoke
▁notified
▁cooked
cino
stedt
▁Mister
▁Bogotá
▁Gymnastics
▁deputies
▁fugitive
▁Thanksgiving
▁dividing
▁Remote
▁orchards
▁Pearce
▁techno
▁Clemson
▁Olimp
▁bodyguard
phony
▁tired
▁McKi
▁Soup
shita
ristlecone
▁Plastic
lić
▁Kush
▁Sergey
Joe
▁accusing
▁Cyclists
▁Brasileiro
▁Gina
▁Norma
▁Gabon
▁Steiner
▁trusted
▁KV
▁appreciated
▁lamb
Sunday
▁Dent
easy
▁Malo
▁FDA
▁Hillary
▁Angie
▁relinquish
▁Incumbent
▁retaliation
Gypsy
▁Messenger
cursion
▁indicted
▁Bien
▁Tsi
▁Genera
▁everywhere
▁deteriorated
▁southernmost
▁commuted
▁Phan
pom
▁justified
▁trailing
▁Sree
▁Guadalajara
▁hazardous
▁prejudice
▁Ciudad
▁Gillespie
▁Nickelodeon
abol
▁topographic
▁apex
▁priesthood
▁Fiona
▁Osman
▁Maximum
painted
▁devote
▁Smithville
▁Riddle
khu
▁RPG
▁forfeit
Doug
▁Rö
▁Andri
More
ouncing
▁Musa
▁Sør
▁Rogue
▁Alzheimer
▁Claudio
▁Sheppard
▁Vancleave
▁illegitimate
▁newsletter
Lower
▁amalgamation
▁barley
▁Vidalia
▁yeast
▁Jessie
natal
▁Wanted
▁blanket
▁uneven
▁FLO
▁Scientist
NBA
▁Painter
kola
families
▁Yerevan
program
evski
▁physiological
▁Havre
broadcast
lingual
▁Collierville
▁gunboat
▁Mecca
▁regeneration
spheric
atio
▁necro
▁Behr
▁lyricist
giving
▁Albi
▁contamination
▁grandparents
▁Bahadur
kirchen
eño
Sullivan
Tac
▁Invitational
▁abruptly
▁painful
▁repression
▁sweeping
gender
▁Oxon
▁SSR
▁requesting
øn
celli
nitro
▁Valdez
▁CSKA
▁Shipbuilding
▁businessmen
▁satire
▁Herndon
▁customary
▁Thrill
▁Tremont
▁Kingsville
▁topography
▁Least
respect
▁EDT
▁Chakra
▁Morley
▁periodically
▁eccentric
▁Bourbonnais
▁Gardiner
Scholastic
▁Chichester
▁Specifically
Unicode
▁Annals
Northamptonshire
▁Laval
LAN
▁Hulk
bilities
▁hermit
RAD
▁oceanic
▁searches
▁Gianni
▁Aerial
▁elbow
▁Velvet
▁Lutsen
▁Terence
▁subsp
▁builders
volt
▁Firm
▁leaked
Serv
▁Ritter
▁somehow
▁RPM
▁Minority
▁Xuan
▁Abdel
▁Hodge
▁selecting
phore
▁Napa
▁piers
shev
▁abdomen
▁besieged
▁nocturnal
▁symphony
Miscellaneous
▁transverse
▁Chel
avon
▁Quiet
vá
▁Baylor
▁Roar
▁Saka
▁Duffy
▁Valerie
vár
Web
▁Neighbor
Commencement
▁français
▁prevalence
▁Federico
▁conditional
▁Wilbur
Thai
▁Ulrich
▁kicking
▁racist
▁Pest
municipality
ookie
szcz
▁Loren
▁suck
▁nucleo
irostris
jection
▁raped
▁Fremantle
▁Loyola
▁weaker
▁Harald
▁Colbert
▁waterfront
▁repay
ól
▁Sheep
GG
TOR
▁designate
▁Dyke
▁Rage
fluor
acion
▁Matthias
▁Nairobi
▁Lisesi
▁urgent
plast
ticus
audi
▁slowed
▁insists
▁ceded
▁modelling
cosmo
▁anymore
PTS
▁Faroe
trade
bend
▁privat
▁Mullan
▁Earthquake
▁Litchfield
▁acquaintance
▁panchayat
▁Ticket
▁Armagh
racial
▁viaduct
▁Gho
▁Ivanov
▁fifteenth
uille
▁Talking
▁weave
Académie
▁Funimation
▁Mortimer
▁Bromwich
▁Wellfleet
▁meteorologist
proc
▁Gali
▁Ernesto
▁outrage
▁Rhodesia
ahn
▁resisted
grown
▁Currie
juku
▁Visiting
▁Cummings
▁Sautee
▁McGraw
▁Pozna
▁Jewett
▁scroll
▁trench
▁propose
▁speedway
▁Wittmann
▁migrant
traumatic
vica
▁doping
▁Sturgeon
▁climax
▁dignity
▁oxidation
▁convex
▁Yunnan
▁Drift
▁plc
▁Choral
▁proving
▁Sahib
▁Biel
▁yellowish
▁Brewery
cherry
▁trader
strike
▁Belleville
▁Dynamics
▁Olowalu
▁enthusiasm
▁smallpox
▁subscribers
soluble
▁Dominique
▁reputed
▁webpage
▁Galerie
▁touching
▁dictate
hesi
▁Qin
fronted
▁Taj
organic
kovsky
▁Taxi
▁simultaneous
▁Donaldson
▁Joaquin
▁Guangzhou
▁stimulus
▁Midwestern
▁Saha
▁Grover
▁Pear
▁mistakenly
▁groundwater
▁Wellton
graf
▁Pisa
▁clam
▁Parc
bler
▁obviously
▁shareholder
MAP
▁Afon
holic
▁Fifteen
▁Poinsett
▁Veterinary
▁acceleration
▁cylindrical
▁rigorous
▁Mahmud
▁Krai
mode
▁dictatorship
▁jewelry
▁Michie
▁Vickers
▁Fig
SAR
▁Curse
▁Isla
▁Rowan
▁Organic
▁greet
gama
▁Rankin
▁Fanny
▁Commandant
▁assaulted
synaptic
▁Félix
▁Vandalia
▁infectious
▁observatory
▁Velo
▁envoy
Park
▁Skills
▁Freak
▁McGee
▁Kew
▁Rü
mbri
quad
▁chancel
rox
▁graphical
bear
▁Rabin
▁Kamuela
▁Nunavut
▁Parramatta
▁Protector
▁refresh
▁Meek
▁Raceway
Hall
▁Hatchville
▁Glu
tide
▁Ballard
▁Davey
▁anyway
phry
bbi
▁Gustaf
efficacy
▁Activated
▁Ballarat
▁Conversation
▁Laboratories
▁Retired
▁acronym
▁unavailable
tlán
▁Suburban
▁Prasad
▁saddle
▁Moravian
▁zoologist
▁Lynne
Philippi
▁Thereafter
▁clergyman
▁Rockfish
coded
▁Impe
▁Schleswig
▁Twentieth
pocalypse
▁Revelation
acetate
schrift
▁problematic
IBA
▁Hermosa
▁spinning
▁Lviv
spiel
▁testify
▁Gio
ayev
▁alley
▁Paine
▁Moral
RY
▁abort
▁Catawba
▁Cavendish
▁antiquity
▁conspicuous
▁frustrated
▁Equity
▁Wadsworth
▁Subcommittee
▁Handicap
▁Sherlock
▁Phu
▁Begin
bore
▁Cruc
▁Expression
▁predominant
▁rust
▁delta
▁Boon
▁Constituency
▁Wrexham
▁Builder
▁Leopard
▁interrogation
▁Ajax
▁Omega
▁wetland
▁Twain
▁neutrality
▁Akira
marriage
▁Somme
▁royalty
▁Luce
▁Herring
▁Lola
▁Bergman
▁severed
viz
▁CSX
▁Kohl
▁Endowment
▁McLaren
▁creativity
▁energetic
▁Kazakh
▁incorrectly
▁graveyard
Like
▁Kimball
▁Hazard
▁gamma
▁shotgun
▁Directive
Operation
Dark
ocrinus
Cast
iflora
▁settler
▁Grie
ieux
▁symbolize
▁Larson
▁Trojan
▁stranger
▁MiG
▁Chávez
▁Walsall
▁Purchase
▁BYU
▁imposing
▁Cypress
▁Mantua
▁attendees
▁Simms
▁Proposed
▁Norm
▁Syriac
continent
▁prospective
Nab
▁Botanic
▁Brat
▁Crush
Adam
▁deliberate
▁overseen
Open
▁suspend
▁Lakshmi
▁Monterrey
▁smuggling
▁infringement
▁Fukuoka
▁Boykins
▁Martial
▁Rimini
▁transitioned
▁bloody
▁wrecked
▁Hawthorn
▁flourished
▁gateway
▁NME
Law
▁Patna
▁divert
Golden
▁investigator
▁flourish
▁Kazan
▁Hagen
Infini
▁capacities
▁rerouted
▁convened
▁Assault
▁chestnut
▁Lyle
uvre
gressive
▁Fiat
executive
Say
▁Bike
▁Titus
regulation
cier
▁Loh
▁Sukh
▁Atlantis
▁Hendrix
▁Mindanao
▁anthologies
▁Bantam
kali
▁abused
▁Dhan
▁woreda
cran
▁Eller
▁Crisp
▁unpopular
▁coronation
▁duplicate
▁Gifford
▁Regency
▁Freight
▁sweat
▁Goldsmith
▁Quarry
▁Boz
▁Leonid
▁flanked
▁Pok
▁novella
▁disturb
health
▁visually
▁Madhu
▁Phra
▁disguised
determined
▁Cristian
visual
▁absolutely
▁Majority
Count
NJSIAA
▁economies
▁Dungeon
▁Protein
▁lounge
▁courtesy
▁Makaha
NOR
▁Occupational
EK
ivat
designed
energy
▁Tyson
▁pollen
Break
chil
studio
▁fencer
▁Lombardy
▁Salam
▁Citadel
▁Transactions
▁plenty
▁synthase
▁Oliveira
▁meaningful
▁Lynx
▁explode
▁Mulder
▁Padua
▁Sail
▁Waco
terrorism
▁Rosie
▁Thunderbird
▁Feast
▁Procedure
▁superficial
▁Pelican
▁Scandal
▁Fanta
▁swear
▁traction
benberger
▁hardship
▁Jail
▁Clim
▁Refugee
▁dictator
▁Brundidge
▁Neddick
▁commemorative
▁hobby
▁orphanage
▁transistor
añ
▁potatoes
Mary
▁loving
▁Arturo
▁patriot
▁allowance
▁Speak
Earl
▁Raub
▁Montague
guire
industri
▁posit
▁Conspiracy
▁Hagansport
▁Inquiry
▁serpent
▁axiom
▁consistency
▁Tala
Single
▁precious
▁Esta
▁eternal
▁derive
▁counselor
▁retention
ophile
chov
▁groom
akshi
▁chased
▁Tiny
▁osteo
▁Qian
▁Glan
▁Equality
▁Firth
▁Matches
▁adjective
▁Sampson
▁inclination
▁Palazzo
▁Ponce
genera
▁Climb
▁Mariano
▁Effect
▁lament
▁Gour
▁strap
▁Bez
▁Qur
emba
▁gaze
critical
▁sparse
▁Zaragoza
▁peculiar
▁ensued
▁compress
▁Satya
help
regular
▁Pou
▁aspiration
▁transforming
▁conceal
curricular
▁translate
▁Scandinavia
singh
▁fourteenth
▁fluent
▁Croft
▁Lodi
▁Jared
▁Ascension
▁Sycamore
▁endurance
▁endeavor
▁utilities
▁Natalia
▁Bloomberg
▁Authorities
▁exercised
▁Diaz
▁proceeding
▁Dunlop
▁Jovan
▁blew
Cross
▁Thin
iyar
VV
▁basalt
gap
▁psychedelic
▁moniker
▁alumnus
▁Shetland
▁Brest
▁venom
▁stump
▁exploited
▁blackmail
▁Grafton
▁Grahamsville
positive
command
▁Jamal
▁Ullin
Look
ridden
Blood
▁Buffy
▁crashes
▁Socio
▁Quay
Alpes
▁Libre
▁Mabel
mitting
▁Waleska
▁zombie
▁indictment
▁Almanac
▁vivid
▁Viceroy
▁Viper
▁Courage
▁Shiv
wha
▁Codex
▁Soto
ombi
▁Arne
▁encompassing
▁Bok
oyle
▁Orion
▁imminent
▁genital
▁angular
▁Muskego
▁masterpiece
▁Eastwood
Plat
▁Reign
Pseud
▁Sharif
▁grossed
▁steamboat
▁Baraga
▁Gamma
axial
voir
▁steer
▁alphabetical
▁Gogh
▁Breckinridge
▁Marguerite
▁template
▁Battista
▁Python
▁definitely
▁dislike
▁Emory
▁Mackay
itative
François
equipped
▁pyro
▁Lark
▁Turkmenistan
▁vocabulary
▁Antelope
ESA
▁Walpole
▁Netball
▁Cortez
▁Stockport
▁Heidi
▁Singing
▁Ogle
schule
▁Breath
▁contention
▁Baroness
tomy
▁Accord
▁haunted
▁Uku
EZ
hiz
▁Sleeping
Grades
▁Lugo
▁Wey
▁enhancement
▁Cathy
▁Laredo
▁excursion
▁Elected
▁breakup
▁Hornets
▁Whitefield
nasaw
typical
▁Sultanate
Bell
▁Gallo
▁Mimi
▁Voyager
ACS
▁Presentation
▁Tempo
▁Psd
novo
▁Doherty
▁Immaculate
▁Mazomanie
▁Novgorod
▁electrified
▁Kangaroo
▁Pecos
▁ashes
Hard
express
▁amend
obscur
ritz
▁Franconia
▁Barrel
precipitat
▁Composers
▁Kawasaki
▁transparency
▁Blount
▁Filmfare
▁Rosemary
▁spectral
▁Clown
▁Coordinator
▁iteration
▁Ramsay
▁lobbying
▁Flex
▁Scala
grandson
tenberg
▁interrupt
responsive
▁telenovela
▁Sarawak
▁torque
▁Blackhawks
▁sawmill
▁tuning
▁Clarkson
BH
▁Roswell
mixed
brick
▁Brookwood
Winter
conference
ASC
▁Platt
penny
Salem
DV
▁Burroughs
▁regulating
▁Psychological
▁Eighteen
▁Lysite
▁investing
Read
▁Melville
▁Conduct
▁Livingstone
champion
Turkish
▁Greenberg
▁scam
▁carbonate
▁Tibbee
▁frustration
▁purported
▁tandem
▁Samsung
▁Breakfast
▁Wendell
affected
▁Volks
ramp
▁Conception
▁Hahn
▁Kwan
▁lenses
beau
▁neglected
▁hairy
▁Beaux
▁Samson
▁Dhar
feasible
▁Margarita
▁Pharmaceutical
▁livelihood
▁draught
▁worry
pion
▁Schultz
▁Plato
▁Selbyville
▁Creole
▁Iberian
development
▁practitioner
▁Enough
tolerant
▁thrash
▁Brink
▁warns
▁spinal
▁annex
▁diversion
▁Zag
GU
School
ophyllum
▁moss
[...]
